#version: 0.2 - Trained by `huggingface/tokenizers`
a n
n g
Ġ k
Ġ s
Ġ p
an g
a r
Ġ i
Ġ d
Ã ©
Ġ m
a k
a l
a t
Ġ t
Ġ l
Ġ b
e r
u n
e n
a s
a m
o n
Ġi ng
i n
i s
i ng
Ġ n
a h
Ġ w
i k
o r
Ã ¨
a d
a w
u r
Ġ g
Ġ j
Ġ r
i t
Ġ c
Ġl an
e m
u t
e s
i l
i p
e l
u ng
u s
u l
Ġk ang
a b
e t
y a
e ng
u m
a p
a g
Ġ ng
an t
Ġi k
Ġ f
d h
u k
e g
i r
o l
s i
ip un
Ġ h
Ġp r
Ġd i
ar a
ik a
Ġs ak
o m
e k
o s
u w
Ġ an
a j
i a
Ġk at
Ġi n
g a
e b
i h
e p
o t
ang k
Ġt a
Ġik u
o k
a c
or i
i y
i m
aw a
ak Ã©
Ġ u
h i
o ng
Ġd h
e d
Ã¨ n
ang g
a y
as i
Ã© n
eg ori
Ġkat egori
Ġs ing
k ang
am b
Ġing kang
Ġsak a
Ġta un
i d
Ġk ar
Ġk al
Ġkang g
u d
an Ã©
i c
an d
Ġp un
Ġik i
Ġ ut
Ġ o
u p
ang an
Ġp er
o g
on t
Ġm in
em b
Ġ y
ar t
angk a
Ġ al
Ġd ad
as a
h a
Ġ v
t r
a ya
Ġpun ika
Ġ as
u h
Ġmin angka
o p
Ġkangg o
Ġt h
Ġk ant
Ġ ya
en t
am p
Ġin d
Ã¨ k
Ġ am
i w
Ġkant hi
Ġu ga
i j
Ġ or
Ã© r
Ġd ipun
Ġan a
ar i
s a
at i
Ġd Ã©n
Ġ ak
i g
u b
Ġdad i
an i
e w
Ġut awa
Ġk ap
t er
ak en
u j
Ġm an
Ġb is
am a
r a
ont en
Ġs al
ak e
ah an
Ġp an
o d
ad h
Ġind on
Ã© si
Ġn al
Ġw onten
o v
Ġm ar
Ġth e
Ġnal ika
Ġs t
Ġn y
Ġ a
r i
Ġbis a
Ã¨ h
Ġf il
Ġs aw
an a
Ġ ar
Ġkar o
in t
al a
o b
ĠdÃ©n ing
at an
Ġing g
Ġb asa
Ġp en
g i
Ġsak ing
Ġb ar
en eng
Ġk ab
e c
e dh
in a
Ġs a
Ġc h
Ġ un
Ġm a
Ġor a
Ġo f
t i
is i
Ġk ut
at a
Ġm en
Ġk r
Ġb an
ung g
o h
Ġindon Ã©si
ant i
Ġg r
Ġn j
is t
Ġk as
ĠindonÃ©si a
Ġkut ha
Ġd ip
Ġi s
Ġw ong
Ġs aj
Ġt r
c h
Ã¨ w
aw i
Ġm as
on al
an dh
Ġb al
Ã¨ l
an c
ar ga
art a
uk u
Ġ ab
iw it
i b
Ġdi g
at h
u g
uw Ã©
ar an
Ġ aw
Ġ ag
ang ing
Ġl a
am an
Ġdh Ã¨w
en d
Ã¨k Ã©
Ġng g
er s
Ġw is
n a
is an
o c
Ġs p
ĠdhÃ¨w Ã¨kÃ©
al ing
l e
Ġn anging
Ġ ant
i an
as an
i v
Ġ ad
iy an
Ġp ar
Ġb ab
o dh
Ġd it
Ġb r
ap an
un ung
ar d
ak akÃ©
Ġingg ih
Ġm us
t a
o w
Ġk ul
Ã¨ r
Ġp ang
Ġk a
Ġ at
um b
Ġ ap
Ġs at
Ġf r
Ã© w
Ġj awa
Ġd uwÃ©
il l
Ġan d
es t
et an
Ġd is
ur an
Ġ e
in is
Ġp am
Ã© k
ij in
Ġk om
t an
aw an
Ġp as
Ġm b
Ġp ad
Ġb er
m an
Ġw iwit
Ġsal ah
uk an
e a
i f
Ġfil em
Ġn ag
Ġk aya
ab a
Ġs ar
j ur
Ġkal iyan
u c
eng k
ij i
Ġm al
Ġs ek
Ġj eneng
em p
Ã¨ s
Ġt angg
Ġ z
on s
Ġs er
Ġn d
Ġk l
Ġ um
e j
ag a
Ġw ar
Ġdad os
Ġs an
Ġp ut
it as
in d
Ġp ul
ol og
m a
an ipun
Ġt eng
Ġ angg
Ġs ap
Ġt er
uw ur
Ã© l
Ġp x
it a
e h
ak arta
at Ã¨n
Ġk ad
Ġng anti
r is
e v
aw Ã©
Ġs ad
ang sa
Ã©r angan
Ġp iy
Ġtangg al
ur u
Ġpr an
Ġkab up
Ġam arga
Ġs h
er on
Ġs uku
Ġkangg Ã©
Ġp l
Ġs ur
ak an
Ġp eng
uj ud
e x
Ġp aling
Ġl or
amb ar
eb u
uw ih
Ġpiy amb
Ġp ir
er t
Ġ ol
Ġpran ala
Ġj inis
Ġs up
Ġkabup atÃ¨n
Ġd e
Ġc ath
Ġb ak
ah a
Ġs ep
Ġk ac
iy anÃ©
Ġ ur
angg o
e y
ad i
d a
in e
eb ut
Ġr es
Ġi r
Ġl i
Ġw al
Ġu gi
Ġl uwih
Ġban jur
Ġsaw ijin
Ġs ab
Ġt im
ung an
aj a
Ġng l
el l
Ġpiyamb ak
a i
Ġd on
Ġcath etan
asi onal
Ġp ara
Ġj p
int ang
Ġ ac
a v
Ġ en
Ġk id
ik an
ik i
Ġt emb
Ġm l
Ġsat ungg
e f
Ġsaj eron
Ġs iji
Ġd an
Ġjp g
Ġnj aba
Ġd ik
Ġi i
Ġs en
ung k
Ġsawijin ing
Ġs o
Ġma u
Ġsajeron ing
Ġs is
Ġd um
t u
Ġnag ara
Ġs it
Ġak Ã¨h
j a
Ġk er
amp un
Ġk aw
Ġs ag
Ġg edh
Ġs es
Ġ art
Ġkid ul
Ġt an
an an
and a
Ġc ar
adh ah
or t
am i
q u
uh an
Ġd r
Ġt el
Ġs as
m i
Ġla ir
Ġfil m
s t
ar ah
in Ã©
u an
un an
olog i
Ġg ambar
ul a
Ġr uj
Ġn ing
y an
er i
Ġng anggo
Ġm it
Ġj am
o f
Ġt ek
Ġam Ã©r
ag an
Ġruj ukan
un d
Ġr Ã©
o y
es ia
t or
Ġp apan
Ġingg ris
Ã© ng
am el
Ġdi b
us t
Ġb ot
Ġw ew
Ġpr ov
Ġb i
Ġg adhah
Ġw ujud
Ġb l
Ġkap ing
Ġdon ya
it ik
aj eng
Ġs w
Ġs em
on i
Ã©n t
emb er
Ġteng ah
as t
Ġin ter
Ġk ep
Ġut awi
y ang
Ġp angg
Ġj er
Ġng r
i e
Ġp Ã©rangan
Ġp ol
un akakÃ©
il ih
Ġp em
as ar
Ġsaw is
Ġun iv
ur ung
Ġg ar
Ġmar ang
in si
om b
al an
Ġm is
er n
Ġ uk
Ġw at
or m
Ġm ak
on d
Ġs el
Ġw Ã©
ad an
Ġp angan
um p
Ġpiyambak ipun
t ur
Ġuniv ers
Ġk el
Ġindon esia
ot a
Ġk et
Ġy Ã¨n
on e
an s
Ġl iyanÃ©
Ġsag ed
ing an
Ġbab agan
or d
ĠdÃ©n Ã©
l i
Ġd ir
Ġma in
aj an
Ġprov insi
im p
Ġt ex
ing k
Ġs ang
Ġt et
Ġd el
f i
ah Ã©
Ġkal ebu
b er
Ã¨ ng
at eng
ur ut
Ġt o
Ġt ok
emb ang
ad a
Ġpan j
Ġw ek
es s
Ġc om
iw a
si h
Ġtemb ung
Ġsis ih
anc is
Ġn ov
ep ang
an e
Ġtex t
Ã¨ m
Ġg ol
im b
ak a
Ġb ud
ol ah
Ġl e
k a
Ġi t
ĠwÃ© tan
Ġb eb
Ġsawis Ã©
Ġk ag
Ġd Ã©
Ġo b
Ġl um
ur a
ul an
Ġ ok
l at
r e
engk on
es i
Ġpangan an
in dh
ik u
Ġt uw
Ġbot en
ak ake
l am
u ari
y u
Ġm ac
Ġdi w
Ġp el
ik ah
Ġt um
Ġwew engkon
ang s
Ġk ur
Ġb at
Ġas al
uk si
al ia
Ġk h
Ġl ag
eb et
Ġk u
en c
ati on
ong an
ul is
al i
Ġs ampun
ing g
Ġn asional
Ġj akarta
Ġpul o
Ġi l
Ġt eg
un a
Ġn eg
u dh
Ġt in
Ġg l
h t
Ġkom p
Ġk or
Ġum um
Ġpad ha
Ġb o
Ġ us
ar ani
Ġm r
Ġmit urut
ay u
Ġp et
Ġk am
ir a
Ġg unung
it y
Ġper t
al l
Ġmen yang
eng an
un i
ak aken
Ġd ag
Ġm il
Ã¨ t
Ġk m
Ġs m
w a
Ġj uru
Ġi m
Ġkul on
Ġl al
Ġj epang
Ġt il
as il
l and
un t
Ġi b
Ġinter n
Ġp at
tr a
Ġs eg
Ġm er
Ġn om
Ġm at
Ġc il
ut an
am atan
Ġgedh Ã©
ar ak
ul i
Ġw it
Ġn at
Ġdh Ã©w
Ġdi c
a u
u a
Ġm angsa
Ġ el
Ġb ahan
Ġsit us
f t
Ġd en
Ġn o
Ã© s
Ã©n Ã©
Ġl intang
Ġp a
Ġs am
Ġsek olah
Ã©k at
Ġur ip
Ġp ak
em en
on o
on om
Ġsa iki
Ġal b
Ġc ac
ĠdÃ© sa
Ġm ah
Ġc r
Ġk eb
Ġya iku
ub l
us tr
Ġs et
Ġ ul
Ġs um
Ġm ad
Ġk e
Ġp al
er b
g an
Ġwal anda
n i
aw is
Ġ on
Ġsab en
iy ang
ah i
og ra
Ġsar Ã©kat
Ġwar na
us i
ir i
Ġm et
Ġper ang
Ġres mi
Ġf or
Ġp i
Ġm ung
ur i
am il
Ġbak al
Ġlal adan
o u
Ġs c
Ġs aha
ek s
Ġm ant
ĠamÃ©r ikah
Ġdag ing
en i
Ġt ul
og r
Ġo p
m u
r ing
Ġpr at
Ġm Ã¨
Ġdh uwur
Ġfr om
an y
Ġk em
on an
Ġt iyang
Ġk ons
Ġs tr
Ġj aman
Ġsaj arah
Ġpanj eneng
Ġper s
f er
Ġpam ar
Ġdi arani
Ã© m
Ġkas ebut
Ġg el
Ġkar ya
ĠdhÃ©w Ã©
em u
Ġcil ik
Ġb ang
Ġkal i
Ġd ina
Ġs in
en a
Ġan ak
ic h
Ġj an
Ġmus ik
Ġl angk
Ġc ara
n e
us an
Ġsatungg aling
Ġp h
Ġu p
a in
ik el
y ar
Ġs k
Ġn ew
Ġut ama
Ġp ungk
ud i
eng en
r o
Ġkac amatan
Ġa ir
Ġd il
aw e
Ġk on
Ġab ad
Ġc l
Ã¨n i
uh akÃ©
ar anÃ©
Ġk es
Ġteg es
ogra fi
Ġs ul
Ġpen d
Ġtok oh
j o
Ġban yu
Ġc ol
Ġkad os
Ġd a
Ġm ed
er a
Ġ ang
en s
Ġp ap
Ġdi d
Ġf l
ea e
Ġt ur
Ġunivers itas
z e
en dh
Ġpr ancis
Ġc o
Ġp art
Ġr aja
it an
Ã©l an
Ġmis uwur
amb ang
ag e
Ġangg ota
isan an
ig ht
Ġk ol
Ġr e
en si
Ġk ak
Ġs e
Ġb and
Ġpamar Ã©nt
Ġt ak
int en
k i
ang un
ut a
Ġlangk ung
u e
Ġk an
Ġk uw
Ġas ring
ist em
Ġl ajeng
Ġprat Ã©lan
Ġs y
Ġjer man
Ġb uku
ad os
m e
Ġwek tu
Ġa f
Ġis lam
Ġn am
Ġman ung
in i
ob er
Ġr om
ac k
s on
Ġp os
Ġsad urung
Ġi sih
j an
Ġmanung sa
im a
Ã¨m ber
Ġli ya
Ġkat h
Ġl el
al is
Ġ om
Ġi d
ar ang
Ġdig awÃ©
Ġm es
Ġaw ard
Ġ ed
Ġs i
Ġam er
Ġsan Ã¨s
id a
Ġh ar
Ġ em
t ober
Ã© da
Ġ x
on Ã©
r y
Ġs ik
ar gi
at e
Ġ amb
ud u
Ġs r
Ġman Ã¨h
is h
Ġbal an
i on
Ġs istem
Ġp op
Ġart ikel
Ġkab Ã¨h
Ġm el
ol a
Ġj uni
arak at
ang i
er an
Ġd al
Ġok tober
ir an
l ah
Ġl em
ay ang
Ġs uk
Ġdip r
at u
od e
Ġin f
Ġm awa
en al
Ġdel engen
iwit i
Ġkul aw
aw ang
Ġl at
p un
Ġpungk asan
dh Ã¨n
Ġt v
Ġkath ah
Ġ ah
Ġw ad
p a
Ġam argi
m ad
ic a
Ġr ak
Ġak s
Ġm ag
Ġr um
Ġsup aya
in c
Ġf amil
Ġp es
Ġs hi
Ã¨n si
Ġdh ateng
Ġ er
Ġj uli
Ġt i
Ġp ik
Ġd es
Ġdipun p
uk a
Ġt ah
odh uksi
Ġdipun s
amp ung
Ġj oh
Ġp ag
Ġm on
r il
Ġk aj
Ġmar et
Ġr eg
ant os
Ġta u
ok akÃ©
ak si
Ġs ub
Ġk un
Ã©w an
Ġs umb
Ġpr of
Ġuk uran
onom i
Ġalb um
Ġant aranÃ©
Ġn dh
Ġv i
ubl ik
Ġg u
Ġg odh
Ġu d
un Ã©
Ġap ik
amb ah
Ġlag u
w ak
Ġtr ans
og y
Ġs arta
Ġn ama
ac h
Ġ Ã©r
Ġm ul
t on
Ġpr Ã©si
Ġw oh
Ġk ed
in an
Ġkl ub
in ipun
Ġd ew
Ġpr od
ay an
um i
eng g
Ġsatungg al
Ġt lat
ti v
Ġkal ih
o j
Ġf ont
Ð °
Ġ aj
Ġt ill
emb ar
Ġj ar
Ġdum unung
Ġm ot
Ġp ur
ar k
Ġdi j
Ġlor o
Ġr ot
ogy akarta
Ġg al
Ġtlat ah
Ġb en
Ġpir anti
or a
Ġsadurung Ã©
Ġmas arakat
Ġb a
i al
Ã¨ b
o si
Ġm aj
Ġg awÃ©
Ġbud aya
u gi
Ġr us
Ġ adh
t h
Ġk it
Ġput ih
ar engan
Ġngg unakakÃ©
ĠprÃ©si dhÃ¨n
Ġb as
ogr am
ic e
Ġt aman
Ġdipun t
is or
Ġp us
Ġk Ã©wan
Ġb el
op ah
Ġbal i
Ġk ek
Ġj al
Ġw il
Ġs us
ik asi
p r
Ġlum r
o ur
Ġar ab
ic k
Ġsas tra
Ġag ust
Ġtil pun
Ġkulaw arga
Ġc ina
y i
Ġr ad
Ġjan uari
l in
ap a
n ik
Ġas ia
Ġaks ara
Ġg e
Ġii i
Ġbang et
Ġor gan
Ġap ril
ar y
dh ang
Ġ Ã©k
ot o
dh i
Ġind ia
Ø §
un akake
ara jan
Ġv er
r at
Ġng andh
Ġpr os
Ġdh ew
Ġag ama
Ġd in
Ġagust us
Ġgodh ong
Ġp it
Ġg en
iy os
a f
Ġpir ang
g e
Ġm ir
Ġw or
ĠÃ©r opah
angg ep
Ġj iwa
Ġc andh
Ġpr ogram
ak s
Ġr i
al ah
Ġm od
ig i
Ġp emb
ati f
Ġneg eri
it e
or o
Ġ ot
r ap
Ġs ir
Ġg eg
Ġl ar
Ġs ch
d al
Ġb e
Ġag eng
ak u
p l
si ze
or y
Ġintern asional
Ġa ustr
Ġmac em
Ġfont size
Ġd amel
ent uk
Ġw eb
Ġsap Ã©rangan
Ã¨k akÃ©
Ġan yar
it i
Ġant awis
h o
Ġs l
Ġs ed
Ġi wak
Ġm angg
Ġ Ð
Ġit alia
Ġpul itik
Ġw an
Ġk o
Ġsen i
Ġh e
ti f
t ember
amp il
ungg al
Ġk im
er al
Ġm o
Ġs eb
Ġc al
andh a
in s
ati onal
Ġ es
Ġum ur
Ġ os
et h
Ġs ijin
Ġ q
Ã ª
Ġ angka
Ġr ong
Ġnat Ã©
Ġs u
un e
Ġden ing
Ġl ap
Ġc amp
z a
Ġm ig
Ġkr ajan
Ġb angsa
ut h
Ġm ur
Ġdipr odhuksi
ê ¦
ang ga
en e
Ġlumr ahÃ©
er asi
Ġm e
ingk at
Ġk embang
y at
id e
Ġshi ft
Ã© t
Ġpop ul
as s
r ah
er at
r op
y l
ab ar
ik at
Ġsik il
ur g
Ġb ap
ek e
Ġjoh n
om p
ĠrÃ© fer
Ġr ob
Ġdh Ã©s
Ġk udu
Ġb oc
Ġp isanan
Ġk ec
c a
e an
on y
ĠdhÃ©s Ã¨mber
Ġm m
l d
ĠmÃ¨ i
Ġy ang
ent er
Ġw ulan
Ġm angk
j ung
Ġs Ã¨
eb at
Ġal am
ĠamÃ©r ika
or e
k as
l an
Ã ¡
Ġk ej
Ġh a
Ġnov ember
Ã ¼
int a
it h
Ġsumb er
oc k
si a
Ġb iy
in al
Ġcac ah
Ġs un
Ġsal iyanÃ©
ing i
Ġw ig
r uari
Ġp ama
Ġl eg
Ã© a
Ġpr ab
Ġr ac
am e
Ġnom er
Ġnam ung
i er
Ġl ay
un ani
Ġt e
Ġpan as
Ġd ar
Ġ qu
Ġl ok
Ġr ef
Ġpan y
Ġman awi
Ġaw ak
Ġs il
ac eae
Ġf ak
an n
Ġc ont
is asi
Ġcandh i
Ġis t
at on
d er
Ġl emb
Ġ ay
Ġk ont
Ã©ng ga
Ġaf r
Ġs ma
Ġp in
Ġmant ri
Ġh er
ab ung
s u
Ġw a
on a
Ġdik enal
in akaken
Ġsep tember
Ġsa Ã©ngga
Ġg er
ab r
Ġmas akan
Ġy ogyakarta
Ġboc ah
l es
Ġb u
j id
ul t
Ġsan ajan
up uk
Ġb in
d i
Ġac ara
Ġk arajan
as h
edh asar
tr ik
Ġd uw
is ir
z i
Ġput ra
Ġteges Ã©
Ġom ah
Ã¨ hi
isi onal
Ġsum at
us aha
Ġpama in
Ġg or
l y
Ġses amb
ĠrÃ©fer Ã¨nsi
Ġkas il
Ġh am
ĠsanÃ¨s ipun
Ã© an
Ġpart Ã©
Ġdi m
Ġpr ot
Ġpar aga
Ġw er
Ġg o
Ġp amb
Ã© ja
Ġdum ugi
Ġk ir
m ent
Ġk adh
Ġpanjeneng anipun
or n
Ġv al
Ġol Ã¨h
Ġli ga
Ð ¾
Ġp aw
Ġsp Ã©si
Ġkor Ã©a
ir e
Ġb intang
Ġwor ld
Ġ et
s p
Ġla ut
Ġseg ara
k an
Ġw ak
in o
t e
tr on
Ġmas jid
ud a
Ġput ri
Ġrot i
Ġm ula
o an
Ġk anc
Ġe x
b o
Ġk ay
Ã ¥
Ġs ip
Ġr ep
un c
Ġpr ak
Ġr asa
Ġkal ebet
Ġjar ingan
ak oni
Ġj embar
Ġgr up
Ġr o
Ġfamil y
Ġy unani
Ġ angk
g al
Ġm i
es an
am mad
Ġs uw
os t
Ġth umb
imb ang
Ġkur ang
Ã©r ang
Ġj ag
ut r
Ġpi ala
si al
Ġm ont
Ġt om
Ġb ag
Ġt ot
s k
ant en
Ġsesamb ungan
Ġdhew eke
Å į
is me
Ã¨l mu
uj u
im an
Ġab ang
Ġj u
v e
Ã ³
Ġkul it
iy ah
Ġb ir
Ġst at
Ġb est
Ġm uh
Ġman awa
Ġng isor
Ġb y
os a
or k
Ġd ol
Ġk ira
i um
n is
unung i
ep ung
an k
j i
ab at
Ġtan pa
Ġpangg onan
Ġtul isan
p h
Ġk odh
Ġd ep
Ġwig ati
Ġs ami
Ġb ur
em e
Ġkar ir
Ġc er
Ġm anÃ©
ak i
v er
e um
yan yi
eb ar
n o
y ah
Ġw ill
Ġasal Ã©
ac ara
Ġng antos
ar ep
as ti
amp a
Ġst and
ant an
ay ah
et a
Ġsijin Ã©
Ġb uk
in asi
Ġk awan
ol usi
iy atan
ampun ipun
Ġcar ita
ul u
Ã©w a
as e
Ã¨n Ã¨hi
Ġl im
asan e
s h
Ġpus at
ar is
Ġo w
Ġk op
uk um
Ġsaw at
anc e
Ġnd unungi
Ã© d
Ġp o
Ġr a
Ġy uta
Ġb Ã©da
Ġt ug
Ġr asi
Ġtuw uhan
Ġj ur
Ġs ej
r it
Ġgel ar
ĠrÃ© p
Ġaw it
Ġb ob
t en
Ġv an
Ġb ay
Ġmal ih
k e
Ġsaw et
iyan e
any ol
u al
Ġn e
Ġr as
Ġdipun d
Ã¨b ruari
Ġk ayu
il ah
Ġd o
c o
s Ã¨l
ĠpamarÃ©nt ahan
Ġtek an
en tr
Ġp u
Ġdh asar
Ġpas isir
Ġpun sÃ¨l
Ġc ek
Ġafr ika
Ġ ep
r on
Ġen dh
Ġs asi
f f
Ġr atu
Ġpen yanyi
Ġf Ã¨bruari
Ù Ħ
ut er
Ġkawan uhakÃ©
n am
ti on
Ġdig awe
ĠmanÃ© ka
Ġr am
Ġl u
c hi
Ġmen ika
Ġl ang
Ġh ist
ĠÃ©k onomi
ĠspÃ©si es
Ġpr as
angk at
p er
Ġgr Ã©ja
Ġkal im
Ġc inta
l o
dh ikan
Ġml igi
Ġt op
Ġsp anyol
b n
Ġi v
ing gi
ã ĥ
em i
ed a
Ġkuw i
Ġantawis ipun
Ġun it
Ġb adh
Ġw ayang
Ġdig unakake
Ġbeb arengan
Ġr ata
is s
Ġh o
Ġst udi
Ġtin emu
b y
Ġp and
Ġm ic
Ġgr am
Ġc on
Ġtr ad
Ġm iwiti
Ġp e
Ġd awa
Ġwek dal
Ġgol ongan
Ġp ep
at ur
Ġt ar
Ġtum rap
Ġo x
Ġper k
ant u
Ð ¸
Ã ¸
er o
Ġl aw
ung ah
amb ut
ar ia
Ġg et
ic al
Ġb umi
Ġver si
Ġp t
Ġkap isan
Ġk en
Ġdipun w
ĠpamarÃ©nt ah
ĠrÃ©p ublik
Ġjeneng Ã©
usaha an
Ġm ang
Ġd alan
Ġn a
Ġm y
k Ã©
Ġb ilih
ant ung
Ġs amp
Ġd un
le y
Ġsawet ara
Ġ eks
Ġml ebu
Ġch ar
Ġm ay
Ġd ari
Ġsas ampunipun
ĠsÃ¨ ri
Ġn as
b a
Ġd inten
e e
i es
un dh
Ġj um
Ġm apan
Ġkac ang
Ġg ula
Ġtr adh
Ġp ort
Ġm art
Ġpas ar
Ġw h
eg ana
Ġl iyane
il i
ic s
j u
Ġrak yat
Ġp ati
Ġm odh
Ġnag ari
n y
Ġag ung
ent h
Ġng en
Ġmuh ammad
Ñ Ģ
Ġlem ah
Ġwan ita
Ġp ot
Ġmen ang
udh ul
Ġm u
Ġsem arang
Ġal as
Ġnd uw
Ġpen y
Ġkal a
Ġv ari
dhi dhikan
Ġangg egana
Ġsw ara
ad e
il ing
ar e
Ġd av
Ġngg awÃ©
Ġ Ø§
Ġn ok
Ġis bn
Ġnd uwÃ©
n er
y o
Ä ģ
Ġtan ah
ow n
l a
Ġmal ay
g r
Ġj udhul
il is
Ġdum adi
ant uk
un ika
iw at
ag i
Ã¨l u
Ġtin imbang
Ġg uru
ec k
Ġol ahan
Ġbar at
Ġtim ur
Ġn ar
Ġf o
Ġpan c
Ġkel as
ek a
Ġbeb ungah
l u
Ġap a
Ġh ak
us un
Ġv ir
enc e
Ġak tor
Ã ¶
Ġkalim antan
Ġkon dhang
ik o
Ġj og
Ġinf orm
j ar
u y
es ter
Ġir eng
Ġv ol
Ġtak sih
Ġm Ã¨lu
Ġwer na
t o
Ġ end
id ikan
Ġbi asane
Ġwat u
Ġi jo
er ang
Ġng al
Ġfak ult
Ġn us
Ġw arga
dh a
ed i
ent e
Ġb awang
Ġper usahaan
Ġnok ia
Ġsawat ara
Ġnj awi
Ġdi anggep
ong k
Ġpar is
Ġng asil
Ġsap unika
Ġkad ad
Ġtot al
l im
ot h
Ġab d
Ġband ung
Ġbadh Ã©
Ġs d
Ġm or
Ġs ay
Ġl iwat
v isi
Ġr adi
Ġmil it
er ah
ul us
eng i
at en
Ġunivers ity
s el
Ġamer ika
Ġd Ã©wa
Ġsup er
Ġpun j
Ã¨k s
Ġfakult as
Ġlan ang
Ġah li
Ġkr ama
an jur
k er
Ġy o
il a
Ġh al
Ġc m
Ġf is
ac e
Ġp abr
Ġl ib
Ġref er
Ġt en
Ġwad on
at or
r et
Ġr ik
Ġpik antuk
Ġbar ang
Ġc or
Ã© h
aw at
il an
Ġmot or
ep h
Ġf orm
t ar
Ġj os
Ġr aya
ant o
i ya
ab aya
Ġh ol
Ġpanjeneng anÃ©
ic an
Ġs ol
Ġt ingkat
ĠmÃ¨ ter
Ġrac akÃ©
s e
Ġg ag
ida e
Ġc at
Ġant ara
Ġb es
Ġt inggi
un j
Ġb ad
Ġas em
Ġkap ul
Ġd em
Ġt Ã©
Ã¨ d
Ġf ung
el a
Ġman uk
Ġnj al
Ġar s
Ġc a
ut up
omp ok
og an
Ġser at
Ġwit h
Ġk i
Ġt andha
Ġl ab
Ġh ukum
Ġaw al
Ġker ep
Ġin st
Ġad m
Ġs ina
Ġdh um
Ġm p
Ġc ity
Ġwak il
Ġk una
ar s
Ġh id
Ġp ek
Ġendh og
Ġkr ist
Ġl uk
imp in
Ġlel ara
Ġaward s
Ġm ol
Ġpend idikan
Ġmalay sia
Ġkom un
em ent
i i
Ġneg ara
Ġr os
Ġof f
ilih an
Ġh y
s ur
Ġm and
en ang
Ġdig unakakÃ©
Ġdr ama
Ñ ģ
Ġn ulis
ell a
Ġdhum ateng
Ġm ent
Ġs eneng
angg ih
Ġpros Ã¨s
Ġh an
ajeng ipun
uc i
Ġtet ep
Ġc ap
iy um
Ã¨r Ã¨ng
Ġn ud
Ġsar ana
angs ung
Ð µ
Ġb ath
Ġsap i
am in
Ġsur abaya
Ã©nt uk
Ġw in
an j
Ġd at
Ġsa int
Ġs Ã©da
l er
n ey
op h
Ġs Ã¨l
Ġm ik
Ġg end
e on
Ġil mu
Ġsumat ra
Ġwiwit an
Ġorgan isasi
Ġgal aksi
y n
an ia
aw ani
Ġtah un
Ġm eng
ar Ã©
Ġngen ani
Ġg Ã©
uw uhan
Ġin s
Ġbob ot
Ġst asi
Ġbar eng
Ð ½
Ġn i
ad eg
Ġb adan
Ġas ma
Ġmus eum
Ġt amb
Ġngandh ut
ol ong
Ġt emp
Ġteng en
Ġkap as
Ġpen dhidhikan
Ġrik ala
Ġstasi un
Ġaustr alia
Ġd u
Ġas li
Ġm ut
Ġtel ung
Ġr ah
Ġf t
Ġfil e
n ya
Ġd urung
Ġr el
Ġsab anjur
Ġtuw a
Ġk il
Ġib u
es e
Ġgr e
er us
Ġy ork
Ġe v
Ġist ilah
c e
Ġtel u
uk i
Ġso sial
Ġcac ahÃ©
Ġol ah
c i
Ġg eme
Ġr ek
Ġka anan
up a
tiv al
Ġrefer ensi
Ġmus iyum
y asa
Ġdal am
Ġl iv
Ġw iki
o ol
Ġl og
Ġc ur
Ġal it
Ġar ep
Ã Ń
Ġr ec
Ġak eh
Ġs ok
Ġp uc
Ġlat in
Ġj l
inis tr
Ġm ingg
Ġl angsung
Ġsur at
as is
Ġbar kas
Ġtet uwuhan
Ġp indh
Ġn em
ov e
Ġlag i
d e
Ġl ingk
Ġb ul
Ġl ambang
Ġadm inistr
oc i
Ġkej u
Ġdipun b
Ġkep ala
emb angan
Ġ ori
ed ia
t s
Ġkim ia
Ġ Ã©
Ġp ac
Ġgeme ente
p on
Ġs v
Ġm em
amp i
Ġge or
Ġt l
k ah
Ġl ew
Ġc ah
n ologi
il e
Ġr h
Ġd er
Ġs ah
ek tur
Ġaw ujud
Ġdit em
Ġsep ur
Ġw id
Ġm ati
Ġj end
r id
Ġox y
r es
Ġsur ya
Ġcamp uran
Ġinst it
r an
Ġp ah
Ġpem ain
Ġmes in
Ġkapul oan
Ġd j
Ġkadad Ã©an
Ġar m
Ġt am
Ġnov Ã¨l
ok ter
Ġt ab
s m
Ġsal ajengipun
Ġng ay
aj i
Ġa v
Ġpeng h
Ġt ahan
eb ab
Ġd om
ah aken
ec h
Ġwat ara
ok ake
Ġch ina
Ġb umb
Ġh t
Ġf es
or an
Ġpr es
uk tur
Ġkh as
Ġket ua
us e
Ġal i
Ġtug as
Ġs and
um an
Ġget ih
ent ang
amp ang
Ġk ong
Ã© b
Ġis ra
Ġdew i
Ġingg il
ã Ĥ
Ġm c
Ġoxy op
ig n
Ġtuw uh
Ġ ek
Ġb ah
Ġc hi
Ġbab i
Ġintern ational
p ort
Ġm ek
Ġsa Ã©
as anÃ©
Ġkar ak
Ġsr eng
Ġkir ang
Ġ ari
aw ar
Ġc an
Ġun t
os is
Ġkat on
qu e
Ġb h
Ġper ancis
Ġng Ã¨lmu
ob a
Ġmangg on
Ġper an
Ġsul tan
f a
ungg ung
Ġpar k
Ġd ata
z z
ã ģ
Ġb et
Ġjal ur
Ġt em
Ġl it
Ġg aya
edh ak
Ġm angan
Ġb und
ih an
Ġb ut
ap ura
Ġsip at
Ġl in
Ġun sur
Ġg ame
indh u
Ġs imb
Ġl et
Ġpl an
i am
Ġj a
Ġr ing
utr ad
r al
is ah
ad ha
Ġper i
d en
Ġg a
Ġsina u
ut e
Ġsel atan
Ġfes tival
uw a
Ġun d
Ġs ri
Ġs inÃ©
Ġj o
Ġgar is
Ġb on
ustr i
Ġkun ing
ac a
Ġr ev
Ġg um
Ġ Ã©ntuk
Ġm ob
ab i
Ġp ic
Ġsad aya
Ġsabanjur Ã©
Ġal lah
Ġn ur
Ġr u
ur e
ĠpÃ©rangan ing
Ġsus u
is e
Ġf er
Ġpr au
Ġp s
Ġc ok
Ġn et
Ġj ej
il le
Ġy asan
Ġpos isi
ĠsinÃ© tron
Ġteng g
Ġkit ab
Ġb ub
ap i
Ġdipun k
Ġsup ados
Ġdipund amel
andh ingan
Ġsul aw
Ġl ond
Ġamer ican
ur us
Ã¨ p
Ġt ha
Ġf a
Ġs im
Ġd am
Ġpan dh
tr is
Ġak ad
Ġ emp
Ġy us
Ġmr eb
r ip
Ġp itik
Ġsang et
Ġsulaw esi
s ani
Ġc ak
Ġkay ata
Ġkarak ter
Ġmreb awani
ang at
Ġsal ebet
al e
Ġl emp
Ġb ol
Ġt unggal
Ġas il
Ġprab u
Ġi si
em an
e in
at er
ist ik
Ġl omb
Ġl ou
el as
Ġrum ah
ok o
Ġar an
r ak
enc ana
Ġw w
u x
Ð¾ Ð
Ġkanc a
Ġr ight
ek si
Ġumum e
Ġlond on
Ġl ak
d o
et er
Ġn or
t ik
Ġp ed
it ar
amb i
Ġker ja
Ġb us
ul ur
Ġa z
Ġg us
Ġb ek
aj ah
el s
b urg
Ġm ata
Ġt ip
uw ara
Ġar g
Ġgar ing
ri ya
Ġjog Ã¨d
Ġl is
Ġb os
ev isi
Ġob at
Ġkar y
Ġkap al
Ġl eng
ar g
Ġant rop
Ġn ob
Ġup acara
Ã©ng Ã©
Ġkap Ã©rang
ar ya
Ġm Ã¨nÃ¨hi
ec t
o od
Ġk os
ist an
ta in
Ġmig unakakÃ©
aw on
Ġdi an
Ġsp esi
Ġan c
Ġjer o
i z
if a
f ord
Ġsur akarta
Ġbiy asa
ĠØ§ ÙĦ
Ġpuc uk
Ġpl at
Ġkop i
Ġpa us
Ġw e
Ġkar t
p s
Ġs ung
Ġt ri
b an
Ġ omb
Ġp eg
Ġin dh
r asi
ok a
Ġstr uktur
Ġas tr
Ġkant i
Ġsp ir
Ġter b
Ġb ers
Ġmen it
Ġfung si
Ġkapas itas
er ta
Ġ å
Ġs ud
on ia
ant a
Ġv ide
Ġput r
Ġtel evisi
Ġhist ory
Ġsreng Ã©ngÃ©
Ġg unggung
ol i
eneng i
Ġpa ul
l et
ur ahan
Ġg Ã©n
Ġpap at
Ġwis ata
ur it
Ġ uw
Ġan anÃ©
Ġmas ak
is ar
Ġg i
Ġg ay
Ġkeb on
Ġtradh isional
Ġt at
c l
Ġak u
Ġpad unung
Ġc edhak
iy ar
Ã©r a
h ir
amel an
Ġan im
op ot
Ġc et
Ġj aw
Ġin t
Ġak tris
angk ep
Ġac Ã¨h
Ġjam es
Ġs amb
Ġd ay
Ġr emp
Ġj en
ur ip
aj ar
Ġw ol
Ġal l
an o
Ġp adh
as ik
Ġisra Ã¨l
Ġwa Ã©
Ġmet u
Ġdav id
Ġadh edhasar
Ġangk atan
Ġd engan
Ġg es
Ġtek nik
e ar
t ing
Ġdi anggo
Ġy ah
Ġn ational
Ġdip angan
Ġkodh ak
Ġcom m
Ġt angan
Ġk ub
Ġ eng
ad Ã¨kakÃ©
Ġkr aton
Ġt uk
asi f
Ġbap ak
Ġf c
Ġmes ir
Ġrob ert
Ġr em
Ġdh ar
y ak
Ġp ingg
Ġs Ã©l
Ġwill iam
Ġd ong
Ġpad a
ort h
Ġduw e
Ġlingk ungan
d in
Ġm awi
Ġ anti
ic o
uh ur
ch e
Ġe ur
Ġg inakaken
ant ara
Ġmal ah
Ġ ê¦
Ġg ampang
Ġn emb
ul ik
ok an
Ġpen erb
Ġtemb ang
Ġk ena
Ġw angun
Ġdit ulis
i ah
Ġc ir
Ġas s
n an
Ġkal urahan
Ġunit ed
Ġmilit Ã¨r
Ġ Ã¨n
Ġh ong
Ġju ara
as ia
Ġg and
Ġng end
Ġir ah
el d
Ġf ar
Ġkomp uter
Ġn ind
Ġy en
ahan an
um a
Ġkac a
Ġlok al
Ð º
Ġr et
andh ang
h am
r am
Ġand r
Ã© g
Ġmob il
Ġc ep
j ana
Ġs ec
aman ipun
Ġb ant
Ġgr oj
Ġbes ar
Ġk w
Ġb oy
Ġber as
Ġ Ù
Ġp ura
Ġremp ah
t p
Ġdip ung
Ġt ap
Ġlemb aga
v a
Ġngg awe
ij aya
Ġb ala
ia c
ill a
Ã §
or s
Ġf it
Ġk ota
Ġg ra
arga an
Ġgroj ogan
Ġn on
Ġr is
Ġdol anan
Ġc it
Ġng er
ari o
Ġs aya
Ġem as
Ġsaj ian
Ġml ebet
uh ake
Ġtrad isional
r os
Ġdh edhasar
Ġcok lat
Ġt and
ul Ã¨r
Ġdep art
Ġt al
m as
Ġs uh
Ġg ub
Ġal ex
Ġst adi
Ġku e
Ġ Ã©w
Ġh el
Ġtur ki
Ġkit ha
Ġw iji
Ġcom p
Ġleng a
Ġcol l
Ġdiw iwiti
Ġd hi
Ġg as
ĠrÃ© s
al og
Ġdew an
Ġd ur
m en
Ġtum uju
Ġrus ia
Ġh en
Ġser ikat
Ġen om
Ġpes awat
Ġd aya
am at
Ġc el
Ã¨ si
Ġdipun l
ad o
Ġal us
amp ur
Ġr p
ant ar
Ġkar an
Ġprod uk
Ġabd ul
Ġn ambah
Ġban k
Ġka isar
Ñ Ĥ
Ġm ab
Ġt ig
Ġwat es
r Ã©nÃ©
Ġsak it
Ã©n i
Ġti ga
Ġsatunggal ipun
Ġnjal ari
Ġl ove
Ġi on
Ġses arengan
Ġk ump
ag ara
Ġk amp
Ġm Ã©
it al
Ġut ara
Ġbobot Ã©
er e
Ġh ad
Ġper d
ig h
Ġcah ya
r angan
Ġc as
y un
Ġng arep
Ġ Ã©ng
Ġter us
Ġgl ob
Ġtengg ara
Ġsv g
Ġt ni
Ġkel ompok
Ġww w
Ġpr ib
en an
ados an
Ġdh is
Ġwil ayah
i o
Ġk in
op a
od a
Ġgend Ã©ra
s ah
Ġm iyos
Ġt Ã¨k
ha el
Ġop erasi
Ġinform asi
Ã¨ g
Ġgor eng
Ġ Å
ic ara
Ġal k
Ã¨r Ã¨k
Ġbumb u
Ġr aga
Ġlew at
Ġs ug
ad yan
Ġb ib
ung a
tr i
l ing
Ġw est
ur unan
Ġh om
Ġc y
Ġh ot
Ġto ya
ap at
ug h
al aken
ut i
Ġtl aga
ind ak
Ġn Ã©l
Ġc ha
k op
r ol
ip ta
uk up
om an
Ġpol en
n es
Ġman dh
Ġst ar
s o
Ġr ed
Ġdic opot
t v
Ġl es
og en
Ġ enter
Ġk and
land ia
Ġsuk s
k u
Ġpr im
m er
on ik
Ġg ul
om a
Ġlang it
il and
Ã©n d
Ġpr aja
Ġal p
Ġban jar
ut ha
us us
Ġk ert
Ġb or
Ġpen c
Ġaj i
Ġb entuk
Ġb eda
Ġk ing
Ġg ad
Ġkrist en
ĠÃ©ng gal
Ġow ah
Ġp b
e hi
Ġpras asti
t one
Ġb aw
Ġj uwara
Ġpr ess
ov er
Ġud ara
Ġh indhu
Ġd ud
el u
Ġkr itik
u hi
Ġbr asil
utrad ara
Ġo c
Ġmar k
Ġr oy
ust aka
Ġtet andhingan
am anÃ©
Ġdit ambah
Ð »
Ġg ir
Ġg sm
Ġp embang
mi ah
Ġtil ar
m ar
Ġ Ã¨l
Ġt ra
Ġr ock
it o
ak ara
Ġn ot
Ġw edh
Ġf ifa
Ġjur usan
Ġny ambut
Ġph il
Ġht tp
Ġunt uk
Ġbar u
Ġsm s
Ġpabr ikan
ant ri
angs al
at esan
Ġn ampa
Ġkaj aba
Ġb end
h an
Ġradi o
Ġim age
Ġp ok
Ġser b
l as
y e
Ġbud a
Ġnas kah
Ġkr im
Ġjudhul Ã©
Ġl ara
u f
Ġpindh ah
is ode
Ġmic hael
Ġbab ak
Ġul ah
Ġcek ak
n al
Ġs id
ant Ã¨ni
Ġmod ern
Ġu yah
intang i
Ġs uci
Ġkat ulik
Ġgl epung
Ġw ang
Ġg un
Ġbal ung
Ġr at
Ġprod uksi
Ġpengh argaan
Ġpembang unan
Ġp up
h e
Ġkab ud
Ġtr op
Ġt w
Ġy ou
Ġmus lim
Ġser i
Ġkas ebat
Ġsas tr
Ġlat ar
Ġl ima
Ġc ab
Ġp is
Ġkant or
ber g
ogr ap
Ġport ug
er c
Ġtek a
ĠsÃ©l ulÃ¨r
Ġf in
Ġfil ip
Ġvide o
r uh
Ġs andh
Ġun i
Ġj aya
Ġda erah
Î ±
Ġngg ambar
Ġt or
ir ah
Ġlan d
ib at
Ġges ang
e i
ej a
Ġng el
up ati
Ġdis trik
aw anÃ©
Ġbr itan
Ġstand by
Ġso uth
Ġplan it
Ġring tone
Ġr ada
Ġban y
if e
Ġk ot
em a
Ġlay arÃ©
Ġm asa
Ġdun ia
Ġm ari
Ġg ab
unung an
Ġat om
Ġen em
Ġbat rÃ©nÃ©
Ġngal ami
á ¹
Ġp inten
ir o
Ġus aha
ĠnÃ©l pon
Ġm ov
h ik
Ġngr emb
Ġpr oy
Ġars it
Ġr ich
Ġgr and
Ġngg inakaken
Ġdib abar
r as
ul ar
asis wa
Ġkar ang
Ġmus ic
Ġpur w
Ġm eneng
Ġab asa
Ġsep isanan
Ġlou is
Ġc iri
Ġad at
Ġmotor ola
ĠrÃ©s olusi
Ã¨n dh
k y
Ġdir ilis
Ġamb a
Ġw ern
ampil an
er v
amp ahi
h u
Ġd udu
Ġsal at
Ġkas us
l ine
Ġ ati
Ġsal a
ow er
Ġle e
r ist
Ñ ĥ
Ġ Ø
eng ing
Ġsawis e
Ġvi et
Ġp ilihan
et ik
Ġak tif
Ġtan jung
Ġdepart emen
Ġng aw
Ġngl awan
Ġd ang
Ġf inal
Ġdh Ã©m
Ġpic tur
Ġl ulus
Ġmas alah
Ġk y
Ġdi visi
Ġpert ama
Ġluk isan
ĠtÃ© y
it s
Ġpopul asi
Ġakad emi
Ġdip ir
Ġngasil akÃ©
Ġr ampung
ent ar
Ġch ris
Ġang el
Ġgeg ay
Ġkomun itas
w ay
Ġk um
Ġt ang
Ġb upati
Ġw ik
Ġv it
Ġk edh
uw ang
Ġbir u
r ik
Ã ¢
Ù Ĩ
Ġt eb
Ġchar les
at os
Ġj ab
Ġmingg u
Ġg ur
Ġc endh
Ġdipuns ebat
Ġkabud ayan
al it
Ġpang eran
Ġt s
Ġgus ti
at ih
Ġsap isan
Ġmak arya
Ġpu isi
p i
Ġm eg
Ġfr ank
Ġt itik
el eng
Ġtha iland
Ġnob el
el it
Ġjend eral
as ta
ati ons
Ġs or
at ika
y s
Ġpr ast
id er
m pl
ef a
Ġrom a
Ġj awi
ul uh
Ġnud uhakÃ©
Ġk iwa
Ġn orth
om o
Ġsad Ã¨rÃ¨ng
Ġmag n
Ġs uwÃ©
Ġf ir
ari an
f orm
o id
Ġaw akÃ©
ah ar
ara an
ew a
f at
h er
ar am
Ġviet nam
b on
k o
el an
Ġor g
Ġsap er
Ã©m b
Ġdipir antÃ¨ni
art o
Ġmb iy
ek ake
Ġstadi on
Ġprast awa
Ġpik sel
Ġm ilih
Ġmangk ono
Ġng em
Ġob l
Ġndh uwur
al ang
Ġpad ang
ĠsadÃ¨rÃ¨ng ipun
Ġr upa
Ġsaj r
Ġbl ack
Ġspesi es
Ġnemb Ã©
Ġnj abat
un ipun
Ġn il
ek sa
Ġart is
n u
Ġ ara
Ġob j
os s
urip an
k up
Ã ¤
Ġs ony
Ġl amp
Ġked ah
Ġt ata
Ġm am
Ġl uc
Ġt uj
Ġj mpl
Ġp ej
Ġul am
Å Ĥ
am tu
ĠtÃ©y ori
Ġ æ
m o
Ġmas k
Ġkaw ruh
Ġgub ern
ar ing
Ġj at
Ã©r an
Ġpeng g
Ġre al
Ġin v
Ġl o
Ġyah udi
Ġpingg ir
Ġd Ã¨w
eg es
al em
Ã ´
Ġb Ã¨n
Ġdi engg
uj uk
Ġgubern ur
Ġp isan
eng ah
Ġir ahan
Ġd ebut
Ġu efa
m at
s ter
b s
e z
ungg ah
Ġkem angga
Ġpap ua
Ä ĩ
Ġk up
Ġpr op
olog y
r ed
Ġng et
Ġmab ur
Ġt art
en ian
Ġpir a
Ġk uc
Ġmant an
Ġtul adha
Ġti ong
al ih
in ing
Ġpar iw
Ġh ab
Ġman aj
Ġngl akoni
Ġindh ustri
Ġrad Ã¨n
u el
v i
Ġt ib
ot t
Ġpas angan
imp en
w an
Ġm udh
Ġsan adyan
Ġasal ipun
Ġ Ã¨s
Ġm un
as ak
ing s
Ġg abung
Ġrom awi
Ġdij upuk
Ġcar iyos
Ġis o
Ġwar ni
aw ati
Ġr aj
ag o
Ġ à
Ġmal ang
Ġleg i
Ġair lin
is ata
Ġl y
Ġkag iyatan
o us
Ġ ec
Ġin c
Ġad oh
Ġseg a
Ġstat us
r us
Ġf oto
Ġkomp l
Ġud akara
o o
p or
Ġj ack
ok s
aya an
Ġa ut
ĠgÃ© ografi
Ġtamb ahan
Ġdip ig
Ġkaw asan
Ġd ev
Ġfilip ina
Ġlap angan
Ġman is
Ġmis s
ath et
Ġmir ungg
ho a
Ġairlin es
Ġw et
ung i
ap ur
eg an
Ġth om
Ġpen dh
Ġnom inasi
Ġenter tain
Ã¼ r
Ġoxyop idae
ar akÃ©
Ġpunj ul
Ġperi ode
as tra
Ġpol it
Ġmirungg an
y p
Ġk n
Ġk ana
Ġj on
Ġka um
Ġdis aj
Ġses ukan
Ġ amp
Ġc em
et i
Ġm engk
ani an
Ġkab in
unt ut
Ġ ì
Ġng ur
Ġis land
Ġtom at
Ġtiong hoa
Ġit ali
Ġny ebar
Ġch rist
Ġres ep
Ġs ut
Ġkag unan
Ġlum antar
Ġbritan ia
l awan
Ġw as
Ġu jung
Ġml ig
Ġf e
Ġmont or
Ġs unan
Ġb ord
as m
Ġkan ada
Ġfis ika
Ġangg onÃ©
Ġi c
Ġpangg ang
Ġval ue
Ġlaw as
Ġs edh
Ġn ap
Ġj ul
Ġv ic
Ġmen ara
Ġsen iman
Ġp ent
es h
Ġgar w
Ġs adh
as ang
Ġmar ag
ebut an
Ġkag olong
Ġkons t
ungg uhan
Ġkad adosan
r en
Ġp ing
Ã¨ dh
Ġdal em
ar aken
Ġsing apura
Ġdipun m
Ġku il
Ã¨ndh er
Ġentertain ment
at al
Ġn ik
Ġkad ang
Ã©h atan
Ġoff ic
t le
Ġdipun c
Ġr ikat
Ġpr aj
ol e
ump ang
Ġmah asiswa
Ġb ec
ek el
Ġgr o
Ġdis tr
l uk
Ġp ec
Ġr ay
Ġmel ayu
Ġs utradara
Ġsek awan
Ġah mad
Ġdiengg o
Ġkal am
Ġat eges
if ikasi
ut ur
Ġad onan
Ġim am
Ġd w
Ġg h
Ġtul adh
Ġkuw at
Ġk us
Ġk ampung
Ġg eni
Ġng embang
eg i
Ġab u
Ġkh usus
o is
Ġl am
Ġl eb
Ġj ean
Ã¨r si
Ġbuk it
Ġgeor ge
Ġp ant
Ġg ed
Ġr er
Ġr eb
Ġpaw iyatan
bo x
m y
ah akÃ©
and er
Ġkal aw
Ġto ur
Ġpariw isata
r u
Ġb og
Ġw ir
Ġkr et
ey an
erb it
Ġsuh u
si yun
Ġtan sah
Ġweb s
Ġsay uran
Ġl ef
Ġc ukup
Ġngg unakake
it is
Ġwar isan
ar o
Ġm est
Ġkal oro
Ġlap isan
al es
Ġj aj
Ġkap ilih
Ġpan alit
Ġbiy Ã¨n
l it
iv er
Ġs ong
Ġc up
ob i
Ġir an
Ġobl ast
Ġset at
ang e
et y
Ġak ir
Ġd ek
um e
Ġkaj awi
Ġpb b
Ġc oc
Ġh or
aman e
Ġch o
aran e
Ġcol or
Ġinstit ut
h y
Ġmar ingi
Ġsm p
Ġj us
Ġmed al
Ġpl ay
Ġasal e
Ġsalebet ing
Ġsa os
Ġdis ney
Ġjer uk
Î ¿
Ã¨ ter
ek tor
ep i
Ġper c
Ġwew atesan
Ġlok asi
Ġsaper lu
Ġk ita
Ġi p
k ar
Ġp edh
Ġsit hik
Ġwebs ite
Ġw ayah
Ġin i
Ã¨n an
h ar
Ġan dh
Ġkal ungguhan
Ġ Ã¨lmu
Ġg ug
Ġv ok
Ġsen y
Ġlemp ongan
Ġf ri
ed er
Ġm oh
Ġkat rangan
ay at
Ġkomp et
Ġmat aram
Ġsetat siyun
Ġk andh
imp i
Ġgum antung
Ġk ud
Ġs oci
er gi
ung u
Ġbat u
Ġrep ublik
r ag
Ġy asa
Ġbi ografi
Ġl as
Ġ Ã¨t
Ġb b
in ia
Ġnj ero
Ġtok yo
s aya
Ġbis nis
Ġsw iss
uy ung
Ġn ikah
Ġsch ool
f l
as hi
Ġr ambut
ya i
d am
Ġl ing
Ġl ong
Ġb edh
ay ani
Ã¨k si
Ġpopul er
n Ã©
Ġg am
Ġg amb
Ġc entr
ap Ã©
aga i
Ġdiw Ã¨nÃ¨hi
Ġpag unungan
d ata
adeg akÃ©
Ġk end
v ent
Ø ±
Ġprak ara
Ġmay or
Ġi j
Ġr en
Ġur utan
Ä ±
Ġkomp on
Ġwang unan
Ġbath ik
Ġspir al
Ġn ep
om i
Ġpad atan
k at
n as
Ġs n
iv e
Ġtek nologi
Ġak ting
Ġlis trik
al u
Ġdh uw
a il
ik ake
Ġis inÃ©
ft ar
Ġay am
Ġthom as
Ġcont o
Ġt ir
ip p
ri b
Ġwal ik
Ġj av
it asi
Ġkap indh
Ġsp ec
iac eae
e o
Ġ Î
Ġt it
Ġt Ã¨h
Ġgedh e
Ġjum lah
Ġtengen Ã©
Ġb ra
uj i
anc ang
Ġ est
et t
Ġpr odh
Ġnus a
Ġanc as
r ia
Ġkaw entar
Ġsajr one
if orn
Ġh ub
Ġh ib
Ġbo j
Ġn amanipun
Ġpen j
Ġwujud Ã©
Ġs ari
is m
Ġpraj urit
Ġkret eg
k s
ul tan
Ġmart in
Ġmeneng ah
Ġm ill
Ġh ind
Ġsatungg iling
t im
Ġng an
Ġked ad
Ġkump ulan
Ġlef t
ĠakÃ¨h Ã©
Ġrich ard
Ġp il
Ã© p
ak okakÃ©
Ġr est
um en
Ġman ch
Ġmal uku
Ġdij enengi
Ġsastr awan
Ġad icara
Ġnat ur
Ã©b as
Ġw ac
um Ã¨n
Ġh at
Ġwoh an
Ġmm s
Ġsumat era
Ġf i
Ġber g
Ð° Ð
Ġp ari
Ġkal Ã¨ndher
and i
Ġar ah
Ġz at
Ġp ubl
Ġd isi
Ġj angan
Ġsek ret
Ġsang isor
at es
Ġpr ef
ud din
Ġpar ing
Ġbr it
Ġkak uw
Ġng ir
Ġcal iforn
Ġm os
al itas
ur t
Ġg uwa
ter i
gr ey
Ġvir us
g o
ar u
Ġny erat
Ġantrop ologi
er p
er ia
uw an
Ġan n
Ġc ons
Ġnd adÃ¨kakÃ©
Ġpir sani
j ata
Ġk enth
Ġsc i
Ġkes enian
Å «
Ġk ew
uk ak
Ġbund er
Ġs om
ar at
Ġm id
ab uhan
Ġad am
Ġgl ad
at ik
Ġl amb
Ġb angk
Ġw ah
ul tur
ol an
Ġpang Ã©ran
ert o
Ġpunj er
a ir
b it
Ġw ul
uw un
Ġmar ia
Ġl ife
ad ah
ov a
Ġe f
Ġdid ol
ing al
Ġpr am
Ġdipig unakakÃ©
Ġg riya
Ġh awa
Ġch ampi
eb on
Ġchampi ons
Ġt ik
Ġdip angg
ow s
Ġadministr atif
ing ton
Ġr un
em y
ados aken
Ġcaliforn ia
Ġl ampung
Ġmah am
Ġpenerb angan
o ut
Ġrum iy
okter an
Ġlem ak
ĠgÃ©n us
Ġseny awa
Ġ one
Ġj amb
Ġj antung
Ġh i
Ġumur Ã©
j ian
ar na
Ġch eck
Ġjag ad
at uan
Ġn asi
ag on
eg ah
Ġak tiv
Ġpr inc
Ġkar ier
Ã©ng in
Ġtrans port
Ġdim asak
e us
Ġ ula
Ġ ayu
Ġbak ar
Ġel ek
Ġkapindh o
Ġr aw
Ġny ebut
Ġy ak
Ġmar c
Ġant h
Ġbak u
ab an
Å ¡
ia u
ac t
z o
uw ana
Ġmen d
olog is
of f
Ġang in
Ġsej arah
Ġ ath
ot en
Ġv is
Ġpan ulis
Ġber b
ongk ok
Ġkar i
y m
Ġt ani
Ġl uhur
ul er
Ġper si
ter n
Ġmarag ani
ch en
lam et
Ġpat ung
Ġfamil i
Ġcal on
Ġngay ogyakarta
w ard
Ġp ay
Ġj arak
Ġr on
Ġh igh
Ġfr ance
Ġoffic ial
ah ing
em on
hi o
Ġpol ip
Ġep isode
Ġas t
ea u
Ġjam ur
Ġbap akÃ©
Ġgand um
Ġt ol
Ġt Ã©l
Ġal a
t asi
Ġm ateng
Ġj ac
Ġjeneng e
Ġmad eg
s us
as ih
Ä į
hi d
iw ati
Ġdiw asa
Ġteg al
Ġadh em
v ia
ar ingi
Ġdi dh
Ġsak iwa
Ġdipun yasa
Ġw iyar
es na
Ġpul au
Ġgedh ang
ast ani
l ad
iw an
Ġmen awa
Ġmb entuk
u angan
Ġf os
Ġan anging
id en
Ġas p
Ġg od
Ġdh a
Ġpert ahanan
Ġx s
Ġlim rah
Ġr it
v en
Ġmaham antri
Ġb ill
Ġt un
Ġc ast
el ang
Ġsadurung e
Ġg amelan
Ġsh ow
imp inan
unj uk
art i
Ġat l
Ġmac a
Ġpabr ik
Ġmask apÃ©
i x
Ġn uk
Ġj aran
Ġny ebab
Ġnj upuk
Ġpl ot
Ġuk ara
Ġkor ea
Ġdin asti
Ġkodh e
Ġlomb ok
e et
at ed
Ġpictur es
Ġc ent
Ġtil as
Ġdhuwur Ã©
Ġwad ya
Ġs emb
Ġch ann
andh ing
Ġdib angun
Ġsam ud
Ġprof il
Ġmod el
Ġkalam angsa
s an
ent ina
Ġngem ot
Ġmlig inipun
Ġsad ulur
Ġreg i
Ġpr a
Ġin chi
y ab
Ġk eh
Ġb il
onten aken
Ġprab awa
Ġ ungg
Ġp on
ar b
Ġj in
Ġny any
Ġm emb
ant h
iy at
Ġak hir
ad Ã©nÃ©
ok rat
Ġv o
ens is
Ġr ama
Ġo ut
Ġjag ung
Ġm ap
el le
Ġdib intangi
Ġpup uh
Ġcheck box
b i
Ġd ing
Ġd ani
eg ara
Ġkal ah
Ġdipun r
Ġmak aten
Ġp aj
it ion
um si
ap uk
ist a
Ġti ongkok
us er
Ġbi ologi
Ġkan ker
ik e
p en
Ġk ond
is a
ub eng
Ġsa us
Ġmas ter
Ġpert anian
Ġdic ampur
Ġk g
ur y
Ġc u
ant ik
ĠdÃ¨w i
c ol
Ġk endh
Ġp ng
Ġm eh
at o
uru an
Ġs eng
Ġrumiy in
Ġn er
Ġtim e
ungk ur
Ġm unggah
Ġl ight
y uh
Ġl ep
Ġw engi
angg it
Ġcir ebon
Ġt Ã©mb
Ġp p
es is
ip t
ap ake
ov i
Ġmaj alah
Ġcab ang
Ġl ev
Ġmodh Ã¨r
Ġnus antara
ä ¸
Ġw ind
Ġyo ung
Ġjos eph
Ġmov ie
Ġw Ã¨b
ag ue
Ġh it
Ġo y
Ġurip Ã©
il d
Ġdh ok
ina oni
Ġpet er
Ġndh Ã¨rÃ¨k
Ġad ip
Ġbr o
Ġseb agai
Ġserb ia
Ġkompet isi
Ġs emp
oy o
Ġp ustaka
Ġb Ã©bas
Ġangg ur
Ġdil akoni
Ġdun ya
Ġtig ang
Ġjal aran
n s
Ġh ard
Ġchann el
Ġd as
as ani
m ark
Ġc ag
Ġrom an
er y
Ġmas sa
Ġleg end
t is
Ġng Ã¨l
aj ib
Ġbeb r
Ġkuc ing
Ġs imp
Ġb engk
Ã©r i
Ġpah lawan
Ġ emb
and ur
Ġtok o
Ã ±
Ġp or
eb r
Ġor do
omb ang
Ġket urunan
Ġbo e
Ġmad rid
Ġgir l
Ġnind akaken
Ġtuj uan
Ġb un
Ġn an
Ġr emen
Ġkas usun
Ġsh ar
Ù Ĭ
Ġkap anggih
Ġpang l
Ġmest hi
r om
Ġem ail
Ġprod uc
Ġpolip onik
Ġp angk
ultan an
c ar
u ga
Ġprib adi
Ġ asi
us s
uk is
ol d
Ġas u
u ang
ih ak
Ġlu ar
Ġmol ek
Ġh on
Ġngg abung
est asi
ert osi
Ġmed an
Ã¨n ipun
Ġber k
Ġum at
ell o
age an
Ġfis ik
u ch
à ¸
Ġm unc
aw ak
Ġg ot
Ġka f
Ġfr an
Ġac ad
Ġer ics
Ġas am
Ġsaw en
engk uyung
Ġerics son
w al
Ġst ate
s uh
Ġl os
Ġh ip
Ġka uripan
Ġkl apa
Ġow ahan
Ġyus wa
Ġbaw ana
al s
aw in
Ġg ajah
Ġj ay
Ġkap r
Ġber n
Ġser ies
Ġok si
Ġtradh isi
Ġn it
Ġg andha
ri an
Ġpag el
Ġvit amin
a z
Ġr ol
ud uk
ian o
Ġpangg on
Ġmodh Ã¨l
Ġsung ai
Ġnj aga
ektor at
Ġg in
Ġsuks es
Ġngg awa
Ġad a
Ġdipunw astani
f in
eg a
Ġdh okter
Ġst ev
Ġdig or
Ġtuk ang
Ġd ec
Ã¨k tur
Ġn ed
Ġor der
oh an
Ġat as
Ġz o
Ġso si
Ġsit i
Ġkat ingal
Ġper n
Ġben er
Ġk od
Ġper ingkat
Ġning gal
ond o
Ġkol oni
Ġb ulan
Ġber t
Ġkam ar
Ġvari asi
Ġi g
Ġm uk
Ġl awang
el and
Ġgar wa
Ġs ac
Ġfil sa
Ġngandh ap
Ġk entang
Ġtum indak
Ġfit ur
Ġmanaj emen
Ġng ad
Ġal ami
iw ara
Ġgr ay
Ġdis k
Ġm ungk
Ġka in
Ġsimb ol
Ġlak on
Ġglad ri
Ġlimrah ipun
Ġl unga
Ã¨m per
Ġaustr ia
z h
en ia
Ġper g
Ġkul iah
Ġbl ora
Ġseg er
Ġtah u
Ġk ono
Ġb untut
ek ar
Ġnger ti
o ul
Ã© ta
Ġw ond
Ġb agean
Ġser angan
Ġadministr asi
Ġfilsa fat
er angan
Ġh as
Ġh ay
Ġpet a
Ġpat ang
Ġdhi al
u i
Ġk ah
Ġb ack
Ġkam ard
Ġon line
Ġsun da
Ġw r
Ġg andh
Ġsar jana
erus akÃ©
ĠmodhÃ¨r en
Ġboe ing
Ġsawen Ã¨h
Ġk emp
it if
Ġkat elu
Ġko ord
Ġd ark
at is
Ġng aj
Ġkas ar
t y
ip at
Ġngend i
ut if
Ġter m
Ġamb anÃ©
Ġlay ar
Ġpagel aran
Ġf eb
uj ur
Ġpen ulis
Ã¨r an
Ġsawijin Ã©
Ġkag em
c ak
Ġl ayang
Ġsep uh
Ġdian akakÃ©
Ã© in
Ġik lan
aman an
Ġvic tor
s c
Ġt ft
Ġng adh
om ot
Ġpak ar
Ġtand uran
Ġpok ok
Ġt ampil
Ġl il
Ġb ola
ad ilan
Ġc am
Ġng ub
uk ul
Ġa ug
und ur
Ġud an
Ġlim ang
al aman
or is
ok si
ont on
Ġmed ia
alis asi
Ġwedh us
Ġtransport asi
g ia
ul akÃ©
op e
Ġpungk asanÃ©
Ġsoci ety
Ġn amb
Ġc amb
Ġal iran
Ġcar l
Ġprak awis
Ġbec ik
Ġmanch ester
ĠtÃ©mb ok
y al
Ġs ara
Ġd ed
Ġkab abar
ungk us
Ġdhuw it
Ġt umb
eb l
Ġpem il
Ġmil an
pr es
Ġsir ah
Ġnud uhake
Ġobj ek
Ġs qu
ut ion
Ġh im
Ġber lin
Ġstand ar
Ġnatur al
Ġd unung
Ġt angga
Ġant ar
Ã©k Ã©
Ġmb uri
ind ah
ur n
Ġf ik
ay ana
Ġsp ider
Ġdit ind
Ã³ n
Ġp ihak
us ia
Ġpak istan
Ã¡ n
Ġay at
Ġbog or
l av
z u
Ġ Ã¨k
er l
Ġg at
Ġj im
Ġdig ital
Ġkl asik
Ġngl ampahi
Ġkomun ikasi
Ġt ub
ur m
um ent
Ġsal uran
Ġcol umb
ba ik
Å Ł
Ġ Ã¨ks
an ing
Ġten aga
ĠmÃ© dh
Ã £
Ġp d
Ġd asar
Ġh ill
ma in
Ġsuw Ã©nÃ©
Ġs oc
Ġr ap
el is
ak r
Ġan at
Ġst art
Ġglob al
ak ar
Ġt u
Ġr od
Ġc enter
uk ung
Ġter baik
Ġil ang
g ar
ur itan
Ġr ub
Ġik lim
Ġdip Ã©rang
Ġkaw iwit
Ġop en
Ġham atal
Ġhamatal iwa
n ia
Ġm undh
at ori
ab le
Ġbo x
r ad
Ġk amb
ul asi
Ġbu ah
ek i
Ġser ial
Ġac tor
Ġtart amtu
ah aran
ur anÃ©
ya p
Ġpr iya
Ġsa x
Ġp ow
Ġt eh
Ġl en
Ġj asa
Ġh il
Ġh ir
Ġfr e
t il
Ġn ic
Ġr angk
Ġpun di
Ġmin angk
Ġdit epung
Ġses irah
Ġversi on
Ġoxyop es
c k
l ar
Ġw au
Ã¨ ri
uk ur
Ġdi yasa
Ġab ot
Ġmus im
Ġrad en
Ġte ater
Ġprot Ã©in
Ġal f
Ġny ak
if ic
Ï ģ
Ġf ac
Ġh all
Ġmar y
Ġnom or
ĠbÃ¨n ten
Ġm edh
er g
Ġc and
Ġng and
Ġper m
tr y
Ġam an
Ġhen ry
s ch
Ġr up
Ġf ot
Ã©l a
Ġket h
Ġdir ektorat
Ġgro up
Ġgol Ã¨k
Ġtip is
Ġl ol
Ġn abi
Ġg il
Ġas l
Ġma x
Ġber kas
Ġkaw it
Ġpet h
Ġdes ember
Ġd oc
is on
Ġim p
Ġhar ry
l or
Ġr ant
ag angan
Ġas h
Ġnew s
Ġwad yab
j ah
Ġk ob
Ġd awanÃ©
Ġw us
ab el
Ġng ed
uc k
Ġrest oran
r ic
Ġt ambah
Ġng il
ti an
Ġnov Ã¨mber
Ġan akÃ©
ep an
Ã¨h akÃ©
Ġun dhang
Ġml aku
Ġsamud ra
it z
Ġc in
Ġy ear
Ġdir ektur
Ġib unÃ©
Ä «
Ġn el
ul l
Ġar j
Ġfr anc
Ġteb ih
s tr
Ġw el
Ġta iwan
odh og
k in
Ġ é
Ġs on
Ġkap adh
ind a
Ġhid r
Ġnor man
Ġd ana
ab il
Ġsat u
Ġbala i
Ġpref ektur
Ġbebr ayan
Ġkawiwit an
as on
Ġmas y
Ġt on
Ġr oh
Ġal um
Ġnduw Ã¨ni
Ġwet eng
e ong
z im
Ġu b
Ġmin yak
Ġform at
Ġak ibat
Ġpras aja
Ġtrop is
Ġkamard ikan
d u
e en
os h
Ġa qu
ec tion
alis me
Ġdipunp aringi
Ġp ip
Ġm isi
Ġut amane
av or
Ġngr ampung
asar akÃ©
Ġass oci
Ġs op
Ġt id
ah e
ata u
Ġmung suh
Ġrec ord
Ġngay ahi
al ik
Ġny egah
Ġkur si
Ġkec amatan
d y
Ġ ent
Ġt ulis
Ġv en
ith ak
l us
Ġt ut
Ġl ad
as ari
Ġpend uduk
Ġt ump
Ġw ash
Ġnd amel
ingg al
Ġset engah
Ġs ya
Ġd et
ah ipun
ow ahi
Ġkil om
Ã¸ y
Ù ħ
Ġs osis
Ġn orm
Ġg all
os an
e am
ut ra
eg e
Ġbab ad
Ġsis wa
Ġfilm ografi
Ġwadyab ala
k ak
Ġm Ã©t
Ġnduw Ã©ni
Ġkapadh etan
es a
Ġpar l
Ġen c
Ġgol den
eks an
Ġliv e
Ġkary anÃ©
Ġgay utan
Ġkert as
Ġgegay utan
Ġmunc ul
end er
Ġz h
Ġtrad isi
ĠtÃ©l Ã©
Ġs anta
Ġb ed
us h
Ġh em
ek ak
Ġarg entina
p t
Î ¹
Ġc angk
ajeng aken
Ġket emu
Ġle ague
udh a
Ġsm ith
Ġmur id
Ġru ang
Ġps ik
Ã¨dh en
Ġs anto
el ar
Ġbay i
Ġb aj
Ġw angs
Ġya y
Ġmar s
r em
Ġp impinan
Ġm Ã¨mper
Ġing aran
atÃ¨n i
Ġir landia
Ġaj aran
Ġgre at
Ġpadh ang
Ġadip ati
ag em
Ġdh iri
Ġl ip
is ter
Ã¨ f
Ġr iau
Ġin ti
Ġsw Ã¨dhen
Ġmat eri
Ġjaw ab
ograp hy
c al
Ġn av
Ġpr o
Ġkom edi
Ġsw asta
Ġre aksi
Ġcat alog
Ġp asif
er k
ur at
Ġdi am
Ġori g
Ġ Ñ
Ġd pr
Ġn ig
Ġj ep
Ġas m
Ġpang aji
Ġz a
c el
m b
at uran
Ġj alan
uw asani
Ġv inc
Ġny inaoni
Ġmil i
Ġl Ã¨r
ya ya
k rip
Ġg antos
Ġme i
Ġsug ih
w in
Ġk yai
ak h
ok us
ent ara
Ġny at
Ġkak awin
Ġkont rak
Ġbb c
o i
Ġm g
Ġj i
el i
Ġgedh ong
any e
Ġdit ampa
Ġpi er
Ġrob ot
Ġpir ing
Ġmag elang
Ġmot if
rid ge
ĠtÃ¨k nologi
Ġmolek ul
Ġb Ã¨k
Ġr s
em Ã¨n
Ġkap it
Ġwonten ipun
Ġpemil u
m uwan
Ġ ç
Ġn ad
Ġir isan
Ġsem i
Ġob ahan
Ġbath ara
Ġs end
el e
et te
ag n
si on
una an
Ġstudi o
Ġkary anipun
Ġproy ek
Ã£ o
b all
j en
Ġk embar
Ġf asil
Ġar ang
Ġp uj
Ġg angg
ap akÃ©
Ġdi angkat
Ġo e
Ġuk ra
Ġkak i
Ġjum eneng
Ġgre en
Ġsalebet ipun
Ġp ublik
Ġm up
Ġper p
op s
ea ux
Ġus ul
Ġroy al
Ġsekret aris
Ġ umb
Ġs ew
in k
Ġr iver
Ġgo od
Ġk eg
Ġb int
Ġr ib
Ġreg ion
Ġd ok
Ġm Ã¨h
Ġm eks
Ġap p
Ġpas ir
Ġger akan
Ġlog am
ĠÃ¨l Ã¨k
w ood
Ġs ib
Ġp ont
Ġb ambang
Ġn emu
Ġsa ind
Ã¼ n
Ġd od
Ġb ig
Ġw esi
Ġr ud
us a
Ġor ang
Ġbud i
Ġda ftar
Ġdes a
Ġkompon Ã¨n
Ġbrit ish
j eng
Ġg endh
Ġkar bon
Ġas in
ter s
und ang
Ġsijin ing
w ar
Ġ aja
Ġl int
Ġb anten
Ġw on
angk ala
Ġanim asi
ĠtÃ©lÃ© visi
Ġh av
Ġst eph
Ġpang r
Ġul ama
Ġrak s
Ġcacah ing
Ġho use
Ġbub uk
ej o
Ġwar sa
Ġbat ang
Ġsip il
h ip
ah arajan
Ġng alah
Ġh ow
and o
Ġv ert
ati ve
Ġbal ik
Ġter j
re en
Ġditem okake
Ġpakar yan
Ġditepung i
Ġs ebu
Ġj ak
iw i
Ġkr o
Ġkr is
Ġdip asang
Ġmer ah
Ġsed aya
Ġlang u
Ġvir g
Ġoff ice
Ġm emp
at Ã©
Ġg angsal
ub uwana
Ġpit ung
Ġnar ik
Ġk inten
Ġng anc
Ġkab eh
Ġpit u
Ġwalik utha
Ġwash ington
Ġmeks iko
e ak
er Ã©
Ġr af
if f
Ġtek anan
Ġcl ub
Ġchar l
Ġnyany i
ĠmÃ©dh ia
Ġl ul
Ġng ingg
Ġch in
Ġyay asan
Ġsebu ah
n ing
v al
Ġpam ir
Ġb id
et ron
Ġaw an
ak it
at inÃ©
ah u
Ġg erb
Ġal on
Ġst af
Ġsin ar
Ġ ë
er ing
Ġdh aharan
Ġman unggal
anc i
Ġpangg ung
angun ipun
Ġwh ite
Ġkam aharajan
aks anan
Ġsu ara
Ã ł
Ġt ep
Ġb ata
Ġh ati
aks ana
Ï Ĥ
in us
ik al
Ġh d
Ġpr em
Ġmen j
Ġdig anti
Ġpar u
Ġngl iwati
Ġsit e
Ġuk uranÃ©
Ġliv erp
Ġmbiy antu
Ġvok al
Ġj ati
Ġend i
Ġb urg
Ġsing le
Ġper emp
Ġkomp as
Ġwid th
Ġs uj
Ġn ek
c es
Ġw ib
Ġr emb
Ġu g
ers on
Ġteges ipun
Ġfasil itas
á »
it ung
Ġh is
Ġh yang
Ġdang u
Ġliverp ool
á ĥ
Ġkal oka
umb ang
Ġfr ancis
Ġsun dha
Ġm ich
qu es
Ġndh ik
Ġkek alih
Ġwac an
Ġng ib
Ġf all
aj at
Ġe ast
Ġpam enang
Ġpanj ang
Ñģ Ðº
Ġwern anÃ©
Ġtuladh anÃ©
l en
Ã º
Î ½
Ġb eg
us ak
Ð¾Ð ²
Ġdani el
Ġ Ã©nd
Ġn ight
Ġng angg
Ġind ustri
Ġcr ita
Ġot ot
Ġs lamet
Ġar e
Ġar ea
ard i
Ġsin etron
Ġdud uh
g b
k t
Ġl un
il ia
Ġng anggep
Ã¨n t
Ġman ca
Ġpert alan
Ġsandh angan
m al
z y
Ġg em
Ġh and
Ġh ari
Ġdit erbit
j e
Ġpl us
Ġsk ala
Ġacad emy
Ġk ok
Ġs ev
Ġd uk
ak on
ir is
Ġh uru
ac ak
od uksi
Ġdipunm ang
atori um
ok e
Ġgor Ã¨ng
Ġnduw eni
Ġngremb aka
ĠbÃ¨k er
Ġsaind enging
Ġp ig
Ġn Ã©
Ġc d
Ġmen ehi
Ġlog o
at us
ed y
Ġny oba
Ġprof Ã©si
Ġbas is
Ġtam u
Ġgra f
in y
Ġpr i
os e
Ġkom isi
Ġangg Ã¨nipun
Ġjam u
Ã©nt ah
Ġgeg uritan
Ġcont onÃ©
ebl ug
ul uk
Ġng up
Ġut ami
Ã ¦
Ġ eg
Ġs ant
ik akÃ©
tr uksi
Ġmar ga
st ein
Ġpel atih
Ġkes Ã©hatan
Ġlay anan
Ġdigor eng
d eka
Ġn ya
it or
Ġa q
Ġun tu
Ġjinis ing
Ġund ang
Ġd or
Ġl ub
Ġb ell
Ġtur nam
ass ar
Ġmandh eg
et s
Ġkr aj
ungg u
Ġz ona
Ġangg it
ĠØ§ÙĦ Ø
Ġs f
Ġw art
Ġdi adegakÃ©
Ã³ w
Ġkilom Ã¨ter
in ah
Ġn ir
Ġpr ajan
Ġan j
Ġcak et
Ġassoci ation
g en
ä º
Ġb p
er na
Ġw ingk
Ġj ust
ap ah
ol o
Ġh us
Ġap i
Ġpol a
Ġcl a
Ġins tan
Ġpasif ik
ĠprofÃ©si onal
as aken
ad or
Ġc ultur
Ġdip asarakÃ©
Ġrad hio
Ġfo x
Ġmudh un
or asi
Ġg anti
Ġng atur
om ong
ud e
Ġkomp os
Ġjuni or
Ġcep et
Ġged ung
s en
Ġ Ñģ
Ġj apan
Ġf at
eg oro
Ġpem impin
Ġfamil ia
Ġwik ip
Ġmasy arakat
Ġj our
Ġj angkep
Ġny erang
Ġpr odhuksi
op er
Ġind ep
ij ing
Ġpiyamb akÃ©
Ġke uangan
Ðµ Ð
Ġaug ust
Ġt as
er ja
ir ik
Ġpun cak
Ġer opa
Ġori ent
ĠngÃ¨l miah
Ġi x
Ġt ari
Ġl engk
ul ung
ant s
Ġsa ubeng
Ġmas s
aran ipun
Ġtel es
Ġmad ura
Ġbuk ti
Ġcon c
Ġi sa
Ġt aj
ga yuh
oh ol
Ġdr um
Ġpal est
Ġkanc anÃ©
Ġportug al
Ġdistr ib
Ġlol os
n ick
Ġs ig
Ġs ind
Ġm ong
od o
Ġkur ban
Ġpungkasan ipun
Ġsed ulur
Ġra os
Ġkamp us
l ed
Ġ ell
Ġs acara
ing en
Ġg anda
Ġc uw
ud o
tr ess
Ġmak assar
Ġfl or
Ġmaj u
Ġlab or
Ġarj una
Ġk isah
ang a
al am
ek utif
Ġkem awon
Ġdil eb
Ä ķ
Ġk ip
Ġpr estasi
man n
Ġgol d
Ġpros es
Ġras ul
asif ikasi
Ġef ek
Ġb ent
Ġr ok
ut s
Ġpar am
Ġum p
Ġsh ah
Ġhe ad
Ġfo ot
Ġkabin et
Ġsax ony
Ġnyak up
Ġhuru f
Ġ eb
Ġs apan
Ġp angkat
Ġt y
ik sa
Ġdip ilih
Ġpel at
rop ol
Ġjaj anan
Ġt etan
Ġb Ã¨l
Ġw ay
Ġc re
ok rasi
Ġpun apa
ahan a
c ha
m in
o a
É Ļ
Ġl ed
Ġng adeg
Ġkaw ig
Ġco unt
Ġkadh angkala
Ġvol ume
Ġcet ha
Ġdhis trik
Ġs int
Ġg itar
ok aken
Ġak b
Ġdip l
Ġlomb a
Ġl ist
Ġg an
uk us
Ġol d
Ġdipunt epang
Ġportug is
Ġcoc og
Ġhub ungan
o e
Ġw angsa
Ġh um
Ġny ekel
Ġsap a
Ġol impi
Ġmak na
Ġul ang
i at
Ġk aka
Ġp int
Ġd ah
Ġn erusakÃ©
Ġr encana
es angan
ap p
Ġdi ad
Ġkar aton
Ġo d
Ġpen umpang
Ġuk um
Ġmuhammad iyah
utup i
Ġdhial Ã¨k
Ġm ess
Ġn ab
Ġc os
Ġkar angan
Ġper ju
Ġsal am
Ġsem angat
Ġbul g
Ġ entuk
eng e
Ġpr om
Ġu uri
Ġy es
Ġkas un
fi eld
Ġri yaya
Ġprot Ã¨s
Ġkarir Ã©
Ġbers ama
Ġdipangg ang
Ġp y
Ġng ew
Ġh amb
od ium
Ġsaw ah
Ġkas ultanan
Ġpul isi
Ġcr it
Ãª n
Ġhol land
Ġy am
Ġmus isi
Ġser v
Ġpers atuan
Ġstat ist
r ick
on c
Ġh asan
and ing
Ġdid adÃ¨kakÃ©
unc ur
Ġkud us
Ġ atau
Ġd ub
ing ga
Ġpr oj
Ġsar eng
Ġus us
Ġintern et
erc aya
Ġjep ara
Ġr ag
ic t
Ġsp ort
Ġpos t
Ġaj ang
Ġrus lan
ĠsÃ¨ pt
Ġgug us
Ġindep end
l ish
s ir
un jung
ul um
Ġo h
Ġso und
Ġcar anÃ©
Ù Ī
Ġny i
Ġdig awa
Ġsen jata
Ġil miah
Ġarsit Ã¨ktur
b al
i en
Ġs ent
Ġg ard
Ġc uc
Ġning kat
Ġaktiv itas
urm atan
on ya
Ġn l
Ġn ak
Ġr c
Ġr og
eng gan
Ġv eg
Ġpem enang
Ġperk embangan
Ġs und
ag en
Ġv ill
Ġbar b
Ġab out
Ġat uran
ast ik
Ġfl ash
Ġkak ung
Ġrem aja
Ġraks asa
ek an
Ġas ing
Ġth at
ov o
Ġwar n
l ir
Ġ Ã©t
Ġl ent
en Ã©
Ġn eb
ut o
um um
angg ung
Ġmin i
Ġmin or
ĠsÃ¨pt Ã¨mber
p o
ar ap
Ġl er
er ti
Ġw ulu
Ġab b
Ġant arane
Ġmit ologi
Ġlemb ah
Ġdipunmang ertosi
Ġk Ã©m
Ġw iy
Ġnag a
Ġso ekar
Ġmangk un
Ġt indak
ok u
Ġv on
Ġses anti
Ġplat nick
Ġnggambar akÃ©
Ã© dh
Ġb omb
ir ing
Ġny uwun
Ġmen dh
Ġngur angi
Ġdisi apake
Ġpamir sa
Ġj ung
Ġj ama
Ġf ol
Ġper b
Ġal ign
tr o
ug r
Ġkh an
Ġse oul
Ġbur uh
Ġmin eral
ti ons
Ġir ak
Ġsis a
Ġlar Ã©
v ille
Ġ è
Ġst an
st em
Ġbl ok
Ġsk Ã©n
oph y
Ġaran eae
ĠdhÃ©m okrat
Ġperju angan
e al
l ok
Ã© yan
Ġl sp
Ġb eksan
Ġw anci
Ġr ic
Ġpr amil
ow o
Ġnov el
Ġtug u
Ġkoord in
ĠÃ¨k sp
m on
Ġ angsal
Ġp indah
Ġm undur
Ġt Ã¨ks
in es
Ġng ab
ol ik
Ġun ik
Ġpangg Ã¨nan
ess e
Ġed ward
Ġfak tor
Ġgab ungan
f r
w ara
w ich
as ana
ol ia
art h
asa an
Ġa ur
Ġle o
Ġkeb ud
Ġinstit ute
Ġday ak
Ġcamb ridge
Ġc orn
Ġf ed
ub e
Ġbat ur
Ġkulaw arg
ron ing
Ġcoll ege
b ul
r ab
Ġd ua
ant un
Ġdipun anggep
Ġpam impin
Ġmr at
Ġngib adah
p e
v el
Ġ Ã¨f
Ġf ort
Ġim ag
Ġtip e
Ġsaubeng Ã©
ap tar
Ġh ulu
Ġper l
ard o
Ġpap anÃ©
Ã ®
Ġk ey
Ġs anten
Ġj un
odh e
Ġsas uw
Ġsem u
Ġmad u
Ġinform ation
Î »
Ġw ed
Ġw ho
Ġan alis
Ġsal ad
Ġkab angs
Ġmb oten
Ġkl ambi
Ġkl asifikasi
Ġwit an
ogra f
Ġteges e
Ġek onomi
Ġpier re
r aw
Ã «
Ġdig odhog
ĠÃ©nd ah
ar jo
Ã¨r e
Ġdr iji
Ġtek st
Ġkons Ã¨p
Ġseb ab
Ġq ur
Ġhab it
Ġwingk ing
o ja
Ġf m
Ġper h
edh iy
iv id
Ġwiwit anÃ©
Ġdipunw iwiti
zz o
Ġned ahaken
Ġfik si
Ġpramil a
ing ali
Ġch e
Ġmer c
Ġngaw ontenaken
Ġdisaj ikake
Ġpanalit Ã¨n
m ond
v olusi
Ġt own
im e
Ġmak luk
Ġmut us
col or
k en
r ich
Ġn u
Ġf avor
Ġkal angan
Ġch els
Ġad ol
Ġnat al
Ġgel em
Ġduw Ã¨ni
Ġfir st
Ġcolumb ia
Ġ Ã©n
Ġk Ã¨
Ġs ea
Ġkap ungkur
ungg uh
ug u
Ġat os
Ġpal akr
Ġsr iw
Ġform ula
ĠÃ¨n ergi
Ġukra ina
Ø ¨
al o
ij a
int on
Ġrek aman
Ġjab atan
Ġn ampi
aw angan
ot s
and ang
od y
Ġteng ahan
Ġkabup aten
ert Ã¨ni
Ġstr at
Ġsin ebut
Ġeur o
Ġchels ea
Ġp Ã¨rsi
Ġd Ã¨rÃ¨ng
ol as
Ġin sp
ent ah
int ah
Ġdag ang
Ġgel ombang
Ġdid eleng
Ġkart ini
r ow
Ġng undh
Ġv id
iw ayat
Ġbr ah
Ġwar s
ert eni
Ġalb ert
Ġngasil aken
Ġjav a
Ġm impin
al ap
es co
ay ar
Ġbr and
Ġur usan
Ġdiw angun
Ġrus ak
Ġsol o
Ġnjal uk
Ġcit ra
Ġsara f
Ġk p
ak Ã¨n
Ġb eng
Ġc i
Ġng as
ara ja
ori da
Ġdipun dh
Ġgu y
Ġseni or
Ġcacah ipun
Ġsim on
Ġterb uka
Ġhot Ã¨l
Ġsangisor Ã©
z ar
Ġp om
as si
Ġf en
Ġac tress
Ġvi i
Ġpeny akit
Ġnget okakÃ©
Ġkandh utan
Ġcentr al
Ġjangan an
b us
r ani
is aran
Ġw uri
Ġper lu
Ġst ory
Ġml ayu
Ġbl ue
Ã©s an
Ġpal embang
Ġras anÃ©
Ġjej uluk
way s
Ġpej abat
c ul
Ã© e
Ġn ata
Ġeng lish
l ung
Ġng am
ec tor
ons umsi
Ġur ang
Ġsy stem
Ġreg a
Ġalex ander
Ġs Ã¨k
al ian
Ġn ang
ih at
Ġy on
Ġv ul
Ġv oc
Ġind ivid
iv i
Ġmb antu
Ġcar ol
Ġkadh ang
r ement
Ġp ala
as inÃ©
Ġn uli
ap ati
ap tasi
ub an
Ġmen c
Ġdip ercaya
Ġag ami
Ġhib uran
Ä ĥ
Ġs Ã©
Ġd arah
en angan
Ġngg ih
Ġtah ap
Ġastr onom
Ġkalaw arta
Ġkalaw arti
j ang
t us
Ġp Ã©ngin
Ġr ai
Ġr gb
Ġh u
Ġpr ing
edh ik
Ġsel at
Ġprof es
Ġabdul lah
Ġkenth el
Ġt oy
Ġb av
on ic
em ah
ol ak
Ġth ukul
Ġat m
Ġpeng embangan
ann es
Ġpubl ish
Ġrit ual
apah it
a iran
z an
Ġs ebutan
Ġp Ã©r
Ġd ak
et e
amp uan
Ġkab ut
Ġgr id
ingg o
Ġpur n
Ġrec a
b u
i ga
Ġ ern
Ġk ode
eng ipun
Ġman c
Ġmar gi
Ġmil a
Ġmaj apahit
Ġproj ect
Ġj eron
Ġpin ter
Ġpek al
Ġandr ew
l ang
Ġ Ã©d
Ġh end
ac hi
od i
Ġch ur
ch er
ev er
tiv e
Ġasl inÃ©
h al
r ot
Ġk oth
is ip
em is
Ġwat er
Ġob ah
Ġbib li
Ġkand el
Ġtib a
Ġwikip edia
Ġkebud ayaan
r uk
ar l
Ġkangg e
Ġny ata
Ġter usan
Ġang Ã¨l
Ġbany um
Ġngir im
Ġoksi g
Ġperg uruan
Ġd na
ik ak
Ġf ish
Ã¨n tr
Ã©r ah
ter a
Ġst yl
Ġbar cel
Ġsk or
Ġpent ing
Ġ arta
Ġl umb
Ġj r
eng ahan
Ġng c
Ġsak ab
Ġo g
Ġpet eng
Ġkont r
Ġinc rement
Ġ Ï
Ġk emb
Ġl ump
Ġb ia
os aken
Ġy u
Ġwar ung
Ġres ik
Ġso eh
of t
Ġku ala
Ġpak u
Ġsc alem
Ġbus ana
Ġmup angat
r ang
s ki
Ġr uwang
Ġc op
Ġlan c
Ġf al
id ent
and ia
Ġdis c
Ġkam entr
Ġlab el
Ġngingg il
v in
Ġk uwÃ©
Ġb om
Ġw ij
Ġw iyos
Ġr awa
Ġng omb
ek akÃ©
Ġdis ebab
Ġpam anggih
ind er
Ġbi asanÃ©
Ġmac an
Ġkor an
Ġkol eksi
Ġsy ari
Ġditem okakÃ©
Ġcendh Ã¨k
og o
ha i
Ġv el
Ġfilm s
Ġkh al
Ġmat Ã©m
Ġdipuns ebut
Ġnamb ani
Ġbarcel ona
Ġl l
Ġw adhah
ur na
Ġg os
Ġj e
up an
Ġla in
ow a
Ġpam r
Ġdipunt ingali
Ġist im
Ġment ah
Ġgarw anipun
Ġkonst it
Ġk s
Ġm akan
em uan
ek t
Ġny impen
Ġaw ake
Ġmb ut
Ġpel abuhan
Ġte am
Ġhind ia
Ġk ahanan
Ġj il
ag ing
Ġh art
Ġpr ins
Ġpang uw
Ġpas ta
Ġsh in
Ġkac athet
Ġku alitas
Ġcho ice
Ġgam es
Ġplot data
w i
Ġn ord
uk s
ir asi
Ġangg ot
Ġkun o
Ð¸ Ð
Ġmek ah
Ġt ag
Ġt ech
Ġb ung
Ġr ump
Ġo ver
Ġbar ra
Ġtuw anÃ©
Ġfo und
anj ang
Ġbord eaux
Ġlul usan
Ġkraj anÃ©
Ġkamentr ian
g er
Ġm n
Ġl ine
it ra
ul ang
Ġdi al
om e
Ġkat urunan
id ium
Ġmb eb
Ġkaw ic
inc i
ãĥ ¼
Ġcomp any
Ġdhis ik
Ġprodh user
Ġbengk ulu
s ek
z en
Ġp arta
Ġb ujur
on el
aw as
Ġr y
em ik
Ġab rit
Ġe ug
erb a
Ġmo unt
ĠprotÃ¨s tan
Ġr ab
Ġmar ing
Ġmal ayu
Ġdr s
Ġib nu
Ġcer ita
Ġnind akakÃ©
Ġj ambi
Ġwis at
eh ake
Ġmet ro
Ġmet ropol
Ġgeg rem
Ġhist ori
Ġmilit er
Ġmari e
o ch
Ø ¯
er j
Ġr Ã©k
Ġmar d
Ġpen ya
ell i
Ġsuk et
Ġkadh apuk
Ġvinc ent
Ġkro asia
Ġgrid color
i ew
m ana
r in
eb aran
og i
Ġkr e
Ġkad amel
Ġtim or
Ġco ok
Ġro ad
Ġdem ak
Ġkedh okteran
Ġt k
Ġt epung
Ġl ebet
Ġdh aw
og h
Ġal tern
Ġkap isanan
Ġa u
Ġar ya
Ġdis enengi
Ġpam ek
Ġsem ana
Ġbat ak
emen s
Ġhe art
Ġhy d
Ġlit tle
Ġputr anipun
Ġkew an
Ġasi an
Ġn ip
Ġj aba
Ġf em
hi c
Ġpang embangan
Ġtel uk
Ġob y
Ġph ot
Ġdhar ma
k us
v es
Ġs ama
Ġn ada
Ġh aji
Ġmat em
Ġke amanan
Ġbas s
Ġpulitik us
w e
Ġp oc
Ġp ambang
ul lah
Ġh uman
Ġo ur
Ġas ist
Ġind ah
Ġmal am
Ġker j
Ġkeb o
Ġsk y
ĠkÃ©m awon
à ¤
Ġk etan
Ġp ond
ak ipun
Ġl aks
Ġb unga
Ġc c
iy aran
Ġban j
Ġspir it
Ġcet us
Ġboj onÃ©
Ġpeth ak
f or
s y
Ġl ah
Ġn ick
Ġg ent
Ġng gayuh
Ġrc ti
s ari
z il
Ġ akÃ©
Ġd p
Ġb ing
Ġc inc
Ġdi e
Ġan y
Ġdh usun
Ġper aturan
Ġpan emu
Ġmak utha
Ġlamp u
Ġpow iat
Ġpekal ongan
Ġr an
angan i
op ia
oj ok
Ġalum ni
ĠskÃ©n ario
Ġl uw
Ġb Ã©
un ing
ing in
or f
el ola
id aya
Ġpart ikel
Ġrun ner
Ġlight grey
b our
Ġc ut
Ġsa v
Ġngg anti
Ġgag al
Ġbad en
ye ong
arb Ã¨ni
ut anan
Ġden mark
Ġspec ial
Ġdark grey
Ġsf ondo
ĠbÃ¨l gi
Ġkawic aksanan
Å Ħ
Ġp ab
Ġb angs
Ġg ampil
dh ok
Ġsag ara
st ad
Ġorgan isme
ĠÐ º
Ġbay ern
Ġfeb ruari
Ġprins ip
Ġwisat awan
Ġ ont
ar uh
Ġm tv
Ġm atÃ¨ni
un akaken
amb ung
emb ungan
Ġy our
Ġny ar
Ġma z
Ġart h
Ġdhew e
Ġsil at
fa at
Ġbut ter
Ġpadh et
Ġperd agangan
Ġwangs ul
Ġwart awan
r um
Ġgr an
Ġmas ehi
Ġe ver
Ġmb ukak
Ġter p
Ġdes ain
Ġwil angan
Ġox ford
Ġgag rag
Ġdud utan
Ġtid ak
Ġchur ch
Ġsoeh arto
l ikasi
Ġk enc
Ġp asa
in um
uk e
Ġsing k
id in
Ġpan lit
Ġkab el
Ġtim nas
Ġcac ing
Ġko es
Ġfoot ball
Ġsapan unggal
Ġparta i
v ik
on egoro
Ġn uju
Ġw ijaya
Ġf okus
ac o
Ġak h
Ġap el
Ġsep uluh
Ġpert engahan
Ġset a
Ġdil akokakÃ©
Ġco un
Ġdin as
Ġvari an
Ġnem t
s w
y cl
al y
Ġdh apur
Ġv s
ib ia
Ġmak am
Ġfl ag
Ġgen eral
ment asi
Ġmu ara
Ġbav aria
Ġm uda
ad Ã©
Ġng uwasani
Ġman ut
Ġsa udi
Ġtr esna
Ġbal apan
Ġpeng alaman
Ġprof ile
osi asi
Ġpres enter
Ġastr onomi
Ġtik us
Ġwond Ã©nÃ©
ĠÃ¨f Ã¨k
m s
Ġd erb
Ġm ada
Ġb ok
Ġr anc
Ġkar l
Ġun dh
Ġbr id
Ġbr own
Ġmal ik
Ġkl as
Ġmr ica
Ġpe op
Ġhabit at
Ġk ent
Ġd uta
Ġm adh
onal d
tu al
Ġkons erv
Ġmul ut
Ġkil Ã¨n
Ġr ute
ic us
Ġat t
ĠÃ©k an
Ġlar as
Ġcamp ur
Ġjend ral
Ġantrop olog
Ġint el
Ġolimpi ade
b r
d an
u at
Ġt entang
Ġng isi
ic hi
umb uh
Ġdis ebut
Ġsar ujuk
ê¦ ¤
Ġelek tron
Ġg ong
Ġj uta
Ġc le
Ġng emp
Ġdip an
Ġnd ad
ust akan
Ġsw anten
Ġpur b
Ġchi c
Ġtat aran
t ip
ar in
Ġt j
Ġun der
Ġsek ar
Ġnd eleng
Ġdr eam
Ġfl u
Ġwak tu
ĠgÃ©n erasi
Ġalk ohol
Ġditambah ake
Ġmayor itas
Ġfran Ã§
Ġnorm al
t om
ar ik
ar awan
Ġw Ã¼r
aw atan
us kup
ent ukan
Ġmar kas
Ġny am
Ġsen s
Ġdel eng
Ġdiw Ã¨n
Ġkon f
Ġid e
Ġpindh o
Ġk Ã©nÃ©
Ġsak s
os p
ot an
Ġkal or
Ġal un
Ġind ra
Ġsep atu
Ġed isi
fl ik
Ġgerb ang
ar sa
Ġd l
Ġm ost
ak o
at aran
Ġt entara
id ul
ind o
Ġkeb ak
Ġkon flik
uka an
Ġsah am
g es
u z
Ġi tu
Ġt ers
Ġw arta
ri e
Ã¨w u
Ġpas ukan
Ġpel ay
pr ess
ĠÙ Ī
Ġkum inis
uskup an
w ork
Ġd awan
al on
en burg
Ġr ach
Ġdipun j
ma il
Ġpl astik
Ġbas k
Ġchin ese
Ġp g
in er
Ġal ih
Ġkas Ã©hatan
Ġag us
ell y
Ġdik embang
Ġpedh es
Ġvictor ia
Ġbulg aria
ĠkÃ¨ ju
Ġk ara
Ġt uru
on is
Ġg awe
Ġsak w
ub a
Ġkom er
Ã¨m p
Ġom ahÃ©
Ġkec il
Ġperc aya
Ġregi onal
Ġoy ot
Ġlabor atorium
r ac
Ġp ew
Ġm ara
Ġl ig
Ġh ij
amp ah
Ġdit andur
Ġpam eran
Ġob s
re e
Ġju vent
Ġhid up
m us
Ġk ri
at s
Ġt ong
Ġl ot
Ġsa indh
Ġbak teri
ĠwÃ© d
Ð° ÑĢ
Ġperi od
Ġs Ã©r
Ã© o
Ġb ac
Ġc end
ab eth
Ġper ma
iw as
Ġtr ip
Ġres ear
Ġker as
Ġsy ah
Ġid ent
osa urus
Ġjur nal
Ġrecord s
Ġ eth
Ġd aw
Ġm aha
Ġc ant
Ġng omong
Ġh Ã¨k
Ġkap ustakan
Ġny engkuyung
Ġsaw iji
Ġla ur
Ġter n
Ġter ak
Ġngl akokakÃ©
tur e
Ġstr eet
Ġhak im
Ġrev olusi
Ġpenerb it
Ġt ali
Ġb ug
aj aran
Ġut ek
Ġy e
Ġma ur
Ġser atan
Ġgen us
Ġkw art
l ak
Ġl oc
Ġn ul
ur un
Ġj ud
it ori
Ġpen ari
Ġkas edh
Ġwis nu
emp atan
Ġbak at
Ġses awangan
ĠÃ© p
Ġhom e
Ġalp inia
Ġdunung Ã©
y akakÃ©
Ġd own
Ġl awan
Ġw rit
om en
Ġman ag
Ġol ih
Ġsc ott
Ġang et
Ġsy n
Ġrev iew
Ġproy Ã¨k
Ġoksig Ã¨n
Ġgegrem et
Ġresear ch
p ati
w ah
Ġd os
am ad
Ġw ood
Ġg ov
Ġmar sh
Ġbot ani
Ġdid uw
Ġtuwuh ing
Ġgad is
Ġkakuw atan
edhiy akake
Ġr ena
ab et
Ġh asil
os o
ep okan
Ġbo ok
Ġstat istik
Ġnyebab ake
Ġpambang unan
Ġkomer sial
Ġs s
at ang
Ġng ob
Ġny el
Ġkom ik
Ġwal i
enc es
Ġpag awÃ©
Ġdar at
Ġsamb el
Ġchris tian
w Ã¨g
in ter
Ġc uci
ag am
Ġst ud
ob o
Ġkr upuk
Ġber ita
Ġbl og
ens e
Ġko ala
Ġcur es
Ġmam alia
Ġpadatan ipun
Ġsuj arah
Ġmetropol itan
ĠhÃ¨k tar
b e
l on
Ġ eri
Ġb ea
ri o
Ġmen y
Ġsad onya
Ġpag esangan
Ġpus aka
Ġtem anggung
Ġwul angan
Ġdhapur Ã©
Ġderb y
Ù ĩ
an on
Ġd v
at ri
Ġl ind
Ġr agi
es m
im i
Ġsat elit
Ġol eh
Ġdir i
imb angan
Ġsin yal
Ġup aya
Ġair ways
Ġham engk
ster dam
Ġfri end
Ġkoloni al
Ġk ra
Ġs ovi
ak Ã¨
aw ijaya
Ġj es
Ġsak l
os hi
ud ara
Ġam sterdam
ath an
Ġand re
Ġnd adosaken
Ð¸ Ð½
Ġangel es
n ess
y atan
Ġ Ã©l
Ġs ha
Ġb iji
er land
em ia
il o
Ġng agem
and ar
ub ah
Ġman eh
Ġsa unt
Ġch art
Ġbr ig
Ġmus t
Ġsek ot
Ġpl asm
Ġol ym
Ġsi emens
Ð° Ð½
Ġbol ongan
ĠÃ©w ah
atos ipun
Ġkedad eyan
Ġraw uh
Ġorig inal
Ġgangg uan
Ġng us
Ġf el
eb o
ok i
Ġper form
ent u
Ġnd arbÃ¨ni
Ġlel uhur
Ġlib r
Ġnur wÃ¨g
Ġanalis is
ĠwÃ¼r t
ĠnurwÃ¨g en
u it
Ġs if
en za
Ġw adh
Ġng ent
Ġdi isi
li ga
Ġpes erta
Ġcomm un
ustaka an
Ġfos il
Ġsoekar no
m ah
Ġp ower
Ġt es
Ġf isi
ac i
Ġwar ak
Ġac h
Ġwujud ipun
Ġmak ili
Ġle on
Ġil muwan
Ġtur k
Ġdipuns erat
Ġmoh ammad
ĠÃ¨t nis
Ġcount y
k ins
z ah
Ġt uku
Ġb eck
Ġj eb
Ġr amb
Ġkar am
Ġngg ol
Ġsp ong
Ġwal l
Ġins tr
Ġomb Ã¨n
Ġec onom
Ġkabin Ã¨t
Ġditind akakÃ©
Ġtetan Ã¨n
Ġpeop le
Ġjuvent us
Ġp asi
Ġn ump
or g
Ġr ej
Ġc ip
Ġh orm
Ġal asan
Ġant ologi
Ġkons er
su al
Ġkala iran
ĠÃ©w adÃ©nÃ©
Ñ ĭ
Ġ ew
ar ag
eg o
Ġy ohan
gi o
indh ah
Ġset unggal
Ġast ana
Ġnuk lir
al ifikasi
Ġw i
ad hi
il y
Ġsaj atinÃ©
Ġsur iah
Ġlap is
Ġcacah e
sh ire
Ġarm ada
Ġbos nia
he im
Ġmagn it
Ġenc ycl
Ñ Į
Ġp av
ut us
ul isan
si m
Ġin j
ep atan
id s
Ġkab ar
Ġsa f
Ġbr un
Ġpam ik
Ġpangg unaan
Ã©m on
Ġgodhong Ã©
Ġram ayana
arg yan
ĠakÃ© h
Ġsovi et
Ġ á
Ġs ump
Ġl ud
Ġsad ina
ef f
Ġkun j
Ġmic ros
Ġdhar at
Ġcag ar
c ast
j ord
Ġm ala
en ipun
it ab
ant is
os lav
Ġny ep
Ġres i
Ġngr ujuk
Ġprof esi
Ġhong aria
z za
Ġk emen
Ġd c
Ġl indhu
Ġr ingk
el o
Ġsak edhik
Ġin tr
Ġv Ã¨rsi
op p
Ġind ian
Ġap ol
Ġrac un
Ġwill em
Ġdo ug
Ġmenang akÃ©
Ġngasil ake
Ġkeh utanan
Ġlegend a
Ġkoth ak
Ġpenya ir
Ġb ukan
Ġlan dh
Ġny er
Ġun esco
Ġkas ih
Ġkep r
Ġpem er
enter ian
Ġstand ard
ĠÅ Ľ
Ġsriw ijaya
ut Ã©
eneng akÃ©
aba u
Ġbi asa
Ġlum ah
Ġx i
Ġmek an
Ġalex and
Ġpangl ima
Ġdisk ografi
Ġpamek aran
Ġchic ago
m l
s um
Å Ľ
or ia
es c
Ġik atan
Ġas iling
Ġny rit
Ġwal es
Ġsang a
Ġemp uk
Ġchrist oph
b ah
c us
Ï Ħ
Ġs ov
ang er
Ġm ex
en ch
em ar
awa i
amp ahan
Ġkap ern
Ġber d
Ġku at
Ġus kup
Ġdic ekak
Ġmig unakaken
rah im
yl or
Ġcat atan
z er
Ġb Ã¨t
Ġdi as
Ġper jan
Ġar k
Ġkul a
ert y
enc y
Ġpo in
Ġbro ad
Ġpern ah
Ġngangg Ã©
r of
Ġ Ã©s
as tr
it er
em at
et ahaken
Ġng arani
Ġam ir
Ġkap isah
ist iwa
Ġpang ert
ev in
Ġbund es
Ġjo e
Ġisland s
Ġkabangs an
Ġseta un
m ul
Ġmb ah
Ġkaw in
Ġpel ukis
Ġlin k
Ġtekst ur
Ġn ow
us en
Ġsad er
Ġamer ica
Ġba it
Ġrep ubl
Ġyohan es
r aga
ing er
ul e
ab asa
uk t
Ġo v
Ġbis kop
Ġpan ampilan
Ġtangg ung
Ġde f
Ġprov inc
Ġpopul Ã¨r
Ġtap el
ĠtÃ¨k nik
Ġmbiy Ã¨n
Ġjamb u
Ġsoc ial
Ġwiy ata
t ic
Ġt ivi
Ġl est
Ġr iwayat
ip ur
et o
ol is
Ġtaun an
Ġor t
Ġbr ab
angs ang
Ġset h
eth ok
Ġkay adÃ©nÃ©
Ġdipund adosaken
Ġgeor gia
Ġchampions hip
Ġanat omi
Ġyes us
z uki
Î µ
Ġt ant
Ġw ana
Ġw angi
Ġj kt
Ġr uk
eng ga
Ġf on
Ġh ang
Ġv ar
Ã¨h Ã©
Ġis mail
Ġpang h
ill er
emp uh
y angan
Ë Ī
Ġd ri
Ġm adi
Ġm Ã¼n
ut anÃ©
ag as
Ġsam anten
Ġken ya
Ġpek an
Ġminangk abau
Ġstyl idium
Ä Ľ
Ġs ign
at ul
Ġl up
Ġl Ã¨p
angg alan
Ġpas ang
Ġbak t
Ġgar uda
Ġku i
Ġpers ero
Ġqu e
Ġdat aran
Ġjour nal
Ġs yar
Ġp age
Ġl yn
el op
Ġf ant
Ġf ern
od es
Ġdig abung
Ġsh e
Ġfor um
Ġop era
Ġri z
ĠÐ ¼
Ġmingg ah
Ġgur ih
Ġsadh uwur
Ġpram uka
ĠmatÃ©m atika
Ġm ud
Ġl ont
Ġb it
Ġg on
em ahan
Ġh ea
ori us
op edia
Ġz u
Ġpol itik
Ġsc tv
Ġkons truksi
Ġph y
Ð° Ñ
Ġmaj or
Ġmungk in
Ġkemp alan
h um
k om
Ġ Ã¥
at in
Ġlan j
angg u
Ġper encana
ta i
Ġkom b
Ġmr ipat
Ġvi ii
Ġkec ap
Ġbord er
Ġsci ence
Ġs ter
Ġb ond
as ter
am ah
Ġc all
es ik
Ġh ur
Ġdi asil
Ġta ylor
Ġman us
ama an
Ġpeng usaha
Ġwal t
Ġlum aku
Ġmah ab
Ġmed ali
ĠÐ ¿
Ġalam at
j aya
z eg
Ġ ê
Ġs angg
Ġs oto
ar n
Ġl ama
Ġw ut
Ġng angkat
uk uhakÃ©
ot e
Ġak un
Ġil l
Ġmangg Ã¨n
Ġjembar Ã©
Ġars enal
Ġngend ika
Ġà ¤
Ġjac ob
Ġlangu age
Ġkonstit usi
Ġi man
Ġf u
Ġpar as
odh a
Ġsawat awis
Ġsok lat
ĠÃ¨s tri
Ġbra zil
Ġngadh epi
ĠÃ¨lÃ¨k tron
Ġmadi un
Ġp k
Ġp akan
Ġt atu
Ġj ong
ut akÃ©
uk akÃ©
eb unan
ed onia
Ġny aw
Ġch ili
Ġun ic
end a
Ġber p
Ġpanas onic
Ġvari abel
Ġngembang akÃ©
Ġhat ta
Ġjil id
ĠbÃ¨t Ã¨ng
h el
m Ã¨n
Ø ª
Ġn ampil
Ġr and
it t
uk Ã©
ir im
im ia
Ġkant on
Ġak si
Ġant oni
Ġtex as
Ġtet embungan
Ġkam enangan
Ġtah ta
Ġref orm
Ġcon n
utrad arani
Ġnganc ik
Ġkasedh iya
d ay
Ġt amil
aw u
Ġc ik
Ġng at
Ġng endh
Ġdh ahar
Ġpak ary
Ġair bus
Ġri o
Ġmangg ih
ĠÐ ±
Ġwind ows
Ġmatem atika
Ġsaindh enging
Ġsekot lan
Ġp ember
Ġp iano
ah asa
Ġc ipta
Ġdi akoni
angk Ã©
Ġart i
Ġdr agon
Ġkam angka
Ġmag epokan
ly wood
Ġomb en
Ġkompl eks
Ġterm inal
Ġindivid u
sek erta
d om
g et
x is
Ġ engg
Ġl ahan
Ġb ella
ut usan
and an
Ġsat o
Ġfr ont
Ġkom une
Ġngr ebut
Ġsum ebar
Ġkon v
Ġmul anÃ©
Ġpanc Ã¨n
Ġphil ipp
Ġkaka isaran
ĠlÃ¨p Ã¨n
m ur
o es
r esi
Ġd og
Ġd ra
ul at
ab o
Ġpen ampilan
Ġgu ide
Ġtha i
s er
Ġn c
ad wal
Ġit s
Ġkon fer
Ġwil d
Ġmir sani
Ġbag ian
m und
y c
ak ti
Ġt uan
Ġng adegakÃ©
Ġgr Ã©g
Ġangg r
Ġib rahim
ĠdhÃ©w Ã©kÃ©
Ġmaj elis
sk y
Ġpres iden
Ġris et
Ġsuks Ã¨s
Ġpalest ina
Ġistim ewa
x i
Ġ ungu
Ġm awar
Ġt est
am ik
Ġn es
Ġg emb
Ġv isi
Ġkap acak
Ġkr om
Ġdig ambar
ber ry
tember g
Ġperk ebunan
Ġcendh ak
har ata
Ġlibr ary
Ġbrab ant
w ang
Ġd eb
am u
Ġw ajan
et on
Ġkat a
Ġsing ap
ig asi
Ġa ud
Ġber l
Ġdhok tor
j al
Ġs Ã©n
Ġd ugi
ap e
Ġik an
Ġand al
olog ical
Ġtim es
Ġkem enterian
Ġpes isir
Ġtrans fer
Ġkek anc
Ġmo un
Ġdar b
Ġputr anÃ©
Ġwol ung
ĠÙ Ĭ
Ġk evin
Ã© man
el ing
ol ution
aj aya
im ologi
Ġpes ant
b aru
or ang
ant in
Ġh ans
ot ik
Ġy ug
ij an
ati an
Ġdis impen
Ġdir ancang
Ġngrampung akÃ©
ĠwÃ¼rt temberg
Ġt uhan
Ġl aj
Ġc ard
ed ral
Ġunivers al
Ġpak ubuwana
Ġkek uw
Ġwor k
Ãª ng
Ġjohn son
ith ik
Ġtem a
Ġtang erang
Ġpsik ologi
Ġcuw Ã¨ran
at ar
Ġl ob
Ġfr ee
adhah i
omb a
Ġib unipun
Ġhar v
Ġlar is
Ġger man
Ġrh ine
Ġngan akakÃ©
Ġpanguw asa
Ġg eb
us astra
Ġpr al
Ġdh alang
Ã¨n Ã©
Ġsal ju
Ġag en
Ġad vent
Ġtek s
Ġib rani
Ġmat t
Ġtur unan
Ġkol Ã¨ksi
Ġsand wich
Ġru angan
Ġfer r
mas in
Ġkapr ig
Ġrog er
i ara
Ġp oh
as y
Ġn af
Ġj uan
Ġj elas
ab ol
Ġh arian
Ã©k akÃ©
Ġpel awak
Ã¸ r
Ġperd ana
Ġnil ai
Ġgarw anÃ©
Ġanggit anipun
Ġveg et
k es
Ġc av
ap aken
ig o
Ġmar g
Ġa er
andh Ã¨ng
Ġap likasi
if er
Ġsh ort
Ġdr ajat
Ġpem ilihan
all y
Ġib une
Ġpanjeneng an
Ġgu in
Ġju ga
Î¿ ÏĤ
Ġfri ed
Ġkwart al
s in
Ġr end
il asi
Ġdi olah
uw angi
Ġas ter
Ġar ch
Ġkas ebar
Ġkaw onten
omb ia
Ġsc reen
Ġmag ister
Ġorgan ik
Ġsl av
ph one
Ġsay ur
Ġsaunt ara
d ut
n ers
Ð ´
an us
Ġd ara
Ġm aya
ak ia
Ġj ane
Ġlan ka
et ak
Ġf uj
ol l
Ġan ug
Ġan ne
id i
Ġla os
Ġpang angg
Ġwiwit anipun
Ġsam ar
Ġx ii
air akÃ©
Ġbanyum as
f il
Ë Ĳ
un tu
is Ã©
Ġc f
eg akÃ©
Ã©n an
ud ing
Ġdipun angkat
Ġmar ch
Ġis k
Ġsem ar
ump ulan
Ġpa ug
Ġpos itif
Ġkathah ipun
Ġjos Ã©
Ġment eri
Ġbub ur
Ġsec ret
Ġcentr e
Ġi f
ak tif
os it
Ġy udh
ob atan
Ġtr e
Ġbr ad
Ġsan saya
Ġel iz
Ġpik iran
Ġngandh araken
Ġpin ang
Ġdhar atan
Ġtebih ipun
Ġperemp uan
a os
Ġp aman
Ġp Ã©ta
Ġt b
ik h
Ġg adh
Ġr ut
ung anipun
os om
ed alaken
amb angan
amb ahi
Ġkut ai
Ġkas til
iv ia
Ġmb intangi
Ġsup port
Ġmer deka
Ġkem ampuan
Ġkaj i
Ġpemb alap
elit ian
Ġmahab harata
en o
Ġw ajib
aw ahi
ac ar
Ġkal k
ub ung
Ġch an
Ġsaj roning
ĠdhÃ¨w Ã¨k
Ġjinis Ã©
Ġbot tom
Ġed ition
Ġhar apan
Ġpopul ar
Ġmik e
Ġjaw ara
Ġkakuw asan
Ġprom osi
Ġmrat Ã©l
Ġmbeb ayani
b ang
m inton
z ation
Ġs eh
Ġs bs
Ġl irik
Ġb ima
Ġc n
es ar
Ġpr ok
Ġas osiasi
Ġam ung
ec ht
ina an
Ġat awa
Ġat usan
st on
Ġbl u
Ġkaj ian
Ġsir up
Ġbap ake
Ġgag ang
Ġbanjar masin
Ġnyebab akÃ©
Ġcent ury
Ġplasm odium
h ong
t op
Ġp ungg
Ġp ita
Ġt aw
Ġt iwas
Ġl ov
Ġb uta
dh ana
Ġkat res
eb ob
Ġpan dhidhikan
Ġkr ab
Ġsp e
Ġus a
erat ur
su f
Ġkadh okteran
Ġform al
Ġdat ab
Ġtelevisi on
Ġmundh ak
Ġkekalih ipun
ĠmÃ¼n chen
Ġn utr
Ġh adi
Ġh erb
Ġpr ad
Ġmar gar
Ġmet e
Ġnam e
Ġmon op
Ġreg uler
ĠÐ ½
Ġditem oni
angkep i
á¹ £
Ġsteph en
Ġp id
Ġc art
ul ake
Ġar kÃ©
Ġun ion
yan ing
Ġcom une
yl l
Ġbad minton
Ġbant uan
Ġalk itab
Ġprop insi
Ġngew rat
Ġbundes liga
Ġperencana an
s tan
y anÃ©
Ġi a
Ġd ki
Ġm angs
Ġw aw
Ġw etan
Ġr ey
Ġc ra
et ah
Ġh ung
Ġar n
Ġsa ins
Ġad i
Ġlor d
Ġpat rick
Ġba Ã©
ĠgawÃ© an
Ġsus uh
Ġot her
Ġmur ni
Ġpubl ic
Ġeliz abeth
Î ¬
Ġi an
Ġl aman
is ik
Ġn ara
Ġw o
el ok
dh o
angk e
Ġper w
uj a
Ġar ca
Ġch ang
Ġka uskupan
ungk inan
Ġkol am
Ġlat ihan
Ġmur ah
Ġpamb uka
Ġbek asi
Ġjon es
Ġreb us
Ġling u
Ġfavor it
Ġp iw
Ġl angka
Ġb angka
ik et
ab ad
Ġdi ay
Ġdi iris
uw uh
iy antu
ari b
Ġab ru
uc tion
Ġum ar
arah aken
udh uk
Ġros e
Ġbend a
Ġapol lo
Ġk unt
Ġl ungguh
Ġb ik
es iki
eng er
aj ang
Ġper wak
Ġv ik
Ġkr esna
Ġban dh
Ġdib ukak
Ġkep ul
Ġpers on
Ġjan ji
Ġpot ongan
Ġaz erba
Ġtw o
Ġjack son
Ġpuj angga
Ġprofes or
Ġaltern atif
Ġbangs awan
m ing
m ati
s ik
Ġi ris
Ġm om
Ġt ob
Ġng ec
amb u
Ġth is
ent s
Ġkap ur
Ġpan anggalan
Ġfil suf
Ġmen awi
Ġsek si
Ġngl ambang
Ġker is
Ġkep Ã©ngin
Ġmel u
Ġterb it
Ġgra v
Ġtuladh anipun
Ġgirl s
Ġfall s
b ach
c eae
w are
Ġb au
am o
Ġan om
Ġal ang
ov an
Ġar chi
Ġch ap
Ġkac il
Ġne ur
Ġint eg
Ġmudh a
Ġhawa ii
Ġmess aging
ograf is
Ġbibli ografi
Ġspong ebob
ĠgrÃ©g orius
f o
u v
ar ipun
Ġw aja
Ġdh os
Ġdh aptar
Ġpar ah
Ġdik onsumsi
Ġop tik
Ð¸ Ñ
Ġfung s
Ġrel e
Ġpandh awa
Ġeur op
Ġmutus akÃ©
Ġwadh uk
Ġmagnit udo
Ġsader engipun
Ġsingap ore
Ġperwak ilan
Ġb engi
Ġan na
Ġny ebat
Ġab s
Ġsat Ã©
emp uran
Ġses ebutan
Ġdib ut
Ġsem in
Ġpa ulus
Ġmem ori
Ġwol u
ku it
Ġern est
ar as
Ġb ach
en ne
Ġn aw
Ġr il
ip an
Ġng ajeng
Ġng owahi
om et
Ġut amanÃ©
Ġkad ar
ingg alan
Ġsum ur
Ġpand an
Ġtab el
Ġtuk on
Ġdipunl ampahi
Ġkamb oja
Ġsasuw Ã©nÃ©
Ġngemp alaken
Ġazerba ijan
h ol
Ġm engg
at ra
am ar
Ġr ain
Ġc engk
ung si
ic es
and ingan
Ġut c
Ġal an
Ġak adh
Ġgr eg
Ġbr os
Ġdis utradarani
Ġpam Ã©rangan
Ġir ung
Ġle ad
unt ing
Ġcl ass
endh er
Ġmang a
Ġuw is
Ġwilliam s
Ġrat ing
Ġbata via
Ġkomb inasi
v as
Ġt hi
Ġl ake
dh ik
Ġsa id
Ġnj urung
ind ing
Ġdik irim
Ġwewengkon Ã©
Ġkam us
Ġpat ih
Ġpers egi
Ġlumr ah
bo ard
Ġjag at
Ġbag us
Ġdom est
Ġsimb ah
Ġwol f
Ġwest ph
Ġngaj ak
Ġpaug eran
k h
r ay
z el
Ġ ess
Ġ era
Ġl ebar
Ġj el
Ġj umbuh
Ġf ab
im en
Ġsal ib
Ġen zim
Ġep is
Ġjos h
Ġgag asan
Ġnet ep
Ġyus uf
Ġnuk le
oksi da
l ik
Ġdh ataran
Ġny usun
Ġar c
aba i
Ġkl ompok
Ġkep pres
Ġmac h
Ġdal u
Ġyo ut
Ġperp ustakaan
Ġprem ier
Ġturnam en
Ġarth ur
j el
r Ã©
Ġk ha
Ġs Ã¨n
Ġt ony
Ġl arang
Ġb rian
ik ular
Ġfr ench
jur ung
Ġkad is
Ġsl ov
zi o
unj ukan
Ġmut iara
Ġolah raga
fin isi
Ġpond ok
Ġcoun try
o or
Å ¾
ar ake
Ġt iti
in ya
ek tif
uw i
id o
Ġkar im
Ġy erus
Ġas r
Ġpan ump
ov asi
Ġmar in
Ġfr ed
Ġngr usak
Ġpers Ã¨n
Ġgen erasi
Ġmig unani
Ã¶ r
Ġhen ri
Ġlengk ap
Ġwestph alia
ar wa
as ama
is hi
Ġw es
Ġng olah
Ġan al
Ġkal du
Ġman usia
Ġpen yi
Ġsad angunipun
Ġph o
Ġup amanÃ©
Ġbag Ã©an
Ġsamp urna
Ø ©
Ø ³
Ġ enth
Ġm ons
Ġt andhing
Ġb asil
is l
Ġpr amb
Ġy og
Ġkap ten
Ġbal l
ug an
aling ga
Ġart ic
Ġpem uda
lam asi
Ġdic el
Ġbang lad
Ġpap rangan
Ġtemp ur
Ġdang dut
Ġhab ib
Ġngomb Ã©
Ġdiduw Ã¨ni
Ġj ami
Ġj ason
it Ã©
ol ahan
Ġu z
Ġkal endher
Ġsaj inis
ian ak
Ġul asan
Ġgeg er
Ġpek erja
Ġyus w
Ġcrit ics
Ġabru zzo
s un
v is
Ġm ert
er ine
Ġpr ek
eb es
amp ing
ig ur
od ra
Ġpungkasan e
Ġmo on
omot if
Ġnyat akakÃ©
Ġlint as
Ġbanj ir
Ġobs erv
Ð ¼
Ġm gr
am Ã¨n
Ġn un
Ġw ort
Ġj aka
el ah
el asi
ul in
ab u
ag ang
Ġdi owahi
ont o
Ġbal ap
Ġdum ad
Ġket ata
Ġneg ri
Ġsam uel
Ġkak u
Ġpot ensi
Ġment ega
Ġkamp anye
Ġglob e
Ġrer enggan
Ġdistrib usi
Ġkarangan yar
Ġhorm on
Ï ĥ
ap or
Ġh un
op si
Ġdip er
Ġpam ilihan
Ġker eta
endh et
Ġpungkasan ing
Ġmir ib
Ġinggil ipun
Ġakir Ã©
Ġcons t
Ġanth ony
Ġlent ikular
Ġp ie
Ġm d
Ġb aya
it akakÃ©
ip e
Ġng akoni
Ġh utan
ud an
Ġas y
Ġsa at
Ġch er
Ġngg ant
Ġmad inah
Ġop er
Ġamb on
Ġsl Ã©man
Ġeks tr
Ġwin ates
Ġbub ar
Ġhil ir
ĠwÃ©d ok
Ġsov y
d ad
ar ch
Ġi w
Ġdi main
og l
emb ahan
ov ina
Ġnj l
Ġsar apan
Ġmit os
Ġpah argyan
Ġå ¤
Ġbany uwangi
ĠdhÃ©m ografi
Ġkup ing
Ġnep al
Ġmid d
ĠfranÃ§ ois
an is
Ġk Ã¨r
ar uhi
Ġm s
en ing
ur s
Ġr yan
ir us
Ġsaj ak
ath er
Ġpang anggit
Ġe qu
ev o
Ġkaw ah
Ġdir ector
Ġre ad
Ġkan jeng
Ġer ic
Ġjal er
Ġex p
Ġnutr isi
u ff
Ġm yan
Ġt utup
Ġg urit
em uk
et ia
ap ing
Ġpr ob
Ġkar ibia
Ġch amp
Ġch ild
ti e
Ġser ie
of i
Ġrum ania
Ġlemb ut
ãĥ ³
Ġrh in
Ġalp ha
á¹ Ń
Ġpictur e
Ġkenth ang
Ġprinc e
Ġkasun yatan
Ġkulawarg anÃ©
y r
ar p
Ġd Ã©w
Ġd inggo
Ġb Ã¨g
as akÃ©
Ġg ant
Ġdh Ã©
Ġal esan
ent al
Ġak asa
Ġman eka
od on
Ġat er
oy ang
Ġpert empuran
Ġbe ijing
Ġhal aman
Ġmp u
Ġrel igi
Ġja zz
Ġpis ang
Ġcem eng
Ġdhok umÃ¨n
Ġmendh et
Ġkoordin at
v o
Ä Ł
Ġ Ã®
Ġk bs
Ġm ie
Ġt ingk
Ġb c
es ian
ag ian
Ġpr oc
os ari
Ã©n a
Ġban dha
Ġser ang
Ġac c
Ġbo jo
Ġus ada
Ġwoh Ã©
Ġkos m
Ġarsit ektur
Ġkompos isi
Ġhamb urg
Ġbakt Ã¨ri
Ġkacil akan
å į
ì Ŀ
Ġp ath
Ġw ahana
ip ik
ek u
ek Ã©
ay anipun
ic ip
Ġper u
ont rol
Ġy as
Ġal m
Ġv iv
Ġe ff
Ġsis ik
ĠdÃ©sa in
Ġbek as
Ġterak hir
Ġwort el
Ġmyan mar
Ġi ra
Ġm uter
Ġw ag
Ġf ase
Ġpr ed
uw ah
Ġu ji
Ġmin ang
tr al
ig u
Ġtr ep
Ġbr e
Ġtin ulis
Ġiv an
Ġorg ani
Ġdev elop
Ġwiyos an
c z
Ð ³
at as
Ġn ah
or gan
Ġj ord
us ul
Ġng oko
Ġh ok
ara i
Ġper ad
Ġsaj atosipun
andh ani
ib er
Ġpeng aruh
Ġbud idaya
Ġbo oks
Ġcl assi
Ġfl orida
Ġstat es
Ġeks ekutif
Ġmc c
Ġbers atu
Ġprodh uk
Ġkris is
Ġngundh akakÃ©
Ġgov ern
Ġchristoph er
Ġyerus alem
l is
Ġd Ã¨n
Ġn op
Ġng eng
ir at
Ġth r
Ġwiwit ane
Ġsek itar
Ġter t
Ġwal andi
Ġart inÃ©
Ġpapan ipun
Ġlum ahing
Ġsik lus
Ð° Ð»
Ġdipunw ontenaken
Ġobj Ã¨k
Ġngalah akÃ©
Ġbia ya
Ġlanc ip
Ġmete or
c s
f an
n et
y in
Î º
Ġl aku
am ana
Ġn ut
Ġn ev
Ġg aj
Ġg iyaran
us uma
om at
ong a
asi at
ic i
Ġy un
Ġst abil
Ġpar ag
Ġtangg el
Ġco urt
Ġkuw asa
Ġjoh annes
Ġos aka
Ġkart un
Ġmengk o
Ġjac ques
Ġpont ianak
Ġmenj adi
Ġpalakr ama
ĠsÃ© j
Ġdisebab akÃ©
Ġl p
Ġl ac
Ġn in
ag ung
Ġh et
Ġdi h
ub ur
Ġpam ab
ind akaken
Ġpeng aw
ert os
Ġur ban
ĠrÃ© volusi
Ġdib andhing
Ġsi yap
Ġinf lu
Ġawal Ã©
Ġkarakter istik
Ġfar m
Ġkonst elasi
Ġsangisor ing
Ġalf red
Ġprajan jian
Î ¯
Ġs z
is ia
or p
Ġc ec
Ġng enal
Ġv a
Ġpen emu
engk a
emp or
Ġart s
Ġtemp o
Ġfer mentasi
Ġaktiv is
Ġdiay ahi
m ed
v y
Ġt Ã©r
Ġn erbit
Ġn andur
ip s
ek ta
ong g
ent ingan
Ġbab y
Ġat let
Ġbl itar
Ġsy d
iti es
Ġpaw on
Ã©d akakÃ©
Ġprib umi
ĠÅ ¡
Ġnggambar aken
Ġhi as
w ig
Ġt anda
Ġl uth
Ġw edi
Ġc ad
Ġdi v
ud in
up si
Ġny uda
anc a
Ġka z
Ġsat e
Ġpl ant
Ġkel u
Ġto uch
Ġmil yar
Ġlar e
Ġluk is
Ġsah abat
ops is
Ġfrancis co
Ġmard ika
Ġkerj asama
Ġdv d
Ġbanglad esh
e el
Ġp upuk
Ġb eta
et ti
ek aken
Ġngg antos
Ġbr ambang
Ġdis ug
Ġkl an
Ġbak so
Ã©nt ar
Ġpol y
Ġel ec
Ġcr o
Ġbang un
Ġtur un
Ġid ol
Ġgen er
Ġsir ip
Ġcer kak
Ġpres ent
Ġlit er
Ġwern ane
rik sa
Ġkaf ka
Ġserv ice
n ica
Ġ Ã©m
Ġm ori
at esi
Ġw anda
Ġg ang
ip a
adh ang
oc us
Ġkul iyah
Ġmb ok
Ġput aran
Ġso ed
Ġle iden
eran ia
Ġwil son
Ġdipunw edalaken
Ġpeny el
Ġsimb ul
Ġfe atur
Ġstev e
Ġcarl os
Ġhidr ogen
krip si
Ġperform ance
Ġsyar at
Ġt omb
Ġpr e
Ġsh ang
Ġwat ak
Ġsub ur
Ġtop eng
Ġrek or
Ġlew is
Ġbend ungan
Ġgamb aran
Ġcent a
Ġdatab ase
ĠarkÃ© ologi
Ġyout ube
t anÃ©
Ġm pr
Ġl urus
er m
is k
ag es
si um
Ġu h
Ġv illa
Ġas ean
Ġkas erat
uc e
Ġcar abasa
Ġpert unjukan
Ġot t
Ġot onomi
Ġwh it
Ġcor por
ĠgÃ© ologi
Ġnet work
Ġdistr ict
Ġanth rop
Ġvo ice
Ġzo et
Ġkekanc an
Ġguin ea
d ie
g y
j ing
z ia
Ä ĳ
Ġk ow
Ġd eg
Ġing on
Ġn ich
Ġw ester
Ġg ib
uk ani
hi e
Ġsal v
Ġngl ajengaken
of il
Ġdic ekel
Ġalb ania
Ġfl ora
Ġkol on
Ġkol ombia
Ġben ing
Ġpemb uluh
Ġpand ang
Ġwh at
Ġkeju araan
ĠtÃ¨h nik
Ġkond ur
ĠÃ©p isode
Ġpral ambang
Ġpungg awa
Ġm aga
Ġt ind
Ġn imb
ut t
Ġh op
Ġu u
Ġal g
Ġth ree
Ġam ino
uj an
Ġny ithak
Ġgr esik
Ã¨r gi
Ġkag abung
Ġdiw aca
Ġbat am
Ġmat th
Ġkeb un
Ġhe ight
Ġkrist al
Ġkub uran
Ġkert u
Ġvis ual
Ġremb ulan
Ġtech n
Ġpamab uran
ar m
Ġd etik
aw ah
eg ani
Ġdi a
Ġv ga
amp ir
Ã¨k aken
Ġak an
Ġkl a
Ġtek nis
Ġit b
Ġpel aksana
Ġim ig
Ġtrans form
ene hi
Ġpanc en
Ġrah asia
awar sa
Ġpec ah
Ġyak uwi
Ġproduc tion
Ġvirg inia
Ġcharl ie
Ġneb ula
Ġmicros oft
ĠÃ® le
Ä Ļ
Î ¼
Ġm Ã©n
Ġb urung
Ġw elas
Ġr iy
Ġc awang
ant e
Ġpan it
Ġad v
Ġbr eak
Ġat r
Ġter k
Ġning ali
Ã¨ng eti
ebet aken
Ġib n
Ġcr oss
Ġrak ai
Ġtar ik
Ġsec ara
Ġsut ra
Ġnap ol
Ġkod am
Ġditind akake
Ġparl emÃ¨n
Ġsedulur Ã©
Ġkabut uhan
Ġisk andar
Ġkatres nan
r ih
Ġ ×
Ġs antos
Ġp od
at ha
Ġl ow
ah tera
Ġr ang
Ġsing a
and ra
Ġa udi
Ġsp ace
Ġkom is
Ġpas aran
Ġmb abar
Ġber ang
Ġden is
Ġsam odra
Ġsus unan
Ġwer uh
Ġandh ap
Ġfisi ologi
m p
z on
Ġk ukus
Ġs os
Ġs ilih
Ġt ed
is sa
ad ani
Ġkat iga
Ġo ven
ent o
asan ipun
Ġgar udha
Ġkag awÃ©
Ġmad ya
Ġrak et
Ġdom in
Ġpandh ita
Ġcem ilan
Ġhead phone
Ġperw ira
Ġk v
Ġg aw
Ġpr ay
Ġdi aj
ep on
ot ong
og le
Ġtr il
aja an
Ġlangk ah
Ġse ine
aring aken
Ġkup u
Ġngan ut
Ġspirit ual
h ari
r ence
at hi
Ġb anda
Ġn Ã©g
Ġg apura
Ġr iv
Ġc iv
ill es
Ġdis et
Ġangg aran
Ġpl es
Ġgedh Ã©nÃ©
Ġtan eman
Ġdib awahi
Ġperk ara
Ġhy un
ÃŃ a
Ġanim e
Ġly on
Ġmungk asi
Ġpanlit ian
Ġbrid ge
Ġpelay anan
i or
Ġd ul
ak at
er ik
Ġg im
Ġg ob
it age
Ġng emu
Ġng umum
Ġpr Ã©
Ġkat olik
ot is
ama i
ist s
Ġz ain
Ġso o
Ġden e
Ã©h at
Ġbib ar
Ġbaw ah
Ġteb ing
Ġungg ulan
Ġasm ara
Ġmex ico
Ġkekuw atan
n ie
s it
t el
á º
Ġ ãĥ
Ġt ebu
Ġl imb
Ġl engen
Ġn utupi
Ġw untu
ad u
ul as
uk iman
ol ic
Ġan war
ont akan
Ġkap an
Ġad u
ev a
Ġtim un
Ġpak urmatan
Ġaj eg
Ġbet awi
Ġbapak ipun
Ġcy g
Ġmengk u
hid rat
ĠkÃ¨r em
Ġdevelop ment
h at
i Äĩ
m es
Ġ ung
Ġd ist
en n
as us
ad ari
ed o
Ġv ene
amp u
ari at
Ġpen elitian
Ġis ab
Ġad il
Ġsar ah
Ġz i
Ġsep isan
orm at
enc an
Ġmer eka
Ġmet ode
Ġmul ih
Ġprak t
Ġcek o
Ġrangk ah
Ġencycl opedia
mul der
Ġsupport ing
Ġsyd ney
b le
d s
f urt
p ura
Ġp ista
Ġc ib
el iti
et is
oc a
Ġmb ayar
Ġpem eran
Ġsang ang
Ġku alifikasi
Ġmr ico
Ġseg i
Ġhar ris
Ġger ak
Ġgo ogle
ining rat
Ġvok alis
Ġbangk ok
ovi Äĩ
Ġlumb a
Ġzoet mulder
d on
i os
t in
v ania
Ġp ojok
ar ingan
Ġn ug
um o
Ġind uk
Ġman ado
edh a
Ã©k a
Ġpas ina
if ah
Ġkl awu
Ġpul uh
Ġinter aksi
Ġngr asa
Ġpers is
Ġkun ci
Ġmul ang
erat or
Ġval enc
Ð¾ ÑĢ
Ġsuw ara
Ġtop ik
Ġken n
Ġpanc i
Ġht ml
Ġdian akake
Ġprim er
Ġngil ang
ĠdiwÃ¨n Ã¨hakÃ©
i ana
l ia
Ġk andhang
Ġm ujud
Ġn en
Ġg ath
et ep
Ġdh adha
id ah
up i
tr ack
Ġar us
ug e
Ġput u
Ġngl eb
Ġtemb aga
Ġkaw angun
indh ungi
Ġtin amtu
Ġmr iku
Ġsin ambi
Ġlem on
Ġot om
Ġqu een
Ġher zeg
Ġduw Ã©ni
Ġmeng sah
Ġjej ib
Ġjav an
Ġdha Ã©rah
Ġdas awarsa
Ġfound ation
Ġranc angan
Ġseth ithik
y y
y ana
Î ·
Ġ ãĤ
ar ki
Ġm ath
Ġb ps
Ġw os
Ġc ong
Ġc af
ap ak
Ġu j
Ġy os
Ã¨k i
Ġny athet
Ġa i
Ġkr ak
Ġpl ank
Ġunivers e
Ġpanj i
Ġband ar
Ġtrans m
Ġist at
Ġmor f
Ġgesang ipun
Ġbedh amÃ¨n
Ġmateri al
d ah
Ġs angk
Ġs isan
ak ang
Ġt awon
ah ab
it ing
Ġc s
Ġc ed
Ġc abai
es ipun
Ġng ono
ek am
eb er
op rak
Ġdipun ter
edh akÃ©
Ġmen apa
Ġsp es
Ġkom andan
Ġkur dhi
pl ay
eta il
Ġbon ang
rip ta
Ġngub ung
Ġdoug las
Ġyug oslav
w ell
Ġb od
on es
Ġr id
ek nik
Ġind o
Ġman faat
adh an
ri ed
Ġkom ando
Ġkak ang
Ġmangk at
Ġpaw arta
Ġcer ak
Ġfa ir
Ġfin landia
Ġshar p
Ġbomb ay
Ġanggot anÃ©
Ġsovy Ã¨t
h r
p an
Ġp m
Ġb udh
on j
Ġn m
Ġw ic
ik s
ad ian
Ġg ogh
Ġj ajan
Ġdi omb
Ġv e
Ġsaw eg
Ġch en
Ġma ul
Ġag r
Ġmit ra
Ġcom edy
Ġkag unganipun
Ġgl adh
Ġtul ung
Ġdar m
Ġbir o
Ġrel i
ipt akakÃ©
Ġpangk alan
Ġdoc tor
Ġ Ã§
Ġ Ã¨wu
ak er
al aya
at re
Ġl t
Ġn r
Ġc uka
Ġng ump
Ġf un
Ġdi is
Ġin si
ok imia
Ġar ena
ard jo
Ġe arth
Ġsur v
Ġpal astra
Ġmet er
Ã©m p
Ġse orang
Ġpes en
Ġpot ter
Ġbund eran
Ġeng ine
Ġking dom
Ġmanaj er
Ġcu aca
Ġmich el
Ġcultur e
Ġpelat ihan
Ġmbut uhakÃ©
Ġharv ard
Ġherzeg ovina
w ana
Ä ħ
Ġp ist
Ġd ate
Ġt od
Ġl ur
Ġb art
en berg
in or
in ess
Ġr odha
es ta
Ġng aku
Ġsing el
Ġper sia
emb ara
Ġmar it
Ġfil os
Ġar iw
Ġmah k
Ġsk en
Ġdil ak
Ġrom antis
Ġinf eksi
Ġprof Ã¨si
Ġkembang Ã©
Ġhol lywood
ement s
Ġpac ific
Ġoc ean
Ġpanalit en
Ġlump ur
h ana
Ġk uran
Ġk Ã©ng
Ġp Ã©ri
Ġi ya
Ġd ob
Ġm unt
Ġj as
ab ah
ek h
ok erto
Ġor anye
Ġfr eder
Ġtemb Ã©
orm atan
Ġbeb aya
Ġgl andhang
Ġbo ur
Ġco ur
Ġmes si
Ġes p
yl vania
Ġstudi es
Ġfa una
Ġboy s
Ġkend araan
Ġkomis aris
j Ã¨n
m el
Ġs engk
Ġi z
Ġc ob
Ġc opa
Ġdi undang
aran ing
Ġpl as
Ġen ergi
Ġdel ta
Ġsy mb
rah aken
Ġet hi
Ã©d an
iyar akÃ©
Ġcir c
Ġseng aja
Ġdileb okakÃ©
Ġdub ai
Ġindepend en
ĠpÃ©r ak
Ġasist en
u in
Ġ ÑĤ
Ġm ing
Ġl ower
Ġb ij
Ġg ulu
us ter
ir d
Ġu c
Ġkar bo
and ani
op las
ani e
Ġab di
Ġad egan
Ġdit utup
Ġdis edhiyakake
Ġkom ite
Ġwal ter
ell ow
Ġdik arep
Ġkaw Ã©ntar
Ġib uk
Ġmad e
Ġkons onan
Ġcl ark
Ġpend ek
Ġked iri
ĠolÃ¨h Ã©
Ġpaw ongan
Ġkodh ok
Ġngremb ak
vi ew
Ġgin jel
Ġunic ode
c ia
k ov
n on
å ¸
ar us
ung anÃ©
Ġpen si
Ġtr ek
Ġdit empuh
Ġter l
ro ugh
Ġx v
Ġmik ir
Ġtri ang
Ġngil angi
Ġwarn anÃ©
Ġinsp irasi
Ġperjan jian
Ġeurop ean
Ġpanump es
Ġjejib ahan
p ing
un akÃ©
Ġr Ã©n
Ġr ilis
Ġc im
Ġh ai
Ġdh Ã©p
Ã©n ipun
Ġmin uman
Ġka anggo
Ġpas ca
Ġker ang
Ġgedh ung
Ġcar kak
Ġmis teri
Ġset u
Ġkes atuan
Ġse ason
Ġkont rib
Ġmic hi
ĠtÃ© ater
Ġdipunb abar
Ġsedh eng
Ġjul ia
Ġding erteni
ĠmÃ©t odhe
Ġorient ation
Ġhamengk ubuwana
l ow
Ġk ami
Ġd y
Ġl ek
Ġl angg
Ġn embang
Ġj angka
Ġr Ã©l
Ġf ull
uk ir
Ġh ers
Ġdi atur
iy o
up e
Ġper nik
Ġal mar
Ġas or
ati ga
Ġa in
oh o
Ġkl aten
eh atan
ĠkabupatÃ¨n Ã©
Ġsab ib
ord er
Ġkons umsi
Ġcol ors
Ġvi ew
Ġos tr
Ġna zi
Ġcor ak
Ġft v
ãģ ®
Ġlemp ung
Ġuw ong
Ġgun anÃ©
Ġpis ces
Ġky r
Ġjab an
Ġditerbit akÃ©
Ġpekan baru
Ġdhos Ã¨n
Ġdomest ik
Ġkarbo hidrat
Ġalmar hum
j ad
Ġd asa
al ity
Ġt ambang
Ġb Ã¨b
Ġn ations
Ġj em
ant Ã¨n
Ġf as
Ġv at
Ġth or
Ġam al
Ġpan ah
Ġnj eron
Ġand y
Ġpemb antu
Ġpe ace
anj er
Ġarm enia
Ġbant ul
Ġjon athan
Ġlamb ung
Ġsosi alis
Ġparl emen
Ġmanus krip
Ġreform asi
s em
at akÃ©
Ġn umb
Ġc um
Ġc ot
ul angan
ap atan
Ġf eder
uk uran
ir man
Ġkat ulis
ij akan
ers ey
Ġsp ring
Ġdib umb
rah man
Ġpt ol
Ġdipunk enal
Ð¾Ð »
Ġpamik iran
etah uan
Ã Ł
Ġs Ã©ri
ak ir
Ġl engg
Ġb j
Ġj asm
Ġj adwal
Ġlan t
Ġdi ob
ga e
Ġdh uk
Ġput eri
Ġdib ungkus
Ġlag hu
Ġset i
Ġkem er
Ġdil uncur
uth u
Ġrob in
Ġsil ver
Ġcek ap
Ġfit ri
ibat akÃ©
Ġpolit eknik
utur akÃ©
Ġmemb ran
Ġatm os
ĠkÃ©ng ing
c om
c rip
t t
Ã ¬
Ä ĵ
Ġs ira
Ġp Ã¨ng
ar no
Ġi ji
Ġd z
Ġd yah
Ã© c
Ġt m
Ġl ast
is ha
Ġn angg
aw uhi
it un
Ġng uc
si ca
Ġh ik
Ġh ass
Ġh esse
id es
Ġal at
ent i
Ġnj agi
uc hi
Ġumum Ã©
Ġfl av
Ġrum angsa
Ġdij enengakÃ©
Ġpin yin
Ġcer pen
Ġsec ond
Ġgul ung
Ġkritik us
Ġadoh Ã©
Ġoby ek
Ġinj il
Ġnyaw iji
abol isme
Ġyusw anipun
Ġplank ton
Ġs Ã£o
Ġd eng
Ġm ec
Ġb encana
am is
Ġg y
Ġg if
it anÃ©
Ġsak d
om un
Ġmar oko
Ġar d
Ġtr ag
Ġpang arep
Ġmb c
Ġkl anjer
Ġsur in
Ġdiw en
Ġkur sus
Ġmer ek
Ġmet h
Ġgel as
Ġbel itung
Ġprot on
ÃŃ n
Ġbah asa
Ġeng land
Ġgendh ing
Ġakun tan
Ġdarb Ã©nÃ©
y im
Ð ±
ak tur
Ġb w
Ġb um
am s
Ġw ur
Ġg p
om inasi
Ġv in
Ġdig olong
Ġdit ambahi
Ġbr ebes
Ġsat ya
Ġber h
ex t
Ġsam en
Ġbang unan
Ġfl y
Ġben ed
Ġba usastra
Ġpany ebaran
Ġprot ein
Ġrep r
Ġkop erasi
Ġgi zi
Ġcoll ection
Ġmanggih aken
f jord
r ut
v ing
Ġs ist
Ġd omba
at t
ing u
Ġn olak
us et
Ġng ak
Ġsak b
aj ahan
ot te
Ġy ok
Ġal t
Ġar ist
le x
uc al
Ġpl ace
Ġdir esm
Ġpi zza
Ġpend ukung
Ġkim i
Ġkej awi
Ġkej aba
oth er
Ġmik ro
Ġtamb a
Ġjen n
ĠdhÃ©m okrasi
Ġplay er
Ġlil in
Ġbid ang
Ġnemt okakÃ©
Ġkunj ara
n iv
ar ea
Ġd usun
al in
Ġb iyos
er d
on ipun
aj or
tr e
ati v
ig ar
Ġsal atiga
Ġkr Ã©ta
oc hi
Ġe in
Ġsh er
Ġpl a
Ġpeng adilan
ell er
ĠwÃ© tanÃ©
Ġte en
Ġabd ur
Ġhan oi
Ġni as
Ġpaul o
Ġdong a
Ġgad jah
Ġsci ences
Ġadam s
Ġatl antik
Ġnig eria
Ġperemp at
Ġnyrit akakÃ©
Ġinflu enza
Ġmatth ew
Ġsken ario
Ġbiyos kup
b ert
p asar
u asa
Ð ²
Ġ í
Ġt angk
Ġt ungg
Ġb ara
en is
Ġn andhang
ad at
Ġg ut
el um
et ta
uk ti
Ġpr atan
sa i
Ġnal ik
Ġnj eblug
ch es
ĠdhÃ¨w Ã©kÃ©
Ġdit inggal
Ġur ut
av e
Ġsw iwi
Ġle uk
Ġpet ers
Ġpert andhingan
inc ang
Ġbut uh
Ġsud ut
Ġuw ab
Ġpant un
Ġreb o
ĠÃ¨ks ekutif
Ġstatist ika
Ġsump ah
Ġantoni o
Ġmonop onik
Ġlingu istik
d ia
Ġ Åį
Ġk uk
Ġi ch
er ek
Ġn erang
ur o
Ġj eff
Ġr abi
it ed
im al
Ġy ong
tr op
Ġpan ulisan
Ġdip isah
Ġtr in
Ġpar ad
ambar aken
Ġsab uk
Ġac tion
Ġngr ilis
Ġsang saya
Ġil Ã¨n
Ġmer api
Ġkons ep
Ġdid ad
Ġcoll ec
Ġvert ical
ĠÃ©n ak
l op
Ġi h
Ġt abung
en er
Ġn ahan
Ġj emb
it ter
et ika
Ġf ul
Ġh indh
Ġdi f
ia o
ac ap
Ġam az
ij k
umb ah
Ġfr ag
Ġmb al
Ġz e
ons tr
Ġdados aken
uwih i
Ġinter ior
Ġfor ce
ini um
lin ois
Ġca ir
Ġplat inum
Ġpurw okerto
Ġky oto
Ġkip er
Ġkonserv asi
Ġolym p
b el
b ars
f ik
å ħ
Ġn ark
ad es
Ġj ang
Ġj eblug
il er
Ġf ut
Ġf our
ed es
ari um
Ġbar Ã¨s
Ġmus uh
Ġkl ip
Ġpet rus
endh em
Ġkan al
Ġher man
Ġdep uti
Ġlaw rence
Ġmor al
Ġav i
Ġpingg iran
Ġprim Ã¨r
Ġgab ri
Ġgall ery
Ġza itun
Ġfol k
Ġperad aban
Ġpernik ahan
k r
is ih
Ġr embang
Ġr amanipun
Ġc ura
Ġf und
Ġh ut
Ġper um
Ġal so
anc y
Ġaw u
Ġe ar
Ġpam angk
ea xis
Ġbak ul
Ġtim eaxis
Ġtel ek
und er
Ġnov a
esi ze
emen i
Ġmad ras
Ġda un
Ġx x
tif y
Ġes ai
za ir
Ġex press
Ã¶ n
Ġbos ton
Ġcep u
Ġsaya p
utradara i
Ġtib et
Ġplot area
Ġsound track
Ġimag esize
Ġscalem ajor
Ñ Ī
Ġk andha
Ġt awar
Ġt inggal
Ġr in
Ġc ame
el ik
Ġf ord
awa y
ub engi
Ġkap utusan
Ġsal im
Ġbar on
Ġsad awan
Ġdib agi
Ġbl an
Ġinf o
Ġlu x
Ġkong o
ĠÃ¨n Ã¨rgi
Ġhad its
Ġpok Ã©mon
Ġhit ler
Ġsemp et
Ġkapern ahakÃ©
Ġngeng ingi
Ġotom atis
Ġk awi
Ġp est
Ġg ord
Ġj ombang
Ġr ick
Ġr oda
il ik
ag aran
uk on
si onal
Ġkap apat
Ġsp Ã¨si
Ġpang uripan
Ġsek ab
Ġngr as
ĠdÃ© p
Ġpel op
Ġil linois
Ġcil acap
Ġke adilan
Ġpur wa
Ġher itage
Ġprak tik
Ġsand iwara
Ġdong Ã¨ng
Ġkot ak
Ġstev en
Ġrup anÃ©
Ġketh Ã¨k
Ġlad y
Ġalign bars
Ġjeron Ã©
Ġbask et
Ġdikembang akÃ©
Ġsif at
Ġsabib aripun
omun ikasi
b asa
k n
u as
Ġk egi
Ġs angan
Ġd osa
Ġd etail
Ġm Ã¨n
Ġm ij
Ġl inc
Ġn utup
ad ya
Ġf Ã¨s
Ġdi ego
Ġkar ena
Ġst ie
Ġsur y
Ġker ajaan
Ġtel epon
Ġmak s
Ġkor ean
Ġmod Ã¨l
Ġwa e
Ġmenang aken
Ã¶ l
Ġpres ident
Ġmandh ap
Ġbor ne
Ġpendh udhuk
Ġmundh ut
Ġdiam eter
Ġturnam Ã¨n
Ġrump un
Ġpakary anipun
Ġanug erah
c op
f ah
f ish
m ik
y ut
Ġm omot
at ara
en h
ik ir
ur es
ep yakakÃ©
op o
Ġde ad
ef ormat
Ġpart y
Ġked ua
Ġkadh iri
Ġdat eformat
Ġinstit usi
Ġpenc ak
Ġfot ografi
k ol
n us
r ov
y g
Ġt ort
er ra
ik ulum
Ġg yeong
Ġf ra
og n
Ġas et
Ġind ustr
Ġst adhi
Ġny erah
Ġbal e
ill o
eh an
Ġkaw ula
Ġsem if
Ġmain akÃ©
Ġpet ern
Ġden pasar
Ġgal eri
