{"!":0,"\"":1,"#":2,"$":3,"%":4,"&":5,"'":6,"(":7,")":8,"*":9,"+":10,",":11,"-":12,".":13,"/":14,"0":15,"1":16,"2":17,"3":18,"4":19,"5":20,"6":21,"7":22,"8":23,"9":24,":":25,";":26,"<":27,"=":28,">":29,"?":30,"@":31,"A":32,"B":33,"C":34,"D":35,"E":36,"F":37,"G":38,"H":39,"I":40,"J":41,"K":42,"L":43,"M":44,"N":45,"O":46,"P":47,"Q":48,"R":49,"S":50,"T":51,"U":52,"V":53,"W":54,"X":55,"Y":56,"Z":57,"[":58,"\\":59,"]":60,"^":61,"_":62,"`":63,"a":64,"b":65,"c":66,"d":67,"e":68,"f":69,"g":70,"h":71,"i":72,"j":73,"k":74,"l":75,"m":76,"n":77,"o":78,"p":79,"q":80,"r":81,"s":82,"t":83,"u":84,"v":85,"w":86,"x":87,"y":88,"z":89,"{":90,"|":91,"}":92,"~":93,"¡":94,"¢":95,"£":96,"¤":97,"¥":98,"¦":99,"§":100,"¨":101,"©":102,"ª":103,"«":104,"¬":105,"®":106,"¯":107,"°":108,"±":109,"²":110,"³":111,"´":112,"µ":113,"¶":114,"·":115,"¸":116,"¹":117,"º":118,"»":119,"¼":120,"½":121,"¾":122,"¿":123,"À":124,"Á":125,"Â":126,"Ã":127,"Ä":128,"Å":129,"Æ":130,"Ç":131,"È":132,"É":133,"Ê":134,"Ë":135,"Ì":136,"Í":137,"Î":138,"Ï":139,"Ð":140,"Ñ":141,"Ò":142,"Ó":143,"Ô":144,"Õ":145,"Ö":146,"×":147,"Ø":148,"Ù":149,"Ú":150,"Û":151,"Ü":152,"Ý":153,"Þ":154,"ß":155,"à":156,"á":157,"â":158,"ã":159,"ä":160,"å":161,"æ":162,"ç":163,"è":164,"é":165,"ê":166,"ë":167,"ì":168,"í":169,"î":170,"ï":171,"ð":172,"ñ":173,"ò":174,"ó":175,"ô":176,"õ":177,"ö":178,"÷":179,"ø":180,"ù":181,"ú":182,"û":183,"ü":184,"ý":185,"þ":186,"ÿ":187,"Ā":188,"ā":189,"Ă":190,"ă":191,"Ą":192,"ą":193,"Ć":194,"ć":195,"Ĉ":196,"ĉ":197,"Ċ":198,"ċ":199,"Č":200,"č":201,"Ď":202,"ď":203,"Đ":204,"đ":205,"Ē":206,"ē":207,"Ĕ":208,"ĕ":209,"Ė":210,"ė":211,"Ę":212,"ę":213,"Ě":214,"ě":215,"Ĝ":216,"ĝ":217,"Ğ":218,"ğ":219,"Ġ":220,"ġ":221,"Ģ":222,"ģ":223,"Ĥ":224,"ĥ":225,"Ħ":226,"ħ":227,"Ĩ":228,"ĩ":229,"Ī":230,"ī":231,"Ĭ":232,"ĭ":233,"Į":234,"į":235,"İ":236,"ı":237,"Ĳ":238,"ĳ":239,"Ĵ":240,"ĵ":241,"Ķ":242,"ķ":243,"ĸ":244,"Ĺ":245,"ĺ":246,"Ļ":247,"ļ":248,"Ľ":249,"ľ":250,"Ŀ":251,"ŀ":252,"Ł":253,"ł":254,"Ń":255,"an":256,"ng":257,"Ġk":258,"Ġs":259,"Ġp":260,"ang":261,"ar":262,"Ġi":263,"Ġd":264,"Ã©":265,"Ġm":266,"ak":267,"al":268,"at":269,"Ġt":270,"Ġl":271,"Ġb":272,"er":273,"un":274,"en":275,"as":276,"am":277,"on":278,"Ġing":279,"in":280,"is":281,"ing":282,"Ġn":283,"ah":284,"Ġw":285,"ik":286,"or":287,"Ã¨":288,"ad":289,"aw":290,"ur":291,"Ġg":292,"Ġj":293,"Ġr":294,"it":295,"Ġc":296,"Ġlan":297,"em":298,"ut":299,"es":300,"il":301,"ip":302,"el":303,"ung":304,"us":305,"ul":306,"Ġkang":307,"ab":308,"et":309,"ya":310,"eng":311,"um":312,"ap":313,"ag":314,"Ġng":315,"ant":316,"Ġik":317,"Ġf":318,"dh":319,"uk":320,"eg":321,"ir":322,"ol":323,"si":324,"ipun":325,"Ġh":326,"Ġpr":327,"Ġdi":328,"ara":329,"ika":330,"Ġsak":331,"om":332,"ek":333,"os":334,"uw":335,"Ġan":336,"aj":337,"ia":338,"Ġkat":339,"Ġin":340,"ga":341,"eb":342,"ih":343,"ep":344,"ot":345,"angk":346,"Ġta":347,"Ġiku":348,"ok":349,"ac":350,"ori":351,"iy":352,"im":353,"awa":354,"akÃ©":355,"Ġu":356,"hi":357,"ong":358,"Ġdh":359,"ed":360,"Ã¨n":361,"angg":362,"ay":363,"asi":364,"Ã©n":365,"egori":366,"Ġkategori":367,"Ġsing":368,"kang":369,"amb":370,"Ġingkang":371,"Ġsaka":372,"Ġtaun":373,"id":374,"Ġkar":375,"Ġkal":376,"Ġkangg":377,"ud":378,"anÃ©":379,"ic":380,"and":381,"Ġpun":382,"Ġiki":383,"Ġut":384,"Ġo":385,"up":386,"angan":387,"Ġper":388,"og":389,"ont":390,"Ġmin":391,"emb":392,"Ġy":393,"art":394,"angka":395,"Ġal":396,"Ġdad":397,"asa":398,"ha":399,"Ġv":400,"tr":401,"aya":402,"Ġpunika":403,"Ġas":404,"uh":405,"Ġminangka":406,"op":407,"Ġkanggo":408,"Ġth":409,"Ġkant":410,"Ġya":411,"ent":412,"amp":413,"Ġind":414,"Ã¨k":415,"Ġam":416,"iw":417,"Ġkanthi":418,"Ġuga":419,"ij":420,"Ġor":421,"Ã©r":422,"Ġdipun":423,"Ġana":424,"ari":425,"sa":426,"ati":427,"ĠdÃ©n":428,"Ġak":429,"ig":430,"ub":431,"Ġdadi":432,"ani":433,"ew":434,"Ġutawa":435,"Ġkap":436,"ter":437,"aken":438,"uj":439,"Ġman":440,"Ġbis":441,"ama":442,"ra":443,"onten":444,"Ġsal":445,"ake":446,"ahan":447,"Ġpan":448,"od":449,"adh":450,"Ġindon":451,"Ã©si":452,"Ġnal":453,"Ġwonten":454,"ov":455,"Ġmar":456,"Ġthe":457,"Ġnalika":458,"Ġst":459,"Ġny":460,"Ġa":461,"ri":462,"Ġbisa":463,"Ã¨h":464,"Ġfil":465,"Ġsaw":466,"ana":467,"Ġar":468,"Ġkaro":469,"int":470,"ala":471,"ob":472,"ĠdÃ©ning":473,"atan":474,"Ġingg":475,"Ġbasa":476,"Ġpen":477,"gi":478,"Ġsaking":479,"Ġbar":480,"eneng":481,"Ġkab":482,"ec":483,"edh":484,"ina":485,"Ġsa":486,"Ġch":487,"Ġun":488,"Ġma":489,"Ġora":490,"Ġof":491,"ti":492,"isi":493,"Ġkut":494,"ata":495,"Ġmen":496,"Ġkr":497,"Ġban":498,"ungg":499,"oh":500,"ĠindonÃ©si":501,"anti":502,"Ġgr":503,"Ġnj":504,"ist":505,"Ġkas":506,"ĠindonÃ©sia":507,"Ġkutha":508,"Ġdip":509,"Ġis":510,"Ġwong":511,"Ġsaj":512,"Ġtr":513,"ch":514,"Ã¨w":515,"awi":516,"Ġmas":517,"onal":518,"andh":519,"Ġbal":520,"Ã¨l":521,"anc":522,"arga":523,"arta":524,"uku":525,"Ġab":526,"iwit":527,"ib":528,"Ġdig":529,"ath":530,"ug":531,"uwÃ©":532,"aran":533,"Ġaw":534,"Ġag":535,"anging":536,"Ġla":537,"aman":538,"ĠdhÃ¨w":539,"end":540,"Ã¨kÃ©":541,"Ġngg":542,"ers":543,"Ġwis":544,"na":545,"isan":546,"oc":547,"Ġsp":548,"ĠdhÃ¨wÃ¨kÃ©":549,"aling":550,"le":551,"Ġnanging":552,"Ġant":553,"ian":554,"asan":555,"iv":556,"Ġad":557,"iyan":558,"Ġpar":559,"Ġbab":560,"odh":561,"Ġdit":562,"Ġbr":563,"apan":564,"unung":565,"ard":566,"akakÃ©":567,"Ġinggih":568,"Ġmus":569,"ta":570,"ow":571,"Ġkul":572,"Ã¨r":573,"Ġpang":574,"Ġka":575,"Ġat":576,"umb":577,"Ġap":578,"Ġsat":579,"Ġfr":580,"Ã©w":581,"Ġjawa":582,"ĠduwÃ©":583,"ill":584,"Ġand":585,"est":586,"etan":587,"Ġdis":588,"uran":589,"Ġe":590,"inis":591,"Ġpam":592,"Ã©k":593,"ijin":594,"Ġkom":595,"tan":596,"awan":597,"Ġpas":598,"Ġmb":599,"Ġpad":600,"Ġber":601,"man":602,"Ġwiwit":603,"Ġsalah":604,"ukan":605,"ea":606,"if":607,"Ġfilem":608,"Ġnag":609,"Ġkaya":610,"aba":611,"Ġsar":612,"jur":613,"Ġkaliyan":614,"uc":615,"engk":616,"iji":617,"Ġmal":618,"Ġsek":619,"Ġjeneng":620,"emp":621,"Ã¨s":622,"Ġtangg":623,"Ġz":624,"ons":625,"Ġser":626,"Ġnd":627,"Ġkl":628,"Ġum":629,"ej":630,"aga":631,"Ġwar":632,"Ġdados":633,"Ġsan":634,"Ġput":635,"itas":636,"ind":637,"Ġpul":638,"olog":639,"ma":640,"anipun":641,"Ġteng":642,"Ġangg":643,"Ġsap":644,"Ġter":645,"uwur":646,"Ã©l":647,"Ġpx":648,"ita":649,"eh":650,"akarta":651,"atÃ¨n":652,"Ġkad":653,"Ġnganti":654,"ris":655,"ev":656,"awÃ©":657,"Ġsad":658,"angsa":659,"Ã©rangan":660,"Ġpiy":661,"Ġtanggal":662,"uru":663,"Ġpran":664,"Ġkabup":665,"Ġamarga":666,"Ġsh":667,"eron":668,"Ġsuku":669,"ĠkanggÃ©":670,"Ġpl":671,"Ġsur":672,"akan":673,"Ġpeng":674,"ujud":675,"ex":676,"Ġpaling":677,"Ġlor":678,"ambar":679,"ebu":680,"uwih":681,"Ġpiyamb":682,"Ġpir":683,"ert":684,"Ġol":685,"Ġpranala":686,"Ġjinis":687,"Ġsup":688,"ĠkabupatÃ¨n":689,"Ġde":690,"Ġcath":691,"Ġbak":692,"aha":693,"Ġsep":694,"Ġkac":695,"iyanÃ©":696,"Ġur":697,"anggo":698,"ey":699,"adi":700,"da":701,"ine":702,"ebut":703,"Ġres":704,"Ġir":705,"Ġli":706,"Ġwal":707,"Ġugi":708,"Ġluwih":709,"Ġbanjur":710,"Ġsawijin":711,"Ġsab":712,"Ġtim":713,"ungan":714,"aja":715,"Ġngl":716,"ell":717,"Ġpiyambak":718,"ai":719,"Ġdon":720,"Ġcathetan":721,"asional":722,"Ġpara":723,"Ġjp":724,"intang":725,"Ġac":726,"av":727,"Ġen":728,"Ġkid":729,"ikan":730,"iki":731,"Ġtemb":732,"Ġml":733,"Ġsatungg":734,"ef":735,"Ġsajeron":736,"Ġsiji":737,"Ġdan":738,"Ġjpg":739,"Ġnjaba":740,"Ġdik":741,"Ġii":742,"Ġsen":743,"ungk":744,"Ġsawijining":745,"Ġso":746,"Ġmau":747,"Ġsajeroning":748,"Ġsis":749,"Ġdum":750,"tu":751,"Ġnagara":752,"Ġsit":753,"ĠakÃ¨h":754,"ja":755,"Ġker":756,"ampun":757,"Ġkaw":758,"Ġsag":759,"Ġgedh":760,"Ġses":761,"Ġart":762,"Ġkidul":763,"Ġtan":764,"anan":765,"anda":766,"Ġcar":767,"adhah":768,"ort":769,"ami":770,"qu":771,"uhan":772,"Ġdr":773,"Ġtel":774,"Ġsas":775,"mi":776,"Ġlair":777,"Ġfilm":778,"st":779,"arah":780,"inÃ©":781,"uan":782,"unan":783,"ologi":784,"Ġgambar":785,"ula":786,"Ġruj":787,"Ġning":788,"yan":789,"eri":790,"Ġnganggo":791,"Ġmit":792,"Ġjam":793,"of":794,"Ġtek":795,"ĠamÃ©r":796,"agan":797,"Ġrujukan":798,"und":799,"ĠrÃ©":800,"oy":801,"esia":802,"tor":803,"Ġpapan":804,"Ġinggris":805,"Ã©ng":806,"amel":807,"Ġdib":808,"ust":809,"Ġbot":810,"Ġwew":811,"Ġprov":812,"Ġbi":813,"Ġgadhah":814,"Ġwujud":815,"Ġbl":816,"Ġkaping":817,"Ġdonya":818,"itik":819,"ajeng":820,"Ġsw":821,"Ġsem":822,"oni":823,"Ã©nt":824,"ember":825,"Ġtengah":826,"ast":827,"Ġinter":828,"Ġkep":829,"Ġutawi":830,"yang":831,"Ġpangg":832,"Ġjer":833,"Ġngr":834,"ie":835,"ĠpÃ©rangan":836,"Ġpol":837,"unakakÃ©":838,"ilih":839,"Ġpem":840,"asar":841,"Ġsawis":842,"Ġuniv":843,"urung":844,"Ġgar":845,"Ġmarang":846,"insi":847,"omb":848,"alan":849,"Ġmis":850,"ern":851,"Ġuk":852,"Ġwat":853,"orm":854,"Ġmak":855,"ond":856,"Ġsel":857,"ĠwÃ©":858,"adan":859,"Ġpangan":860,"ump":861,"Ġpiyambakipun":862,"tur":863,"Ġunivers":864,"Ġkel":865,"Ġindonesia":866,"ota":867,"Ġket":868,"ĠyÃ¨n":869,"one":870,"ans":871,"ĠliyanÃ©":872,"Ġsaged":873,"ingan":874,"Ġbabagan":875,"ord":876,"ĠdÃ©nÃ©":877,"li":878,"Ġdir":879,"Ġmain":880,"ajan":881,"Ġprovinsi":882,"imp":883,"Ġtex":884,"ingk":885,"Ġsang":886,"Ġtet":887,"Ġdel":888,"fi":889,"ahÃ©":890,"Ġkalebu":891,"ber":892,"Ã¨ng":893,"ateng":894,"urut":895,"Ġto":896,"Ġtok":897,"embang":898,"ada":899,"Ġpanj":900,"Ġwek":901,"ess":902,"Ġcom":903,"iwa":904,"sih":905,"Ġtembung":906,"Ġsisih":907,"ancis":908,"Ġnov":909,"epang":910,"ane":911,"Ġtext":912,"Ã¨m":913,"Ġgol":914,"imb":915,"aka":916,"Ġbud":917,"olah":918,"Ġle":919,"ka":920,"Ġit":921,"ĠwÃ©tan":922,"Ġbeb":923,"ĠsawisÃ©":924,"Ġkag":925,"ĠdÃ©":926,"Ġob":927,"Ġlum":928,"ura":929,"ulan":930,"Ġok":931,"lat":932,"re":933,"engkon":934,"esi":935,"Ġpanganan":936,"indh":937,"iku":938,"Ġtuw":939,"Ġboten":940,"akake":941,"lam":942,"uari":943,"yu":944,"Ġmac":945,"Ġdiw":946,"Ġpel":947,"ikah":948,"Ġtum":949,"Ġwewengkon":950,"angs":951,"Ġkur":952,"Ġbat":953,"Ġasal":954,"uksi":955,"alia":956,"Ġkh":957,"Ġlag":958,"ebet":959,"Ġku":960,"enc":961,"ation":962,"ongan":963,"ulis":964,"ali":965,"Ġsampun":966,"ingg":967,"Ġnasional":968,"Ġjakarta":969,"Ġpulo":970,"Ġil":971,"Ġteg":972,"una":973,"Ġneg":974,"udh":975,"Ġtin":976,"Ġgl":977,"ht":978,"Ġkomp":979,"Ġkor":980,"Ġumum":981,"Ġpadha":982,"Ġbo":983,"Ġus":984,"arani":985,"Ġmr":986,"Ġmiturut":987,"ayu":988,"Ġpet":989,"Ġkam":990,"ira":991,"Ġgunung":992,"ity":993,"Ġpert":994,"all":995,"Ġmenyang":996,"engan":997,"uni":998,"akaken":999,"Ġdag":1000,"Ġmil":1001,"Ã¨t":1002,"Ġkm":1003,"Ġsm":1004,"wa":1005,"Ġjuru":1006,"Ġim":1007,"Ġkulon":1008,"Ġlal":1009,"Ġjepang":1010,"Ġtil":1011,"asil":1012,"land":1013,"unt":1014,"Ġib":1015,"Ġintern":1016,"Ġpat":1017,"tra":1018,"Ġseg":1019,"Ġmer":1020,"Ġnom":1021,"Ġmat":1022,"Ġcil":1023,"utan":1024,"amatan":1025,"ĠgedhÃ©":1026,"arak":1027,"uli":1028,"Ġwit":1029,"Ġnat":1030,"ĠdhÃ©w":1031,"Ġdic":1032,"au":1033,"ua":1034,"Ġmangsa":1035,"Ġel":1036,"Ġbahan":1037,"Ġsitus":1038,"ft":1039,"Ġden":1040,"Ġno":1041,"Ã©s":1042,"Ã©nÃ©":1043,"Ġlintang":1044,"Ġpa":1045,"Ġsam":1046,"Ġsekolah":1047,"Ã©kat":1048,"Ġurip":1049,"Ġpak":1050,"emen":1051,"ono":1052,"onom":1053,"Ġsaiki":1054,"Ġalb":1055,"Ġcac":1056,"ĠdÃ©sa":1057,"Ġmah":1058,"Ġcr":1059,"Ġkeb":1060,"Ġyaiku":1061,"ubl":1062,"ustr":1063,"Ġset":1064,"Ġul":1065,"Ġsum":1066,"Ġmad":1067,"Ġke":1068,"Ġpal":1069,"erb":1070,"gan":1071,"Ġwalanda":1072,"ni":1073,"awis":1074,"Ġon":1075,"Ġsaben":1076,"iyang":1077,"ahi":1078,"ogra":1079,"ĠsarÃ©kat":1080,"Ġwarna":1081,"usi":1082,"iri":1083,"Ġmet":1084,"Ġperang":1085,"Ġresmi":1086,"Ġfor":1087,"Ġpi":1088,"Ġmung":1089,"uri":1090,"amil":1091,"Ġbakal":1092,"Ġlaladan":1093,"ou":1094,"Ġsc":1095,"Ġsaha":1096,"eks":1097,"Ġmant":1098,"ĠamÃ©rikah":1099,"Ġdaging":1100,"eni":1101,"Ġtul":1102,"ogr":1103,"Ġop":1104,"mu":1105,"ring":1106,"Ġprat":1107,"ĠmÃ¨":1108,"Ġdhuwur":1109,"Ġfrom":1110,"any":1111,"Ġkem":1112,"onan":1113,"Ġtiyang":1114,"Ġkons":1115,"Ġstr":1116,"Ġjaman":1117,"Ġsajarah":1118,"Ġpanjeneng":1119,"Ġpers":1120,"fer":1121,"Ġpamar":1122,"Ġdiarani":1123,"Ã©m":1124,"Ġkasebut":1125,"Ġgel":1126,"Ġkarya":1127,"ĠdhÃ©wÃ©":1128,"emu":1129,"Ġcilik":1130,"Ġbang":1131,"Ġkali":1132,"Ġdina":1133,"Ġsin":1134,"ena":1135,"Ġanak":1136,"ich":1137,"Ġjan":1138,"Ġmusik":1139,"Ġlangk":1140,"Ġcara":1141,"ne":1142,"usan":1143,"Ġsatunggaling":1144,"Ġph":1145,"Ġup":1146,"ain":1147,"ikel":1148,"yar":1149,"Ġsk":1150,"Ġnew":1151,"Ġutama":1152,"Ġpungk":1153,"udi":1154,"engen":1155,"ro":1156,"Ġkacamatan":1157,"Ġair":1158,"Ġdil":1159,"awe":1160,"Ġkon":1161,"Ġabad":1162,"Ġcl":1163,"Ã¨ni":1164,"uhakÃ©":1165,"aranÃ©":1166,"Ġkes":1167,"Ġteges":1168,"ografi":1169,"Ġsul":1170,"Ġpend":1171,"Ġtokoh":1172,"jo":1173,"Ġbanyu":1174,"Ġcol":1175,"Ġkados":1176,"Ġda":1177,"Ġmed":1178,"era":1179,"Ġang":1180,"ens":1181,"Ġpap":1182,"Ġdid":1183,"Ġfl":1184,"eae":1185,"Ġtur":1186,"Ġuniversitas":1187,"ze":1188,"endh":1189,"Ġprancis":1190,"Ġco":1191,"Ġpart":1192,"Ġraja":1193,"itan":1194,"Ã©lan":1195,"Ġmisuwur":1196,"ambang":1197,"age":1198,"Ġanggota":1199,"isanan":1200,"ight":1201,"Ġkol":1202,"Ġre":1203,"ensi":1204,"Ġkak":1205,"Ġse":1206,"Ġband":1207,"ĠpamarÃ©nt":1208,"Ġtak":1209,"inten":1210,"ki":1211,"angun":1212,"uta":1213,"Ġlangkung":1214,"ue":1215,"Ġkan":1216,"Ġkuw":1217,"Ġasring":1218,"istem":1219,"Ġlajeng":1220,"ĠpratÃ©lan":1221,"Ġsy":1222,"Ġjerman":1223,"Ġbuku":1224,"ados":1225,"me":1226,"Ġwektu":1227,"Ġaf":1228,"Ġislam":1229,"Ġnam":1230,"Ġmanung":1231,"ini":1232,"ober":1233,"Ġrom":1234,"ack":1235,"son":1236,"Ġpos":1237,"Ġsadurung":1238,"Ġisih":1239,"jan":1240,"Ġmanungsa":1241,"ima":1242,"Ã¨mber":1243,"Ġliya":1244,"Ġkath":1245,"Ġlel":1246,"alis":1247,"Ġom":1248,"Ġid":1249,"arang":1250,"ĠdigawÃ©":1251,"Ġmes":1252,"Ġaward":1253,"Ġed":1254,"Ġsi":1255,"Ġamer":1256,"ĠsanÃ¨s":1257,"ida":1258,"Ġhar":1259,"Ġem":1260,"tober":1261,"Ã©da":1262,"Ġx":1263,"onÃ©":1264,"ry":1265,"Ġsik":1266,"argi":1267,"ate":1268,"Ġamb":1269,"udu":1270,"Ġsr":1271,"ĠmanÃ¨h":1272,"ish":1273,"Ġbalan":1274,"ion":1275,"Ġsistem":1276,"Ġpop":1277,"Ġartikel":1278,"ĠkabÃ¨h":1279,"Ġmel":1280,"ola":1281,"Ġjuni":1282,"arakat":1283,"angi":1284,"eran":1285,"Ġdal":1286,"Ġoktober":1287,"iran":1288,"lah":1289,"Ġlem":1290,"ayang":1291,"Ġsuk":1292,"Ġdipr":1293,"atu":1294,"ode":1295,"Ġinf":1296,"Ġmawa":1297,"enal":1298,"Ġdelengen":1299,"iwiti":1300,"Ġkulaw":1301,"awang":1302,"Ġlat":1303,"pun":1304,"Ġpungkasan":1305,"dhÃ¨n":1306,"Ġtv":1307,"Ġkathah":1308,"Ġah":1309,"Ġwad":1310,"pa":1311,"Ġamargi":1312,"mad":1313,"ica":1314,"Ġrak":1315,"Ġaks":1316,"Ġmag":1317,"Ġrum":1318,"Ġsupaya":1319,"inc":1320,"Ġfamil":1321,"Ġpes":1322,"Ġshi":1323,"Ã¨nsi":1324,"Ġdhateng":1325,"Ġer":1326,"Ġjuli":1327,"Ġti":1328,"Ġpik":1329,"Ġdes":1330,"Ġdipunp":1331,"uka":1332,"Ġtah":1333,"odhuksi":1334,"Ġdipuns":1335,"ampung":1336,"Ġjoh":1337,"Ġpag":1338,"Ġmon":1339,"ril":1340,"Ġkaj":1341,"Ġmaret":1342,"Ġreg":1343,"antos":1344,"Ġtau":1345,"okakÃ©":1346,"aksi":1347,"Ġsub":1348,"Ġkun":1349,"Ã©wan":1350,"Ġsumb":1351,"Ġprof":1352,"Ġukuran":1353,"onomi":1354,"Ġalbum":1355,"ĠantaranÃ©":1356,"Ġndh":1357,"Ġvi":1358,"ublik":1359,"Ġgu":1360,"Ġgodh":1361,"Ġud":1362,"unÃ©":1363,"Ġapik":1364,"ambah":1365,"Ġlagu":1366,"wak":1367,"Ġtrans":1368,"ogy":1369,"Ġsarta":1370,"Ġnama":1371,"ach":1372,"ĠÃ©r":1373,"Ġmul":1374,"ton":1375,"ĠprÃ©si":1376,"Ġwoh":1377,"Ġked":1378,"inan":1379,"Ġklub":1380,"inipun":1381,"Ġdew":1382,"Ġprod":1383,"ayan":1384,"umi":1385,"engg":1386,"Ġsatunggal":1387,"Ġtlat":1388,"tiv":1389,"Ġkalih":1390,"oj":1391,"Ġfont":1392,"Ð°":1393,"Ġaj":1394,"Ġtill":1395,"embar":1396,"Ġjar":1397,"Ġdumunung":1398,"Ġmot":1399,"Ġpur":1400,"ark":1401,"Ġdij":1402,"Ġloro":1403,"Ġrot":1404,"ogyakarta":1405,"Ġgal":1406,"Ġtlatah":1407,"Ġben":1408,"Ġpiranti":1409,"ora":1410,"ĠsadurungÃ©":1411,"Ġmasarakat":1412,"Ġba":1413,"ial":1414,"Ã¨b":1415,"osi":1416,"Ġmaj":1417,"ĠgawÃ©":1418,"Ġbudaya":1419,"ugi":1420,"Ġrus":1421,"Ġadh":1422,"th":1423,"Ġkit":1424,"Ġputih":1425,"arengan":1426,"ĠnggunakakÃ©":1427,"ĠprÃ©sidhÃ¨n":1428,"Ġbas":1429,"ogram":1430,"ice":1431,"Ġtaman":1432,"Ġdipunt":1433,"isor":1434,"Ġpus":1435,"ĠkÃ©wan":1436,"Ġbel":1437,"opah":1438,"Ġbali":1439,"Ġkek":1440,"Ġjal":1441,"Ġwil":1442,"Ġsus":1443,"ikasi":1444,"pr":1445,"Ġlumr":1446,"our":1447,"Ġarab":1448,"ick":1449,"Ġsastra":1450,"Ġagust":1451,"Ġtilpun":1452,"Ġkulawarga":1453,"Ġcina":1454,"yi":1455,"Ġrad":1456,"Ġjanuari":1457,"lin":1458,"apa":1459,"nik":1460,"Ġasia":1461,"Ġaksara":1462,"Ġge":1463,"Ġiii":1464,"Ġbanget":1465,"Ġorgan":1466,"Ġapril":1467,"ary":1468,"dhang":1469,"ĠÃ©k":1470,"oto":1471,"dhi":1472,"Ġindia":1473,"Ø§":1474,"unakake":1475,"arajan":1476,"Ġver":1477,"rat":1478,"Ġngandh":1479,"Ġpros":1480,"Ġdhew":1481,"Ġagama":1482,"Ġdin":1483,"Ġagustus":1484,"Ġgodhong":1485,"Ġpit":1486,"Ġgen":1487,"iyos":1488,"af":1489,"Ġpirang":1490,"ge":1491,"Ġmir":1492,"Ġwor":1493,"ĠÃ©ropah":1494,"anggep":1495,"Ġjiwa":1496,"Ġcandh":1497,"Ġprogram":1498,"aks":1499,"Ġri":1500,"alah":1501,"Ġmod":1502,"igi":1503,"Ġpemb":1504,"atif":1505,"Ġnegeri":1506,"ite":1507,"oro":1508,"Ġot":1509,"rap":1510,"Ġsir":1511,"Ġgeg":1512,"Ġlar":1513,"Ġsch":1514,"dal":1515,"Ġbe":1516,"Ġageng":1517,"aku":1518,"pl":1519,"size":1520,"ory":1521,"Ġinternasional":1522,"Ġaustr":1523,"Ġmacem":1524,"Ġfontsize":1525,"Ġdamel":1526,"entuk":1527,"Ġweb":1528,"ĠsapÃ©rangan":1529,"Ã¨kakÃ©":1530,"Ġanyar":1531,"iti":1532,"Ġantawis":1533,"ho":1534,"Ġsl":1535,"Ġsed":1536,"Ġiwak":1537,"Ġmangg":1538,"ĠÐ":1539,"Ġitalia":1540,"Ġpulitik":1541,"Ġwan":1542,"Ġko":1543,"Ġseni":1544,"Ġhe":1545,"tif":1546,"tember":1547,"ampil":1548,"unggal":1549,"Ġkim":1550,"eral":1551,"Ġmo":1552,"Ġseb":1553,"Ġcal":1554,"andha":1555,"ins":1556,"ational":1557,"Ġes":1558,"Ġumur":1559,"Ġos":1560,"eth":1561,"Ġsijin":1562,"Ġq":1563,"Ãª":1564,"Ġangka":1565,"Ġrong":1566,"ĠnatÃ©":1567,"Ġsu":1568,"une":1569,"Ġdening":1570,"Ġlap":1571,"Ġcamp":1572,"za":1573,"Ġmig":1574,"Ġkrajan":1575,"Ġbangsa":1576,"uth":1577,"Ġmur":1578,"Ġdiprodhuksi":1579,"ê¦":1580,"angga":1581,"ene":1582,"ĠlumrahÃ©":1583,"erasi":1584,"Ġme":1585,"ingkat":1586,"Ġkembang":1587,"yat":1588,"ide":1589,"Ġshift":1590,"Ã©t":1591,"Ġpopul":1592,"ass":1593,"rah":1594,"erat":1595,"rop":1596,"yl":1597,"abar":1598,"ikat":1599,"Ġsikil":1600,"urg":1601,"Ġbap":1602,"eke":1603,"Ġjohn":1604,"omp":1605,"ĠrÃ©fer":1606,"Ġrob":1607,"ĠdhÃ©s":1608,"Ġkudu":1609,"Ġboc":1610,"Ġpisanan":1611,"Ġkec":1612,"ca":1613,"ean":1614,"ony":1615,"ĠdhÃ©sÃ¨mber":1616,"Ġmm":1617,"ld":1618,"ĠmÃ¨i":1619,"Ġyang":1620,"enter":1621,"Ġwulan":1622,"Ġmangk":1623,"jung":1624,"ĠsÃ¨":1625,"ebat":1626,"Ġalam":1627,"ĠamÃ©rika":1628,"ore":1629,"kas":1630,"lan":1631,"Ã¡":1632,"Ġkej":1633,"Ġha":1634,"Ġnovember":1635,"Ã¼":1636,"inta":1637,"ith":1638,"Ġsumber":1639,"ock":1640,"sia":1641,"Ġbiy":1642,"inal":1643,"Ġcacah":1644,"Ġsun":1645,"ĠsaliyanÃ©":1646,"ingi":1647,"Ġwig":1648,"ruari":1649,"Ġpama":1650,"Ġleg":1651,"Ã©a":1652,"Ġprab":1653,"Ġrac":1654,"ame":1655,"Ġnomer":1656,"Ġnamung":1657,"ier":1658,"Ġlay":1659,"unani":1660,"Ġte":1661,"Ġpanas":1662,"Ġdar":1663,"Ġqu":1664,"Ġlok":1665,"Ġref":1666,"Ġpany":1667,"Ġmanawi":1668,"Ġawak":1669,"Ġsil":1670,"aceae":1671,"Ġfak":1672,"ann":1673,"Ġcont":1674,"isasi":1675,"Ġcandhi":1676,"Ġist":1677,"aton":1678,"der":1679,"Ġlemb":1680,"Ġay":1681,"Ġkont":1682,"Ã©ngga":1683,"Ġafr":1684,"Ġsma":1685,"Ġpin":1686,"Ġmantri":1687,"Ġher":1688,"abung":1689,"su":1690,"Ġwa":1691,"ona":1692,"Ġdikenal":1693,"inakaken":1694,"Ġseptember":1695,"ĠsaÃ©ngga":1696,"Ġger":1697,"abr":1698,"Ġmasakan":1699,"Ġyogyakarta":1700,"Ġbocah":1701,"les":1702,"Ġbu":1703,"jid":1704,"ult":1705,"Ġsanajan":1706,"upuk":1707,"Ġbin":1708,"di":1709,"Ġacara":1710,"Ġkarajan":1711,"ash":1712,"edhasar":1713,"trik":1714,"Ġduw":1715,"isir":1716,"zi":1717,"Ġputra":1718,"ĠtegesÃ©":1719,"Ġomah":1720,"Ã¨hi":1721,"isional":1722,"Ġsumat":1723,"usaha":1724,"Ġpamain":1725,"Ġgor":1726,"ly":1727,"Ġsesamb":1728,"ĠrÃ©ferÃ¨nsi":1729,"Ġkasil":1730,"Ġham":1731,"ĠsanÃ¨sipun":1732,"Ã©an":1733,"ĠpartÃ©":1734,"Ġdim":1735,"Ġprot":1736,"Ġparaga":1737,"Ġwer":1738,"Ġgo":1739,"Ġpamb":1740,"Ã©ja":1741,"Ġdumugi":1742,"Ġkir":1743,"ment":1744,"Ġkadh":1745,"Ġpanjenenganipun":1746,"orn":1747,"Ġval":1748,"ĠolÃ¨h":1749,"Ġliga":1750,"Ð¾":1751,"Ġpaw":1752,"ĠspÃ©si":1753,"ĠkorÃ©a":1754,"ire":1755,"Ġbintang":1756,"Ġworld":1757,"Ġet":1758,"sp":1759,"Ġlaut":1760,"Ġsegara":1761,"kan":1762,"Ġwak":1763,"ino":1764,"te":1765,"tron":1766,"Ġmasjid":1767,"uda":1768,"Ġputri":1769,"Ġroti":1770,"Ġmula":1771,"oan":1772,"Ġkanc":1773,"Ġex":1774,"bo":1775,"Ġkay":1776,"Ã¥":1777,"Ġsip":1778,"Ġrep":1779,"unc":1780,"Ġprak":1781,"Ġrasa":1782,"Ġkalebet":1783,"Ġjaringan":1784,"akoni":1785,"Ġjembar":1786,"Ġgrup":1787,"Ġro":1788,"Ġfamily":1789,"Ġyunani":1790,"Ġangk":1791,"gal":1792,"Ġmi":1793,"esan":1794,"ammad":1795,"Ġsuw":1796,"ost":1797,"Ġthumb":1798,"imbang":1799,"Ġkurang":1800,"Ã©rang":1801,"Ġjag":1802,"utr":1803,"Ġpiala":1804,"sial":1805,"Ġmont":1806,"Ġtom":1807,"Ġbag":1808,"Ġtot":1809,"sk":1810,"anten":1811,"Ġsesambungan":1812,"Ġdheweke":1813,"Åį":1814,"isme":1815,"Ã¨lmu":1816,"uju":1817,"iman":1818,"Ġabang":1819,"Ġju":1820,"ve":1821,"Ã³":1822,"Ġkulit":1823,"iyah":1824,"Ġbir":1825,"Ġstat":1826,"Ġbest":1827,"Ġmuh":1828,"Ġmanawa":1829,"Ġngisor":1830,"Ġby":1831,"osa":1832,"ork":1833,"Ġdol":1834,"Ġkira":1835,"ium":1836,"nis":1837,"unungi":1838,"epung":1839,"ank":1840,"ji":1841,"abat":1842,"Ġtanpa":1843,"Ġpanggonan":1844,"Ġtulisan":1845,"ph":1846,"Ġkodh":1847,"Ġdep":1848,"Ġwigati":1849,"Ġsami":1850,"Ġbur":1851,"eme":1852,"Ġkarir":1853,"Ġcer":1854,"ĠmanÃ©":1855,"aki":1856,"ver":1857,"eum":1858,"yanyi":1859,"ebar":1860,"no":1861,"yah":1862,"Ġwill":1863,"ĠasalÃ©":1864,"acara":1865,"Ġngantos":1866,"arep":1867,"asti":1868,"ampa":1869,"Ġstand":1870,"antan":1871,"ayah":1872,"eta":1873,"ĠsijinÃ©":1874,"Ġbuk":1875,"inasi":1876,"Ġkawan":1877,"olusi":1878,"iyatan":1879,"ampunipun":1880,"Ġcarita":1881,"ulu":1882,"Ã©wa":1883,"ase":1884,"Ã¨nÃ¨hi":1885,"Ġlim":1886,"asane":1887,"sh":1888,"Ġpusat":1889,"aris":1890,"Ġow":1891,"Ġkop":1892,"ukum":1893,"Ġsawat":1894,"ance":1895,"Ġndunungi":1896,"Ã©d":1897,"Ġpo":1898,"Ġra":1899,"Ġyuta":1900,"ĠbÃ©da":1901,"Ġtug":1902,"Ġrasi":1903,"Ġtuwuhan":1904,"Ġjur":1905,"Ġsej":1906,"rit":1907,"Ġgelar":1908,"ĠrÃ©p":1909,"Ġawit":1910,"Ġbob":1911,"ten":1912,"Ġvan":1913,"Ġbay":1914,"Ġmalih":1915,"ke":1916,"Ġsawet":1917,"iyane":1918,"anyol":1919,"ual":1920,"Ġne":1921,"Ġras":1922,"Ġdipund":1923,"Ã¨bruari":1924,"Ġkayu":1925,"ilah":1926,"Ġdo":1927,"co":1928,"sÃ¨l":1929,"ĠpamarÃ©ntahan":1930,"Ġtekan":1931,"entr":1932,"Ġpu":1933,"Ġdhasar":1934,"Ġpasisir":1935,"ĠpunsÃ¨l":1936,"Ġcek":1937,"Ġafrika":1938,"Ġep":1939,"ron":1940,"Ġendh":1941,"Ġsasi":1942,"ff":1943,"Ġratu":1944,"Ġpenyanyi":1945,"ĠfÃ¨bruari":1946,"ÙĦ":1947,"uter":1948,"ĠkawanuhakÃ©":1949,"nam":1950,"tion":1951,"Ġdigawe":1952,"ĠmanÃ©ka":1953,"Ġram":1954,"Ġlu":1955,"chi":1956,"Ġmenika":1957,"Ġlang":1958,"Ġhist":1959,"ĠÃ©konomi":1960,"ĠspÃ©sies":1961,"Ġpras":1962,"angkat":1963,"per":1964,"ĠgrÃ©ja":1965,"Ġkalim":1966,"Ġcinta":1967,"lo":1968,"dhikan":1969,"Ġmligi":1970,"Ġtop":1971,"Ġspanyol":1972,"bn":1973,"Ġiv":1974,"inggi":1975,"ãĥ":1976,"emi":1977,"eda":1978,"Ġkuwi":1979,"Ġantawisipun":1980,"Ġunit":1981,"Ġbadh":1982,"Ġwayang":1983,"Ġdigunakake":1984,"Ġbebarengan":1985,"Ġrata":1986,"iss":1987,"Ġho":1988,"Ġstudi":1989,"Ġtinemu":1990,"by":1991,"Ġpand":1992,"Ġmic":1993,"Ġgram":1994,"Ġcon":1995,"Ġtrad":1996,"Ġmiwiti":1997,"Ġpe":1998,"Ġdawa":1999,"Ġwekdal":2000,"Ġgolongan":2001,"Ġpep":2002,"atur":2003,"Ġtar":2004,"Ġtumrap":2005,"Ġox":2006,"Ġperk":2007,"antu":2008,"Ð¸":2009,"Ã¸":2010,"ero":2011,"Ġlaw":2012,"ungah":2013,"ambut":2014,"aria":2015,"Ġget":2016,"ical":2017,"Ġbumi":2018,"Ġversi":2019,"Ġpt":2020,"Ġkapisan":2021,"Ġken":2022,"Ġdipunw":2023,"ĠpamarÃ©ntah":2024,"ĠrÃ©publik":2025,"ĠjenengÃ©":2026,"usahaan":2027,"Ġmang":2028,"Ġdalan":2029,"Ġna":2030,"Ġmy":2031,"kÃ©":2032,"Ġbilih":2033,"antung":2034,"Ġsamp":2035,"Ġdun":2036,"ley":2037,"Ġsawetara":2038,"Ġeks":2039,"Ġmlebu":2040,"Ġchar":2041,"Ġmay":2042,"Ġdari":2043,"Ġsasampunipun":2044,"ĠsÃ¨ri":2045,"Ġnas":2046,"ba":2047,"Ġdinten":2048,"ee":2049,"ies":2050,"undh":2051,"Ġjum":2052,"Ġmapan":2053,"Ġkacang":2054,"Ġgula":2055,"Ġtradh":2056,"Ġport":2057,"Ġmart":2058,"Ġpasar":2059,"Ġwh":2060,"egana":2061,"Ġliyane":2062,"ili":2063,"ics":2064,"ju":2065,"Ġrakyat":2066,"Ġpati":2067,"Ġmodh":2068,"Ġnagari":2069,"ny":2070,"Ġagung":2071,"enth":2072,"Ġngen":2073,"Ġmuhammad":2074,"ÑĢ":2075,"Ġlemah":2076,"Ġwanita":2077,"Ġpot":2078,"Ġmenang":2079,"udhul":2080,"Ġmu":2081,"Ġsemarang":2082,"Ġalas":2083,"Ġnduw":2084,"Ġpeny":2085,"Ġkala":2086,"Ġvari":2087,"dhidhikan":2088,"Ġanggegana":2089,"Ġswara":2090,"ade":2091,"iling":2092,"are":2093,"Ġdav":2094,"ĠnggawÃ©":2095,"ĠØ§":2096,"Ġnok":2097,"Ġisbn":2098,"ĠnduwÃ©":2099,"ner":2100,"yo":2101,"Äģ":2102,"Ġtanah":2103,"own":2104,"la":2105,"Ġmalay":2106,"gr":2107,"Ġjudhul":2108,"ilis":2109,"Ġdumadi":2110,"antuk":2111,"unika":2112,"iwat":2113,"agi":2114,"Ã¨lu":2115,"Ġtinimbang":2116,"Ġguru":2117,"eck":2118,"Ġolahan":2119,"Ġbarat":2120,"Ġtimur":2121,"Ġnar":2122,"Ġfo":2123,"Ġpanc":2124,"Ġkelas":2125,"eka":2126,"Ġbebungah":2127,"lu":2128,"Ġapa":2129,"Ġhak":2130,"usun":2131,"Ġvir":2132,"ence":2133,"Ġaktor":2134,"Ã¶":2135,"Ġkalimantan":2136,"Ġkondhang":2137,"iko":2138,"Ġjog":2139,"Ġinform":2140,"jar":2141,"uy":2142,"ester":2143,"Ġireng":2144,"Ġvol":2145,"Ġtaksih":2146,"ĠmÃ¨lu":2147,"Ġwerna":2148,"to":2149,"Ġend":2150,"idikan":2151,"Ġbiasane":2152,"Ġwatu":2153,"Ġijo":2154,"erang":2155,"Ġngal":2156,"Ġfakult":2157,"Ġnus":2158,"Ġwarga":2159,"dha":2160,"edi":2161,"ente":2162,"Ġbawang":2163,"Ġperusahaan":2164,"Ġnokia":2165,"Ġsawatara":2166,"Ġnjawi":2167,"Ġdianggep":2168,"ongk":2169,"Ġparis":2170,"Ġngasil":2171,"Ġsapunika":2172,"Ġkadad":2173,"Ġtotal":2174,"lim":2175,"oth":2176,"Ġabd":2177,"Ġbandung":2178,"ĠbadhÃ©":2179,"Ġsd":2180,"Ġmor":2181,"Ġsay":2182,"Ġliwat":2183,"visi":2184,"Ġradi":2185,"Ġmilit":2186,"erah":2187,"ulus":2188,"engi":2189,"aten":2190,"Ġuniversity":2191,"sel":2192,"Ġamerika":2193,"ĠdÃ©wa":2194,"Ġsuper":2195,"Ġpunj":2196,"Ã¨ks":2197,"Ġfakultas":2198,"Ġlanang":2199,"Ġahli":2200,"Ġkrama":2201,"anjur":2202,"ker":2203,"Ġyo":2204,"ila":2205,"Ġhal":2206,"Ġcm":2207,"Ġfis":2208,"ace":2209,"Ġpabr":2210,"Ġlib":2211,"Ġrefer":2212,"Ġten":2213,"Ġwadon":2214,"ator":2215,"ret":2216,"Ġrik":2217,"Ġpikantuk":2218,"Ġbarang":2219,"Ġcor":2220,"Ã©h":2221,"awat":2222,"ilan":2223,"Ġmotor":2224,"eph":2225,"Ġform":2226,"tar":2227,"Ġjos":2228,"Ġraya":2229,"anto":2230,"iya":2231,"abaya":2232,"Ġhol":2233,"ĠpanjenenganÃ©":2234,"ican":2235,"Ġsol":2236,"Ġtingkat":2237,"ĠmÃ¨ter":2238,"ĠracakÃ©":2239,"se":2240,"Ġgag":2241,"idae":2242,"Ġcat":2243,"Ġantara":2244,"Ġbes":2245,"Ġtinggi":2246,"unj":2247,"Ġbad":2248,"Ġasem":2249,"Ġkapul":2250,"Ġdem":2251,"ĠtÃ©":2252,"Ã¨d":2253,"Ġfung":2254,"ela":2255,"Ġmanuk":2256,"Ġnjal":2257,"Ġars":2258,"Ġca":2259,"utup":2260,"ompok":2261,"ogan":2262,"Ġserat":2263,"Ġwith":2264,"Ġki":2265,"Ġtandha":2266,"Ġlab":2267,"Ġhukum":2268,"Ġawal":2269,"Ġkerep":2270,"Ġinst":2271,"Ġadm":2272,"Ġsina":2273,"Ġdhum":2274,"Ġmp":2275,"Ġcity":2276,"Ġwakil":2277,"Ġkuna":2278,"ars":2279,"Ġhid":2280,"Ġpek":2281,"Ġendhog":2282,"Ġkrist":2283,"Ġluk":2284,"impin":2285,"Ġlelara":2286,"Ġawards":2287,"Ġmol":2288,"Ġpendidikan":2289,"Ġmalaysia":2290,"Ġkomun":2291,"ement":2292,"ii":2293,"Ġnegara":2294,"Ġros":2295,"Ġoff":2296,"ilihan":2297,"Ġhy":2298,"sur":2299,"Ġmand":2300,"enang":2301,"ĠdigunakakÃ©":2302,"Ġdrama":2303,"Ñģ":2304,"Ġnulis":2305,"ella":2306,"Ġdhumateng":2307,"Ġment":2308,"Ġseneng":2309,"anggih":2310,"ĠprosÃ¨s":2311,"Ġhan":2312,"ajengipun":2313,"uci":2314,"Ġtetep":2315,"Ġcap":2316,"iyum":2317,"Ã¨rÃ¨ng":2318,"Ġnud":2319,"Ġsarana":2320,"angsung":2321,"Ðµ":2322,"Ġbath":2323,"Ġsapi":2324,"amin":2325,"Ġsurabaya":2326,"Ã©ntuk":2327,"Ġwin":2328,"anj":2329,"Ġdat":2330,"Ġsaint":2331,"ĠsÃ©da":2332,"ler":2333,"ney":2334,"oph":2335,"ĠsÃ¨l":2336,"Ġmik":2337,"Ġgend":2338,"eon":2339,"Ġilmu":2340,"Ġsumatra":2341,"Ġwiwitan":2342,"Ġorganisasi":2343,"Ġgalaksi":2344,"yn":2345,"ania":2346,"awani":2347,"Ġtahun":2348,"Ġmeng":2349,"arÃ©":2350,"Ġngenani":2351,"ĠgÃ©":2352,"uwuhan":2353,"Ġins":2354,"Ġbobot":2355,"Ġstasi":2356,"Ġbareng":2357,"Ð½":2358,"Ġni":2359,"adeg":2360,"Ġbadan":2361,"Ġasma":2362,"Ġmuseum":2363,"Ġtamb":2364,"Ġngandhut":2365,"olong":2366,"Ġtemp":2367,"Ġtengen":2368,"Ġkapas":2369,"Ġpendhidhikan":2370,"Ġrikala":2371,"Ġstasiun":2372,"Ġaustralia":2373,"Ġdu":2374,"Ġasli":2375,"Ġmut":2376,"Ġtelung":2377,"Ġrah":2378,"Ġft":2379,"Ġfile":2380,"nya":2381,"Ġdurung":2382,"Ġrel":2383,"Ġsabanjur":2384,"Ġtuwa":2385,"Ġkil":2386,"Ġibu":2387,"ese":2388,"Ġgre":2389,"erus":2390,"Ġyork":2391,"Ġev":2392,"Ġistilah":2393,"ce":2394,"Ġtelu":2395,"uki":2396,"Ġsosial":2397,"ĠcacahÃ©":2398,"Ġolah":2399,"ci":2400,"Ġgeme":2401,"Ġrek":2402,"Ġkaanan":2403,"upa":2404,"tival":2405,"Ġreferensi":2406,"Ġmusiyum":2407,"yasa":2408,"Ġdalam":2409,"Ġliv":2410,"Ġwiki":2411,"ool":2412,"Ġlog":2413,"Ġcur":2414,"Ġalit":2415,"Ġarep":2416,"ÃŃ":2417,"Ġrec":2418,"Ġakeh":2419,"Ġsok":2420,"Ġpuc":2421,"Ġlatin":2422,"Ġjl":2423,"inistr":2424,"Ġmingg":2425,"Ġlangsung":2426,"Ġsurat":2427,"asis":2428,"Ġbarkas":2429,"Ġtetuwuhan":2430,"Ġpindh":2431,"Ġnem":2432,"ove":2433,"Ġlagi":2434,"de":2435,"Ġlingk":2436,"Ġbul":2437,"Ġlambang":2438,"Ġadministr":2439,"oci":2440,"Ġkeju":2441,"Ġdipunb":2442,"Ġkepala":2443,"embangan":2444,"Ġori":2445,"edia":2446,"ts":2447,"Ġkimia":2448,"ĠÃ©":2449,"Ġpac":2450,"Ġgemeente":2451,"pon":2452,"Ġsv":2453,"Ġmem":2454,"ampi":2455,"Ġgeor":2456,"Ġtl":2457,"kah":2458,"Ġlew":2459,"Ġcah":2460,"nologi":2461,"ile":2462,"Ġrh":2463,"Ġder":2464,"Ġsah":2465,"ektur":2466,"Ġawujud":2467,"Ġditem":2468,"Ġsepur":2469,"Ġwid":2470,"Ġmati":2471,"Ġjend":2472,"rid":2473,"Ġoxy":2474,"res":2475,"Ġsurya":2476,"Ġcampuran":2477,"Ġinstit":2478,"ran":2479,"Ġpah":2480,"Ġpemain":2481,"Ġmesin":2482,"Ġkapuloan":2483,"Ġdj":2484,"ĠkadadÃ©an":2485,"Ġarm":2486,"Ġtam":2487,"ĠnovÃ¨l":2488,"okter":2489,"Ġtab":2490,"sm":2491,"Ġsalajengipun":2492,"Ġngay":2493,"aji":2494,"Ġav":2495,"Ġpengh":2496,"Ġtahan":2497,"ebab":2498,"Ġdom":2499,"ahaken":2500,"ech":2501,"Ġwatara":2502,"okake":2503,"Ġchina":2504,"Ġbumb":2505,"Ġht":2506,"Ġfes":2507,"oran":2508,"Ġpres":2509,"uktur":2510,"Ġkhas":2511,"Ġketua":2512,"use":2513,"Ġali":2514,"Ġtugas":2515,"Ġsand":2516,"uman":2517,"Ġgetih":2518,"entang":2519,"ampang":2520,"Ġkong":2521,"Ã©b":2522,"Ġisra":2523,"Ġdewi":2524,"Ġinggil":2525,"ãĤ":2526,"Ġmc":2527,"Ġoxyop":2528,"ign":2529,"Ġtuwuh":2530,"Ġek":2531,"Ġbah":2532,"Ġchi":2533,"Ġbabi":2534,"Ġinternational":2535,"port":2536,"Ġmek":2537,"ĠsaÃ©":2538,"asanÃ©":2539,"Ġkarak":2540,"Ġsreng":2541,"Ġkirang":2542,"Ġari":2543,"awar":2544,"Ġcan":2545,"Ġunt":2546,"osis":2547,"Ġkaton":2548,"que":2549,"Ġbh":2550,"Ġperancis":2551,"ĠngÃ¨lmu":2552,"oba":2553,"Ġmanggon":2554,"Ġperan":2555,"Ġsultan":2556,"fa":2557,"unggung":2558,"Ġpark":2559,"Ġdata":2560,"zz":2561,"ãģ":2562,"Ġbet":2563,"Ġjalur":2564,"Ġtem":2565,"Ġlit":2566,"Ġgaya":2567,"edhak":2568,"Ġmangan":2569,"Ġbund":2570,"ihan":2571,"Ġbut":2572,"apura":2573,"Ġsipat":2574,"Ġlin":2575,"Ġunsur":2576,"Ġgame":2577,"indhu":2578,"Ġsimb":2579,"Ġlet":2580,"Ġplan":2581,"iam":2582,"Ġja":2583,"Ġring":2584,"utrad":2585,"ral":2586,"isah":2587,"adha":2588,"Ġperi":2589,"den":2590,"Ġga":2591,"Ġsinau":2592,"ute":2593,"Ġselatan":2594,"Ġfestival":2595,"uwa":2596,"Ġund":2597,"Ġsri":2598,"ĠsinÃ©":2599,"Ġjo":2600,"Ġgaris":2601,"Ġbon":2602,"ustri":2603,"Ġkuning":2604,"aca":2605,"Ġrev":2606,"Ġgum":2607,"ĠÃ©ntuk":2608,"Ġmob":2609,"abi":2610,"Ġpic":2611,"Ġsadaya":2612,"ĠsabanjurÃ©":2613,"Ġallah":2614,"Ġnur":2615,"Ġru":2616,"ure":2617,"ĠpÃ©ranganing":2618,"Ġsusu":2619,"ise":2620,"Ġfer":2621,"Ġprau":2622,"Ġps":2623,"Ġcok":2624,"Ġnet":2625,"Ġjej":2626,"ille":2627,"Ġyasan":2628,"Ġposisi":2629,"ĠsinÃ©tron":2630,"Ġtengg":2631,"Ġkitab":2632,"Ġbub":2633,"api":2634,"Ġdipunk":2635,"Ġsupados":2636,"Ġdipundamel":2637,"andhingan":2638,"Ġsulaw":2639,"Ġlond":2640,"Ġamerican":2641,"urus":2642,"Ã¨p":2643,"Ġtha":2644,"Ġfa":2645,"Ġsim":2646,"Ġdam":2647,"Ġpandh":2648,"tris":2649,"Ġakad":2650,"Ġemp":2651,"Ġyus":2652,"Ġmreb":2653,"rip":2654,"Ġpitik":2655,"Ġsanget":2656,"Ġsulawesi":2657,"sani":2658,"Ġcak":2659,"Ġkayata":2660,"Ġkarakter":2661,"Ġmrebawani":2662,"angat":2663,"Ġsalebet":2664,"ale":2665,"Ġlemp":2666,"Ġbol":2667,"Ġtunggal":2668,"Ġasil":2669,"Ġprabu":2670,"Ġisi":2671,"eman":2672,"ein":2673,"ater":2674,"istik":2675,"Ġlomb":2676,"Ġlou":2677,"elas":2678,"Ġrumah":2679,"oko":2680,"Ġaran":2681,"rak":2682,"encana":2683,"Ġww":2684,"ux":2685,"Ð¾Ð":2686,"Ġkanca":2687,"Ġright":2688,"eksi":2689,"Ġumume":2690,"Ġlondon":2691,"Ġlak":2692,"do":2693,"eter":2694,"Ġnor":2695,"tik":2696,"Ġped":2697,"itar":2698,"ambi":2699,"Ġkerja":2700,"Ġbus":2701,"ulur":2702,"Ġaz":2703,"Ġgus":2704,"Ġbek":2705,"ajah":2706,"els":2707,"burg":2708,"Ġmata":2709,"Ġtip":2710,"uwara":2711,"Ġarg":2712,"Ġgaring":2713,"riya":2714,"ĠjogÃ¨d":2715,"Ġlis":2716,"Ġbos":2717,"evisi":2718,"Ġobat":2719,"Ġkary":2720,"Ġkapal":2721,"Ġleng":2722,"arg":2723,"Ġantrop":2724,"Ġnob":2725,"Ġupacara":2726,"Ã©ngÃ©":2727,"ĠkapÃ©rang":2728,"arya":2729,"ĠmÃ¨nÃ¨hi":2730,"ect":2731,"ood":2732,"Ġkos":2733,"istan":2734,"tain":2735,"ĠmigunakakÃ©":2736,"awon":2737,"Ġdian":2738,"Ġspesi":2739,"Ġanc":2740,"Ġjero":2741,"iz":2742,"ifa":2743,"ford":2744,"Ġsurakarta":2745,"Ġbiyasa":2746,"ĠØ§ÙĦ":2747,"Ġpucuk":2748,"Ġplat":2749,"Ġkopi":2750,"Ġpaus":2751,"Ġwe":2752,"Ġkart":2753,"ps":2754,"Ġsung":2755,"Ġtri":2756,"ban":2757,"Ġomb":2758,"Ġpeg":2759,"Ġindh":2760,"rasi":2761,"oka":2762,"Ġstruktur":2763,"Ġastr":2764,"Ġkanti":2765,"Ġspir":2766,"Ġterb":2767,"Ġbers":2768,"Ġmenit":2769,"Ġfungsi":2770,"Ġkapasitas":2771,"erta":2772,"Ġå":2773,"Ġsud":2774,"onia":2775,"anta":2776,"Ġvide":2777,"Ġputr":2778,"Ġtelevisi":2779,"Ġhistory":2780,"ĠsrengÃ©ngÃ©":2781,"Ġgunggung":2782,"oli":2783,"enengi":2784,"Ġpaul":2785,"let":2786,"urahan":2787,"ĠgÃ©n":2788,"Ġpapat":2789,"Ġwisata":2790,"urit":2791,"Ġuw":2792,"ĠananÃ©":2793,"Ġmasak":2794,"isar":2795,"Ġgi":2796,"Ġgay":2797,"Ġkebon":2798,"Ġtradhisional":2799,"Ġtat":2800,"cl":2801,"Ġaku":2802,"Ġpadunung":2803,"Ġcedhak":2804,"iyar":2805,"Ã©ra":2806,"hir":2807,"amelan":2808,"Ġanim":2809,"opot":2810,"Ġcet":2811,"Ġjaw":2812,"Ġint":2813,"Ġaktris":2814,"angkep":2815,"ĠacÃ¨h":2816,"Ġjames":2817,"Ġsamb":2818,"Ġday":2819,"Ġremp":2820,"Ġjen":2821,"urip":2822,"ajar":2823,"Ġwol":2824,"Ġall":2825,"ano":2826,"Ġpadh":2827,"asik":2828,"ĠisraÃ¨l":2829,"ĠwaÃ©":2830,"Ġmetu":2831,"Ġdavid":2832,"Ġadhedhasar":2833,"Ġangkatan":2834,"Ġdengan":2835,"Ġges":2836,"Ġteknik":2837,"ear":2838,"ting":2839,"Ġdianggo":2840,"Ġyah":2841,"Ġnational":2842,"Ġdipangan":2843,"Ġkodhak":2844,"Ġcomm":2845,"Ġtangan":2846,"Ġkub":2847,"Ġeng":2848,"adÃ¨kakÃ©":2849,"Ġkraton":2850,"Ġtuk":2851,"asif":2852,"Ġbapak":2853,"Ġfc":2854,"Ġmesir":2855,"Ġrobert":2856,"Ġrem":2857,"Ġdhar":2858,"yak":2859,"Ġpingg":2860,"ĠsÃ©l":2861,"Ġwilliam":2862,"Ġdong":2863,"Ġpada":2864,"orth":2865,"Ġduwe":2866,"Ġlingkungan":2867,"din":2868,"Ġmawi":2869,"Ġanti":2870,"ico":2871,"uhur":2872,"che":2873,"Ġeur":2874,"Ġginakaken":2875,"antara":2876,"Ġmalah":2877,"Ġê¦":2878,"Ġgampang":2879,"Ġnemb":2880,"ulik":2881,"okan":2882,"Ġpenerb":2883,"Ġtembang":2884,"Ġkena":2885,"Ġwangun":2886,"Ġditulis":2887,"iah":2888,"Ġcir":2889,"Ġass":2890,"nan":2891,"Ġkalurahan":2892,"Ġunited":2893,"ĠmilitÃ¨r":2894,"ĠÃ¨n":2895,"Ġhong":2896,"Ġjuara":2897,"asia":2898,"Ġgand":2899,"Ġngend":2900,"Ġirah":2901,"eld":2902,"Ġfar":2903,"Ġkomputer":2904,"Ġnind":2905,"Ġyen":2906,"ahanan":2907,"uma":2908,"Ġkaca":2909,"Ġlokal":2910,"Ðº":2911,"Ġret":2912,"andhang":2913,"ham":2914,"ram":2915,"Ġandr":2916,"Ã©g":2917,"Ġmobil":2918,"Ġcep":2919,"jana":2920,"Ġsec":2921,"amanipun":2922,"Ġbant":2923,"Ġgroj":2924,"Ġbesar":2925,"Ġkw":2926,"Ġboy":2927,"Ġberas":2928,"ĠÙ":2929,"Ġpura":2930,"Ġrempah":2931,"tp":2932,"Ġdipung":2933,"Ġtap":2934,"Ġlembaga":2935,"va":2936,"Ġnggawe":2937,"ijaya":2938,"Ġbala":2939,"iac":2940,"illa":2941,"Ã§":2942,"ors":2943,"Ġfit":2944,"Ġkota":2945,"Ġgra":2946,"argaan":2947,"Ġgrojogan":2948,"Ġnon":2949,"Ġris":2950,"Ġdolanan":2951,"Ġcit":2952,"Ġnger":2953,"ario":2954,"Ġsaya":2955,"Ġemas":2956,"Ġsajian":2957,"Ġmlebet":2958,"uhake":2959,"Ġtradisional":2960,"ros":2961,"Ġdhedhasar":2962,"Ġcoklat":2963,"Ġtand":2964,"ulÃ¨r":2965,"Ġdepart":2966,"Ġtal":2967,"mas":2968,"Ġsuh":2969,"Ġgub":2970,"Ġalex":2971,"Ġstadi":2972,"Ġkue":2973,"ĠÃ©w":2974,"Ġhel":2975,"Ġturki":2976,"Ġkitha":2977,"Ġwiji":2978,"Ġcomp":2979,"Ġlenga":2980,"Ġcoll":2981,"Ġdiwiwiti":2982,"Ġdhi":2983,"Ġgas":2984,"ĠrÃ©s":2985,"alog":2986,"Ġdewan":2987,"Ġdur":2988,"men":2989,"Ġtumuju":2990,"Ġrusia":2991,"Ġhen":2992,"Ġserikat":2993,"Ġenom":2994,"Ġpesawat":2995,"Ġdaya":2996,"amat":2997,"Ġcel":2998,"Ã¨si":2999,"Ġdipunl":3000,"ado":3001,"Ġalus":3002,"ampur":3003,"Ġrp":3004,"antar":3005,"Ġkaran":3006,"Ġproduk":3007,"Ġabdul":3008,"Ġnambah":3009,"Ġbank":3010,"Ġkaisar":3011,"ÑĤ":3012,"Ġmab":3013,"Ġtig":3014,"Ġwates":3015,"rÃ©nÃ©":3016,"Ġsakit":3017,"Ã©ni":3018,"Ġtiga":3019,"Ġsatunggalipun":3020,"Ġnjalari":3021,"Ġlove":3022,"Ġion":3023,"Ġsesarengan":3024,"Ġkump":3025,"agara":3026,"Ġkamp":3027,"ĠmÃ©":3028,"ital":3029,"Ġutara":3030,"ĠbobotÃ©":3031,"ere":3032,"Ġhad":3033,"Ġperd":3034,"igh":3035,"Ġcahya":3036,"rangan":3037,"Ġcas":3038,"yun":3039,"Ġngarep":3040,"ĠÃ©ng":3041,"Ġterus":3042,"Ġglob":3043,"Ġtenggara":3044,"Ġsvg":3045,"Ġtni":3046,"Ġkelompok":3047,"Ġwww":3048,"Ġprib":3049,"enan":3050,"adosan":3051,"Ġdhis":3052,"Ġwilayah":3053,"io":3054,"Ġkin":3055,"opa":3056,"oda":3057,"ĠgendÃ©ra":3058,"sah":3059,"Ġmiyos":3060,"ĠtÃ¨k":3061,"hael":3062,"Ġoperasi":3063,"Ġinformasi":3064,"Ã¨g":3065,"Ġgoreng":3066,"ĠÅ":3067,"icara":3068,"Ġalk":3069,"Ã¨rÃ¨k":3070,"Ġbumbu":3071,"Ġraga":3072,"Ġlewat":3073,"Ġsug":3074,"adyan":3075,"Ġbib":3076,"unga":3077,"tri":3078,"ling":3079,"Ġwest":3080,"urunan":3081,"Ġhom":3082,"Ġcy":3083,"Ġhot":3084,"Ġtoya":3085,"apat":3086,"ugh":3087,"alaken":3088,"uti":3089,"Ġtlaga":3090,"indak":3091,"ĠnÃ©l":3092,"Ġcha":3093,"kop":3094,"rol":3095,"ipta":3096,"ukup":3097,"oman":3098,"Ġpolen":3099,"nes":3100,"Ġmandh":3101,"Ġstar":3102,"so":3103,"Ġred":3104,"Ġdicopot":3105,"tv":3106,"Ġles":3107,"ogen":3108,"Ġenter":3109,"Ġkand":3110,"landia":3111,"Ġsuks":3112,"ku":3113,"Ġprim":3114,"mer":3115,"onik":3116,"Ġgul":3117,"oma":3118,"Ġlangit":3119,"iland":3120,"Ã©nd":3121,"Ġpraja":3122,"Ġalp":3123,"Ġbanjar":3124,"utha":3125,"usus":3126,"Ġkert":3127,"Ġbor":3128,"Ġpenc":3129,"Ġaji":3130,"Ġbentuk":3131,"Ġbeda":3132,"Ġking":3133,"Ġgad":3134,"Ġkristen":3135,"ĠÃ©nggal":3136,"Ġowah":3137,"Ġpb":3138,"ehi":3139,"Ġprasasti":3140,"tone":3141,"Ġbaw":3142,"Ġjuwara":3143,"Ġpress":3144,"over":3145,"Ġudara":3146,"Ġhindhu":3147,"Ġdud":3148,"elu":3149,"Ġkritik":3150,"uhi":3151,"Ġbrasil":3152,"utradara":3153,"Ġoc":3154,"Ġmark":3155,"Ġroy":3156,"ustaka":3157,"Ġtetandhingan":3158,"amanÃ©":3159,"Ġditambah":3160,"Ð»":3161,"Ġgir":3162,"Ġgsm":3163,"Ġpembang":3164,"miah":3165,"Ġtilar":3166,"mar":3167,"ĠÃ¨l":3168,"Ġtra":3169,"Ġrock":3170,"ito":3171,"akara":3172,"Ġnot":3173,"Ġwedh":3174,"Ġfifa":3175,"Ġjurusan":3176,"Ġnyambut":3177,"Ġphil":3178,"Ġhttp":3179,"Ġuntuk":3180,"Ġbaru":3181,"Ġsms":3182,"Ġpabrikan":3183,"antri":3184,"angsal":3185,"atesan":3186,"Ġnampa":3187,"Ġkajaba":3188,"Ġbend":3189,"han":3190,"Ġradio":3191,"Ġimage":3192,"Ġpok":3193,"Ġserb":3194,"las":3195,"ye":3196,"Ġbuda":3197,"Ġnaskah":3198,"Ġkrim":3199,"ĠjudhulÃ©":3200,"Ġlara":3201,"uf":3202,"Ġpindhah":3203,"isode":3204,"Ġmichael":3205,"Ġbabak":3206,"Ġulah":3207,"Ġcekak":3208,"nal":3209,"Ġsid":3210,"antÃ¨ni":3211,"Ġmodern":3212,"Ġuyah":3213,"intangi":3214,"Ġsuci":3215,"Ġkatulik":3216,"Ġglepung":3217,"Ġwang":3218,"Ġgun":3219,"Ġbalung":3220,"Ġrat":3221,"Ġproduksi":3222,"Ġpenghargaan":3223,"Ġpembangunan":3224,"Ġpup":3225,"he":3226,"Ġkabud":3227,"Ġtrop":3228,"Ġtw":3229,"Ġyou":3230,"Ġmuslim":3231,"Ġseri":3232,"Ġkasebat":3233,"Ġsastr":3234,"Ġlatar":3235,"Ġlima":3236,"Ġcab":3237,"Ġpis":3238,"Ġkantor":3239,"berg":3240,"ograp":3241,"Ġportug":3242,"erc":3243,"Ġteka":3244,"ĠsÃ©lulÃ¨r":3245,"Ġfin":3246,"Ġfilip":3247,"Ġvideo":3248,"ruh":3249,"Ġsandh":3250,"Ġuni":3251,"Ġjaya":3252,"Ġdaerah":3253,"Î±":3254,"Ġnggambar":3255,"Ġtor":3256,"irah":3257,"Ġland":3258,"ibat":3259,"Ġgesang":3260,"ei":3261,"eja":3262,"Ġngel":3263,"upati":3264,"Ġdistrik":3265,"awanÃ©":3266,"Ġbritan":3267,"Ġstandby":3268,"Ġsouth":3269,"Ġplanit":3270,"Ġringtone":3271,"Ġrada":3272,"Ġbany":3273,"ife":3274,"Ġkot":3275,"ema":3276,"ĠlayarÃ©":3277,"Ġmasa":3278,"Ġdunia":3279,"Ġmari":3280,"Ġgab":3281,"unungan":3282,"Ġatom":3283,"Ġenem":3284,"ĠbatrÃ©nÃ©":3285,"Ġngalami":3286,"á¹":3287,"Ġpinten":3288,"iro":3289,"Ġusaha":3290,"ĠnÃ©lpon":3291,"Ġmov":3292,"hik":3293,"Ġngremb":3294,"Ġproy":3295,"Ġarsit":3296,"Ġrich":3297,"Ġgrand":3298,"Ġngginakaken":3299,"Ġdibabar":3300,"ras":3301,"ular":3302,"asiswa":3303,"Ġkarang":3304,"Ġmusic":3305,"Ġpurw":3306,"Ġmeneng":3307,"Ġabasa":3308,"Ġsepisanan":3309,"Ġlouis":3310,"Ġciri":3311,"Ġadat":3312,"Ġmotorola":3313,"ĠrÃ©solusi":3314,"Ã¨ndh":3315,"ky":3316,"Ġdirilis":3317,"Ġamba":3318,"Ġwern":3319,"ampilan":3320,"erv":3321,"ampahi":3322,"hu":3323,"Ġdudu":3324,"Ġsalat":3325,"Ġkasus":3326,"line":3327,"Ġati":3328,"Ġsala":3329,"ower":3330,"Ġlee":3331,"rist":3332,"Ñĥ":3333,"ĠØ":3334,"enging":3335,"Ġsawise":3336,"Ġviet":3337,"Ġpilihan":3338,"etik":3339,"Ġaktif":3340,"Ġtanjung":3341,"Ġdepartemen":3342,"Ġngaw":3343,"Ġnglawan":3344,"Ġdang":3345,"Ġfinal":3346,"ĠdhÃ©m":3347,"Ġpictur":3348,"Ġlulus":3349,"Ġmasalah":3350,"Ġky":3351,"Ġdivisi":3352,"Ġpertama":3353,"Ġlukisan":3354,"ĠtÃ©y":3355,"its":3356,"Ġpopulasi":3357,"Ġakademi":3358,"Ġdipir":3359,"ĠngasilakÃ©":3360,"Ġrampung":3361,"entar":3362,"Ġchris":3363,"Ġangel":3364,"Ġgegay":3365,"Ġkomunitas":3366,"way":3367,"Ġkum":3368,"Ġtang":3369,"Ġbupati":3370,"Ġwik":3371,"Ġvit":3372,"Ġkedh":3373,"uwang":3374,"Ġbiru":3375,"rik":3376,"Ã¢":3377,"ÙĨ":3378,"Ġteb":3379,"Ġcharles":3380,"atos":3381,"Ġjab":3382,"Ġminggu":3383,"Ġgur":3384,"Ġcendh":3385,"Ġdipunsebat":3386,"Ġkabudayan":3387,"alit":3388,"Ġpangeran":3389,"Ġts":3390,"Ġgusti":3391,"atih":3392,"Ġsapisan":3393,"Ġmakarya":3394,"Ġpuisi":3395,"pi":3396,"Ġmeg":3397,"Ġfrank":3398,"Ġtitik":3399,"eleng":3400,"Ġthailand":3401,"Ġnobel":3402,"elit":3403,"Ġjenderal":3404,"asta":3405,"ations":3406,"Ġsor":3407,"atika":3408,"ys":3409,"Ġprast":3410,"ider":3411,"mpl":3412,"efa":3413,"Ġroma":3414,"Ġjawi":3415,"uluh":3416,"ĠnuduhakÃ©":3417,"Ġkiwa":3418,"Ġnorth":3419,"omo":3420,"ĠsadÃ¨rÃ¨ng":3421,"Ġmagn":3422,"ĠsuwÃ©":3423,"Ġfir":3424,"arian":3425,"form":3426,"oid":3427,"ĠawakÃ©":3428,"ahar":3429,"araan":3430,"ewa":3431,"fat":3432,"her":3433,"aram":3434,"Ġvietnam":3435,"bon":3436,"ko":3437,"elan":3438,"Ġorg":3439,"Ġsaper":3440,"Ã©mb":3441,"ĠdipirantÃ¨ni":3442,"arto":3443,"Ġmbiy":3444,"ekake":3445,"Ġstadion":3446,"Ġprastawa":3447,"Ġpiksel":3448,"Ġmilih":3449,"Ġmangkono":3450,"Ġngem":3451,"Ġobl":3452,"Ġndhuwur":3453,"alang":3454,"Ġpadang":3455,"ĠsadÃ¨rÃ¨ngipun":3456,"Ġrupa":3457,"Ġsajr":3458,"Ġblack":3459,"Ġspesies":3460,"ĠnembÃ©":3461,"Ġnjabat":3462,"unipun":3463,"Ġnil":3464,"eksa":3465,"Ġartis":3466,"nu":3467,"Ġara":3468,"Ġobj":3469,"oss":3470,"uripan":3471,"kup":3472,"Ã¤":3473,"Ġsony":3474,"Ġlamp":3475,"Ġkedah":3476,"Ġtata":3477,"Ġmam":3478,"Ġluc":3479,"Ġtuj":3480,"Ġjmpl":3481,"Ġpej":3482,"Ġulam":3483,"ÅĤ":3484,"amtu":3485,"ĠtÃ©yori":3486,"Ġæ":3487,"mo":3488,"Ġmask":3489,"Ġkawruh":3490,"Ġgubern":3491,"aring":3492,"Ġjat":3493,"Ã©ran":3494,"Ġpengg":3495,"Ġreal":3496,"Ġinv":3497,"Ġlo":3498,"Ġyahudi":3499,"Ġpinggir":3500,"ĠdÃ¨w":3501,"eges":3502,"alem":3503,"Ã´":3504,"ĠbÃ¨n":3505,"Ġdiengg":3506,"ujuk":3507,"Ġgubernur":3508,"Ġpisan":3509,"engah":3510,"Ġirahan":3511,"Ġdebut":3512,"Ġuefa":3513,"mat":3514,"ster":3515,"bs":3516,"ez":3517,"unggah":3518,"Ġkemangga":3519,"Ġpapua":3520,"Äĩ":3521,"Ġkup":3522,"Ġprop":3523,"ology":3524,"red":3525,"Ġnget":3526,"Ġmabur":3527,"Ġtart":3528,"enian":3529,"Ġpira":3530,"Ġkuc":3531,"Ġmantan":3532,"Ġtuladha":3533,"Ġtiong":3534,"alih":3535,"ining":3536,"Ġpariw":3537,"Ġhab":3538,"Ġmanaj":3539,"Ġnglakoni":3540,"Ġindhustri":3541,"ĠradÃ¨n":3542,"uel":3543,"vi":3544,"Ġtib":3545,"ott":3546,"Ġpasangan":3547,"impen":3548,"wan":3549,"Ġmudh":3550,"Ġsanadyan":3551,"Ġasalipun":3552,"ĠÃ¨s":3553,"Ġmun":3554,"asak":3555,"ings":3556,"Ġgabung":3557,"Ġromawi":3558,"Ġdijupuk":3559,"Ġcariyos":3560,"Ġiso":3561,"Ġwarni":3562,"awati":3563,"Ġraj":3564,"ago":3565,"Ġà":3566,"Ġmalang":3567,"Ġlegi":3568,"Ġairlin":3569,"isata":3570,"Ġly":3571,"Ġkagiyatan":3572,"ous":3573,"Ġec":3574,"Ġinc":3575,"Ġadoh":3576,"Ġsega":3577,"Ġstatus":3578,"rus":3579,"Ġfoto":3580,"Ġkompl":3581,"Ġudakara":3582,"oo":3583,"por":3584,"Ġjack":3585,"oks":3586,"ayaan":3587,"Ġaut":3588,"ĠgÃ©ografi":3589,"Ġtambahan":3590,"Ġdipig":3591,"Ġkawasan":3592,"Ġdev":3593,"Ġfilipina":3594,"Ġlapangan":3595,"Ġmanis":3596,"Ġmiss":3597,"athet":3598,"Ġmirungg":3599,"hoa":3600,"Ġairlines":3601,"Ġwet":3602,"ungi":3603,"apur":3604,"egan":3605,"Ġthom":3606,"Ġpendh":3607,"Ġnominasi":3608,"Ġentertain":3609,"Ã¼r":3610,"Ġoxyopidae":3611,"arakÃ©":3612,"Ġpunjul":3613,"Ġperiode":3614,"astra":3615,"Ġpolit":3616,"Ġmirunggan":3617,"yp":3618,"Ġkn":3619,"Ġkana":3620,"Ġjon":3621,"Ġkaum":3622,"Ġdisaj":3623,"Ġsesukan":3624,"Ġamp":3625,"Ġcem":3626,"eti":3627,"Ġmengk":3628,"anian":3629,"Ġkabin":3630,"untut":3631,"Ġì":3632,"Ġngur":3633,"Ġisland":3634,"Ġtomat":3635,"Ġtionghoa":3636,"Ġitali":3637,"Ġnyebar":3638,"Ġchrist":3639,"Ġresep":3640,"Ġsut":3641,"Ġkagunan":3642,"Ġlumantar":3643,"Ġbritania":3644,"lawan":3645,"Ġwas":3646,"Ġujung":3647,"Ġmlig":3648,"Ġfe":3649,"Ġmontor":3650,"Ġsunan":3651,"Ġbord":3652,"asm":3653,"Ġkanada":3654,"Ġfisika":3655,"ĠanggonÃ©":3656,"Ġic":3657,"Ġpanggang":3658,"Ġvalue":3659,"Ġlawas":3660,"Ġsedh":3661,"Ġnap":3662,"Ġjul":3663,"Ġvic":3664,"Ġmenara":3665,"Ġseniman":3666,"Ġpent":3667,"esh":3668,"Ġgarw":3669,"Ġsadh":3670,"asang":3671,"Ġmarag":3672,"ebutan":3673,"Ġkagolong":3674,"Ġkonst":3675,"ungguhan":3676,"Ġkadadosan":3677,"ren":3678,"Ġping":3679,"Ã¨dh":3680,"Ġdalem":3681,"araken":3682,"Ġsingapura":3683,"Ġdipunm":3684,"Ġkuil":3685,"Ã¨ndher":3686,"Ġentertainment":3687,"atal":3688,"Ġnik":3689,"Ġkadang":3690,"Ã©hatan":3691,"Ġoffic":3692,"tle":3693,"Ġdipunc":3694,"Ġrikat":3695,"Ġpraj":3696,"ole":3697,"umpang":3698,"Ġmahasiswa":3699,"Ġbec":3700,"ekel":3701,"Ġgro":3702,"Ġdistr":3703,"luk":3704,"Ġpec":3705,"Ġray":3706,"Ġmelayu":3707,"Ġsutradara":3708,"Ġsekawan":3709,"Ġahmad":3710,"Ġdienggo":3711,"Ġkalam":3712,"Ġateges":3713,"ifikasi":3714,"utur":3715,"Ġadonan":3716,"Ġimam":3717,"Ġdw":3718,"Ġgh":3719,"Ġtuladh":3720,"Ġkuwat":3721,"Ġkus":3722,"Ġkampung":3723,"Ġgeni":3724,"Ġngembang":3725,"egi":3726,"Ġabu":3727,"Ġkhusus":3728,"ois":3729,"Ġlam":3730,"Ġleb":3731,"Ġjean":3732,"Ã¨rsi":3733,"Ġbukit":3734,"Ġgeorge":3735,"Ġpant":3736,"Ġged":3737,"Ġrer":3738,"Ġreb":3739,"Ġpawiyatan":3740,"box":3741,"my":3742,"ahakÃ©":3743,"ander":3744,"Ġkalaw":3745,"Ġtour":3746,"Ġpariwisata":3747,"ru":3748,"Ġbog":3749,"Ġwir":3750,"Ġkret":3751,"eyan":3752,"erbit":3753,"Ġsuhu":3754,"siyun":3755,"Ġtansah":3756,"Ġwebs":3757,"Ġsayuran":3758,"Ġlef":3759,"Ġcukup":3760,"Ġnggunakake":3761,"itis":3762,"Ġwarisan":3763,"aro":3764,"Ġmest":3765,"Ġkaloro":3766,"Ġlapisan":3767,"ales":3768,"Ġjaj":3769,"Ġkapilih":3770,"Ġpanalit":3771,"ĠbiyÃ¨n":3772,"lit":3773,"iver":3774,"Ġsong":3775,"Ġcup":3776,"obi":3777,"Ġiran":3778,"Ġoblast":3779,"Ġsetat":3780,"ange":3781,"ety":3782,"Ġakir":3783,"Ġdek":3784,"ume":3785,"Ġkajawi":3786,"Ġpbb":3787,"Ġcoc":3788,"Ġhor":3789,"amane":3790,"Ġcho":3791,"arane":3792,"Ġcolor":3793,"Ġinstitut":3794,"hy":3795,"Ġmaringi":3796,"Ġsmp":3797,"Ġjus":3798,"Ġmedal":3799,"Ġplay":3800,"Ġasale":3801,"Ġsalebeting":3802,"Ġsaos":3803,"Ġdisney":3804,"Ġjeruk":3805,"Î¿":3806,"Ã¨ter":3807,"ektor":3808,"epi":3809,"Ġperc":3810,"Ġwewatesan":3811,"Ġlokasi":3812,"Ġsaperlu":3813,"Ġkita":3814,"Ġip":3815,"kar":3816,"Ġpedh":3817,"Ġsithik":3818,"Ġwebsite":3819,"Ġwayah":3820,"Ġini":3821,"Ã¨nan":3822,"har":3823,"Ġandh":3824,"Ġkalungguhan":3825,"ĠÃ¨lmu":3826,"Ġgug":3827,"Ġvok":3828,"Ġseny":3829,"Ġlempongan":3830,"Ġfri":3831,"eder":3832,"Ġmoh":3833,"Ġkatrangan":3834,"ayat":3835,"Ġkompet":3836,"Ġmataram":3837,"Ġsetatsiyun":3838,"Ġkandh":3839,"impi":3840,"Ġgumantung":3841,"Ġkud":3842,"Ġsoci":3843,"ergi":3844,"ungu":3845,"Ġbatu":3846,"Ġrepublik":3847,"rag":3848,"Ġyasa":3849,"Ġbiografi":3850,"Ġlas":3851,"ĠÃ¨t":3852,"Ġbb":3853,"inia":3854,"Ġnjero":3855,"Ġtokyo":3856,"saya":3857,"Ġbisnis":3858,"Ġswiss":3859,"uyung":3860,"Ġnikah":3861,"Ġschool":3862,"fl":3863,"ashi":3864,"Ġrambut":3865,"yai":3866,"dam":3867,"Ġling":3868,"Ġlong":3869,"Ġbedh":3870,"ayani":3871,"Ã¨ksi":3872,"Ġpopuler":3873,"nÃ©":3874,"Ġgam":3875,"Ġgamb":3876,"Ġcentr":3877,"apÃ©":3878,"agai":3879,"ĠdiwÃ¨nÃ¨hi":3880,"Ġpagunungan":3881,"data":3882,"adegakÃ©":3883,"Ġkend":3884,"vent":3885,"Ø±":3886,"Ġprakara":3887,"Ġmayor":3888,"Ġij":3889,"Ġren":3890,"Ġurutan":3891,"Ä±":3892,"Ġkompon":3893,"Ġwangunan":3894,"Ġbathik":3895,"Ġspiral":3896,"Ġnep":3897,"omi":3898,"Ġpadatan":3899,"kat":3900,"nas":3901,"Ġsn":3902,"ive":3903,"Ġteknologi":3904,"Ġakting":3905,"Ġlistrik":3906,"alu":3907,"Ġdhuw":3908,"ail":3909,"ikake":3910,"ĠisinÃ©":3911,"ftar":3912,"Ġayam":3913,"Ġthomas":3914,"Ġconto":3915,"Ġtir":3916,"ipp":3917,"rib":3918,"Ġwalik":3919,"Ġjav":3920,"itasi":3921,"Ġkapindh":3922,"Ġspec":3923,"iaceae":3924,"eo":3925,"ĠÎ":3926,"Ġtit":3927,"ĠtÃ¨h":3928,"Ġgedhe":3929,"Ġjumlah":3930,"ĠtengenÃ©":3931,"Ġbra":3932,"uji":3933,"ancang":3934,"Ġest":3935,"ett":3936,"Ġprodh":3937,"Ġnusa":3938,"Ġancas":3939,"ria":3940,"Ġkawentar":3941,"Ġsajrone":3942,"iforn":3943,"Ġhub":3944,"Ġhib":3945,"Ġboj":3946,"Ġnamanipun":3947,"Ġpenj":3948,"ĠwujudÃ©":3949,"Ġsari":3950,"ism":3951,"Ġprajurit":3952,"Ġkreteg":3953,"ks":3954,"ultan":3955,"Ġmartin":3956,"Ġmenengah":3957,"Ġmill":3958,"Ġhind":3959,"Ġsatunggiling":3960,"tim":3961,"Ġngan":3962,"Ġkedad":3963,"Ġkumpulan":3964,"Ġleft":3965,"ĠakÃ¨hÃ©":3966,"Ġrichard":3967,"Ġpil":3968,"Ã©p":3969,"akokakÃ©":3970,"Ġrest":3971,"umen":3972,"Ġmanch":3973,"Ġmaluku":3974,"Ġdijenengi":3975,"Ġsastrawan":3976,"Ġadicara":3977,"Ġnatur":3978,"Ã©bas":3979,"Ġwac":3980,"umÃ¨n":3981,"Ġhat":3982,"Ġwohan":3983,"Ġmms":3984,"Ġsumatera":3985,"Ġfi":3986,"Ġberg":3987,"Ð°Ð":3988,"Ġpari":3989,"ĠkalÃ¨ndher":3990,"andi":3991,"Ġarah":3992,"Ġzat":3993,"Ġpubl":3994,"Ġdisi":3995,"Ġjangan":3996,"Ġsekret":3997,"Ġsangisor":3998,"ates":3999,"Ġpref":4000,"uddin":4001,"Ġparing":4002,"Ġbrit":4003,"Ġkakuw":4004,"Ġngir":4005,"Ġcaliforn":4006,"Ġmos":4007,"alitas":4008,"urt":4009,"Ġguwa":4010,"teri":4011,"grey":4012,"Ġvirus":4013,"go":4014,"aru":4015,"Ġnyerat":4016,"Ġantropologi":4017,"erp":4018,"eria":4019,"uwan":4020,"Ġann":4021,"Ġcons":4022,"ĠndadÃ¨kakÃ©":4023,"Ġpirsani":4024,"jata":4025,"Ġkenth":4026,"Ġsci":4027,"Ġkesenian":4028,"Å«":4029,"Ġkew":4030,"ukak":4031,"Ġbunder":4032,"Ġsom":4033,"arat":4034,"Ġmid":4035,"abuhan":4036,"Ġadam":4037,"Ġglad":4038,"atik":4039,"Ġlamb":4040,"Ġbangk":4041,"Ġwah":4042,"ultur":4043,"olan":4044,"ĠpangÃ©ran":4045,"erto":4046,"Ġpunjer":4047,"air":4048,"bit":4049,"Ġwul":4050,"uwun":4051,"Ġmaria":4052,"Ġlife":4053,"adah":4054,"ova":4055,"Ġef":4056,"Ġdidol":4057,"ingal":4058,"Ġpram":4059,"ĠdipigunakakÃ©":4060,"Ġgriya":4061,"Ġhawa":4062,"Ġchampi":4063,"ebon":4064,"Ġchampions":4065,"Ġtik":4066,"Ġdipangg":4067,"ows":4068,"Ġadministratif":4069,"ington":4070,"Ġrun":4071,"emy":4072,"adosaken":4073,"Ġcalifornia":4074,"Ġlampung":4075,"Ġmaham":4076,"Ġpenerbangan":4077,"out":4078,"Ġrumiy":4079,"okteran":4080,"Ġlemak":4081,"ĠgÃ©nus":4082,"Ġsenyawa":4083,"Ġone":4084,"Ġjamb":4085,"Ġjantung":4086,"Ġhi":4087,"ĠumurÃ©":4088,"jian":4089,"arna":4090,"Ġcheck":4091,"Ġjagad":4092,"atuan":4093,"Ġnasi":4094,"agon":4095,"egah":4096,"Ġaktiv":4097,"Ġprinc":4098,"Ġkarier":4099,"Ã©ngin":4100,"Ġtransport":4101,"Ġdimasak":4102,"eus":4103,"Ġula":4104,"Ġayu":4105,"Ġbakar":4106,"Ġelek":4107,"Ġkapindho":4108,"Ġraw":4109,"Ġnyebut":4110,"Ġyak":4111,"Ġmarc":4112,"Ġanth":4113,"Ġbaku":4114,"aban":4115,"Å¡":4116,"iau":4117,"act":4118,"zo":4119,"uwana":4120,"Ġmend":4121,"ologis":4122,"off":4123,"Ġangin":4124,"Ġsejarah":4125,"Ġath":4126,"oten":4127,"Ġvis":4128,"Ġpanulis":4129,"Ġberb":4130,"ongkok":4131,"Ġkari":4132,"ym":4133,"Ġtani":4134,"Ġluhur":4135,"uler":4136,"Ġpersi":4137,"tern":4138,"Ġmaragani":4139,"chen":4140,"lamet":4141,"Ġpatung":4142,"Ġfamili":4143,"Ġcalon":4144,"Ġngayogyakarta":4145,"ward":4146,"Ġpay":4147,"Ġjarak":4148,"Ġron":4149,"Ġhigh":4150,"Ġfrance":4151,"Ġofficial":4152,"ahing":4153,"emon":4154,"hio":4155,"Ġpolip":4156,"Ġepisode":4157,"Ġast":4158,"eau":4159,"Ġjamur":4160,"ĠbapakÃ©":4161,"Ġgandum":4162,"Ġtol":4163,"ĠtÃ©l":4164,"Ġala":4165,"tasi":4166,"Ġmateng":4167,"Ġjac":4168,"Ġjenenge":4169,"Ġmadeg":4170,"sus":4171,"asih":4172,"Äį":4173,"hid":4174,"iwati":4175,"Ġdiwasa":4176,"Ġtegal":4177,"Ġadhem":4178,"via":4179,"aringi":4180,"Ġdidh":4181,"Ġsakiwa":4182,"Ġdipunyasa":4183,"Ġwiyar":4184,"esna":4185,"Ġpulau":4186,"Ġgedhang":4187,"astani":4188,"lad":4189,"iwan":4190,"Ġmenawa":4191,"Ġmbentuk":4192,"uangan":4193,"Ġfos":4194,"Ġananging":4195,"iden":4196,"Ġasp":4197,"Ġgod":4198,"Ġdha":4199,"Ġpertahanan":4200,"Ġxs":4201,"Ġlimrah":4202,"Ġrit":4203,"ven":4204,"Ġmahamantri":4205,"Ġbill":4206,"Ġtun":4207,"Ġcast":4208,"elang":4209,"Ġsadurunge":4210,"Ġgamelan":4211,"Ġshow":4212,"impinan":4213,"unjuk":4214,"arti":4215,"Ġatl":4216,"Ġmaca":4217,"Ġpabrik":4218,"ĠmaskapÃ©":4219,"ix":4220,"Ġnuk":4221,"Ġjaran":4222,"Ġnyebab":4223,"Ġnjupuk":4224,"Ġplot":4225,"Ġukara":4226,"Ġkorea":4227,"Ġdinasti":4228,"Ġkodhe":4229,"Ġlombok":4230,"eet":4231,"ated":4232,"Ġpictures":4233,"Ġcent":4234,"Ġtilas":4235,"ĠdhuwurÃ©":4236,"Ġwadya":4237,"Ġsemb":4238,"Ġchann":4239,"andhing":4240,"Ġdibangun":4241,"Ġsamud":4242,"Ġprofil":4243,"Ġmodel":4244,"Ġkalamangsa":4245,"san":4246,"entina":4247,"Ġngemot":4248,"Ġmliginipun":4249,"Ġsadulur":4250,"Ġregi":4251,"Ġpra":4252,"Ġinchi":4253,"yab":4254,"Ġkeh":4255,"Ġbil":4256,"ontenaken":4257,"Ġprabawa":4258,"Ġungg":4259,"Ġpon":4260,"arb":4261,"Ġjin":4262,"Ġnyany":4263,"Ġmemb":4264,"anth":4265,"iyat":4266,"Ġakhir":4267,"adÃ©nÃ©":4268,"okrat":4269,"Ġvo":4270,"ensis":4271,"Ġrama":4272,"Ġout":4273,"Ġjagung":4274,"Ġmap":4275,"elle":4276,"Ġdibintangi":4277,"Ġpupuh":4278,"Ġcheckbox":4279,"bi":4280,"Ġding":4281,"Ġdani":4282,"egara":4283,"Ġkalah":4284,"Ġdipunr":4285,"Ġmakaten":4286,"Ġpaj":4287,"ition":4288,"umsi":4289,"apuk":4290,"ista":4291,"Ġtiongkok":4292,"user":4293,"Ġbiologi":4294,"Ġkanker":4295,"ike":4296,"pen":4297,"Ġkond":4298,"isa":4299,"ubeng":4300,"Ġsaus":4301,"Ġmaster":4302,"Ġpertanian":4303,"Ġdicampur":4304,"Ġkg":4305,"ury":4306,"Ġcu":4307,"antik":4308,"ĠdÃ¨wi":4309,"col":4310,"Ġkendh":4311,"Ġpng":4312,"Ġmeh":4313,"ato":4314,"uruan":4315,"Ġseng":4316,"Ġrumiyin":4317,"Ġner":4318,"Ġtime":4319,"ungkur":4320,"Ġmunggah":4321,"Ġlight":4322,"yuh":4323,"Ġlep":4324,"Ġwengi":4325,"anggit":4326,"Ġcirebon":4327,"ĠtÃ©mb":4328,"Ġpp":4329,"esis":4330,"ipt":4331,"apake":4332,"ovi":4333,"Ġmajalah":4334,"Ġcabang":4335,"Ġlev":4336,"ĠmodhÃ¨r":4337,"Ġnusantara":4338,"ä¸":4339,"Ġwind":4340,"Ġyoung":4341,"Ġjoseph":4342,"Ġmovie":4343,"ĠwÃ¨b":4344,"ague":4345,"Ġhit":4346,"Ġoy":4347,"ĠuripÃ©":4348,"ild":4349,"Ġdhok":4350,"inaoni":4351,"Ġpeter":4352,"ĠndhÃ¨rÃ¨k":4353,"Ġadip":4354,"Ġbro":4355,"Ġsebagai":4356,"Ġserbia":4357,"Ġkompetisi":4358,"Ġsemp":4359,"oyo":4360,"Ġpustaka":4361,"ĠbÃ©bas":4362,"Ġanggur":4363,"Ġdilakoni":4364,"Ġdunya":4365,"Ġtigang":4366,"Ġjalaran":4367,"ns":4368,"Ġhard":4369,"Ġchannel":4370,"Ġdas":4371,"asani":4372,"mark":4373,"Ġcag":4374,"Ġroman":4375,"ery":4376,"Ġmassa":4377,"Ġlegend":4378,"tis":4379,"ĠngÃ¨l":4380,"ajib":4381,"Ġbebr":4382,"Ġkucing":4383,"Ġsimp":4384,"Ġbengk":4385,"Ã©ri":4386,"Ġpahlawan":4387,"Ġemb":4388,"andur":4389,"Ġtoko":4390,"Ã±":4391,"Ġpor":4392,"ebr":4393,"Ġordo":4394,"ombang":4395,"Ġketurunan":4396,"Ġboe":4397,"Ġmadrid":4398,"Ġgirl":4399,"Ġnindakaken":4400,"Ġtujuan":4401,"Ġbun":4402,"Ġnan":4403,"Ġremen":4404,"Ġkasusun":4405,"Ġshar":4406,"ÙĬ":4407,"Ġkapanggih":4408,"Ġpangl":4409,"Ġmesthi":4410,"rom":4411,"Ġemail":4412,"Ġproduc":4413,"Ġpoliponik":4414,"Ġpangk":4415,"ultanan":4416,"car":4417,"uga":4418,"Ġpribadi":4419,"Ġasi":4420,"uss":4421,"ukis":4422,"old":4423,"Ġasu":4424,"uang":4425,"ihak":4426,"Ġluar":4427,"Ġmolek":4428,"Ġhon":4429,"Ġnggabung":4430,"estasi":4431,"ertosi":4432,"Ġmedan":4433,"Ã¨nipun":4434,"Ġberk":4435,"Ġumat":4436,"ello":4437,"agean":4438,"Ġfisik":4439,"uch":4440,"à¸":4441,"Ġmunc":4442,"awak":4443,"Ġgot":4444,"Ġkaf":4445,"Ġfran":4446,"Ġacad":4447,"Ġerics":4448,"Ġasam":4449,"Ġsawen":4450,"engkuyung":4451,"Ġericsson":4452,"wal":4453,"Ġstate":4454,"suh":4455,"Ġlos":4456,"Ġhip":4457,"Ġkauripan":4458,"Ġklapa":4459,"Ġowahan":4460,"Ġyuswa":4461,"Ġbawana":4462,"als":4463,"awin":4464,"Ġgajah":4465,"Ġjay":4466,"Ġkapr":4467,"Ġbern":4468,"Ġseries":4469,"Ġoksi":4470,"Ġtradhisi":4471,"Ġnit":4472,"Ġgandha":4473,"rian":4474,"Ġpagel":4475,"Ġvitamin":4476,"az":4477,"Ġrol":4478,"uduk":4479,"iano":4480,"Ġpanggon":4481,"ĠmodhÃ¨l":4482,"Ġsungai":4483,"Ġnjaga":4484,"ektorat":4485,"Ġgin":4486,"Ġsukses":4487,"Ġnggawa":4488,"Ġada":4489,"Ġdipunwastani":4490,"fin":4491,"ega":4492,"Ġdhokter":4493,"Ġstev":4494,"Ġdigor":4495,"Ġtukang":4496,"Ġdec":4497,"Ã¨ktur":4498,"Ġned":4499,"Ġorder":4500,"ohan":4501,"Ġatas":4502,"Ġzo":4503,"Ġsosi":4504,"Ġsiti":4505,"Ġkatingal":4506,"Ġpern":4507,"Ġbener":4508,"Ġkod":4509,"Ġperingkat":4510,"Ġninggal":4511,"ondo":4512,"Ġkoloni":4513,"Ġbulan":4514,"Ġbert":4515,"Ġkamar":4516,"Ġvariasi":4517,"Ġig":4518,"Ġmuk":4519,"Ġlawang":4520,"eland":4521,"Ġgarwa":4522,"Ġsac":4523,"Ġfilsa":4524,"Ġngandhap":4525,"Ġkentang":4526,"Ġtumindak":4527,"Ġfitur":4528,"Ġmanajemen":4529,"Ġngad":4530,"Ġalami":4531,"iwara":4532,"Ġgray":4533,"Ġdisk":4534,"Ġmungk":4535,"Ġkain":4536,"Ġsimbol":4537,"Ġlakon":4538,"Ġgladri":4539,"Ġlimrahipun":4540,"Ġlunga":4541,"Ã¨mper":4542,"Ġaustria":4543,"zh":4544,"enia":4545,"Ġperg":4546,"Ġkuliah":4547,"Ġblora":4548,"Ġseger":4549,"Ġtahu":4550,"Ġkono":4551,"Ġbuntut":4552,"ekar":4553,"Ġngerti":4554,"oul":4555,"Ã©ta":4556,"Ġwond":4557,"Ġbagean":4558,"Ġserangan":4559,"Ġadministrasi":4560,"Ġfilsafat":4561,"erangan":4562,"Ġhas":4563,"Ġhay":4564,"Ġpeta":4565,"Ġpatang":4566,"Ġdhial":4567,"ui":4568,"Ġkah":4569,"Ġback":4570,"Ġkamard":4571,"Ġonline":4572,"Ġsunda":4573,"Ġwr":4574,"Ġgandh":4575,"Ġsarjana":4576,"erusakÃ©":4577,"ĠmodhÃ¨ren":4578,"Ġboeing":4579,"ĠsawenÃ¨h":4580,"Ġkemp":4581,"itif":4582,"Ġkatelu":4583,"Ġkoord":4584,"Ġdark":4585,"atis":4586,"Ġngaj":4587,"Ġkasar":4588,"ty":4589,"ipat":4590,"Ġngendi":4591,"utif":4592,"Ġterm":4593,"ĠambanÃ©":4594,"Ġlayar":4595,"Ġpagelaran":4596,"Ġfeb":4597,"ujur":4598,"Ġpenulis":4599,"Ã¨ran":4600,"ĠsawijinÃ©":4601,"Ġkagem":4602,"cak":4603,"Ġlayang":4604,"Ġsepuh":4605,"ĠdianakakÃ©":4606,"Ã©in":4607,"Ġiklan":4608,"amanan":4609,"Ġvictor":4610,"sc":4611,"Ġtft":4612,"Ġngadh":4613,"omot":4614,"Ġpakar":4615,"Ġtanduran":4616,"Ġpokok":4617,"Ġtampil":4618,"Ġlil":4619,"Ġbola":4620,"adilan":4621,"Ġcam":4622,"Ġngub":4623,"ukul":4624,"Ġaug":4625,"undur":4626,"Ġudan":4627,"Ġlimang":4628,"alaman":4629,"oris":4630,"oksi":4631,"onton":4632,"Ġmedia":4633,"alisasi":4634,"Ġwedhus":4635,"Ġtransportasi":4636,"gia":4637,"ulakÃ©":4638,"ope":4639,"ĠpungkasanÃ©":4640,"Ġsociety":4641,"Ġnamb":4642,"Ġcamb":4643,"Ġaliran":4644,"Ġcarl":4645,"Ġprakawis":4646,"Ġbecik":4647,"Ġmanchester":4648,"ĠtÃ©mbok":4649,"yal":4650,"Ġsara":4651,"Ġded":4652,"Ġkababar":4653,"ungkus":4654,"Ġdhuwit":4655,"Ġtumb":4656,"ebl":4657,"Ġpemil":4658,"Ġmilan":4659,"pres":4660,"Ġsirah":4661,"Ġnuduhake":4662,"Ġobjek":4663,"Ġsqu":4664,"ution":4665,"Ġhim":4666,"Ġberlin":4667,"Ġstandar":4668,"Ġnatural":4669,"Ġdunung":4670,"Ġtangga":4671,"Ġantar":4672,"Ã©kÃ©":4673,"Ġmburi":4674,"indah":4675,"urn":4676,"Ġfik":4677,"ayana":4678,"Ġspider":4679,"Ġditind":4680,"Ã³n":4681,"Ġpihak":4682,"usia":4683,"Ġpakistan":4684,"Ã¡n":4685,"Ġayat":4686,"Ġbogor":4687,"lav":4688,"zu":4689,"ĠÃ¨k":4690,"erl":4691,"Ġgat":4692,"Ġjim":4693,"Ġdigital":4694,"Ġklasik":4695,"Ġnglampahi":4696,"Ġkomunikasi":4697,"Ġtub":4698,"urm":4699,"ument":4700,"Ġsaluran":4701,"Ġcolumb":4702,"baik":4703,"ÅŁ":4704,"ĠÃ¨ks":4705,"aning":4706,"Ġtenaga":4707,"ĠmÃ©dh":4708,"Ã£":4709,"Ġpd":4710,"Ġdasar":4711,"Ġhill":4712,"main":4713,"ĠsuwÃ©nÃ©":4714,"Ġsoc":4715,"Ġrap":4716,"elis":4717,"akr":4718,"Ġanat":4719,"Ġstart":4720,"Ġglobal":4721,"akar":4722,"Ġtu":4723,"Ġrod":4724,"Ġcenter":4725,"ukung":4726,"Ġterbaik":4727,"Ġilang":4728,"gar":4729,"uritan":4730,"Ġrub":4731,"Ġiklim":4732,"ĠdipÃ©rang":4733,"Ġkawiwit":4734,"Ġopen":4735,"Ġhamatal":4736,"Ġhamataliwa":4737,"nia":4738,"Ġmundh":4739,"atori":4740,"able":4741,"Ġbox":4742,"rad":4743,"Ġkamb":4744,"ulasi":4745,"Ġbuah":4746,"eki":4747,"Ġserial":4748,"Ġactor":4749,"Ġtartamtu":4750,"aharan":4751,"uranÃ©":4752,"yap":4753,"Ġpriya":4754,"Ġsax":4755,"Ġpow":4756,"Ġteh":4757,"Ġlen":4758,"Ġjasa":4759,"Ġhil":4760,"Ġhir":4761,"Ġfre":4762,"til":4763,"Ġnic":4764,"Ġrangk":4765,"Ġpundi":4766,"Ġminangk":4767,"Ġditepung":4768,"Ġsesirah":4769,"Ġversion":4770,"Ġoxyopes":4771,"ck":4772,"lar":4773,"Ġwau":4774,"Ã¨ri":4775,"ukur":4776,"Ġdiyasa":4777,"Ġabot":4778,"Ġmusim":4779,"Ġraden":4780,"Ġteater":4781,"ĠprotÃ©in":4782,"Ġalf":4783,"Ġnyak":4784,"ific":4785,"Ïģ":4786,"Ġfac":4787,"Ġhall":4788,"Ġmary":4789,"Ġnomor":4790,"ĠbÃ¨nten":4791,"Ġmedh":4792,"erg":4793,"Ġcand":4794,"Ġngand":4795,"Ġperm":4796,"try":4797,"Ġaman":4798,"Ġhenry":4799,"sch":4800,"Ġrup":4801,"Ġfot":4802,"Ã©la":4803,"Ġketh":4804,"Ġdirektorat":4805,"Ġgroup":4806,"ĠgolÃ¨k":4807,"Ġtipis":4808,"Ġlol":4809,"Ġnabi":4810,"Ġgil":4811,"Ġasl":4812,"Ġmax":4813,"Ġberkas":4814,"Ġkawit":4815,"Ġpeth":4816,"Ġdesember":4817,"Ġdoc":4818,"ison":4819,"Ġimp":4820,"Ġharry":4821,"lor":4822,"Ġrant":4823,"agangan":4824,"Ġash":4825,"Ġnews":4826,"Ġwadyab":4827,"jah":4828,"Ġkob":4829,"ĠdawanÃ©":4830,"Ġwus":4831,"abel":4832,"Ġnged":4833,"uck":4834,"Ġrestoran":4835,"ric":4836,"Ġtambah":4837,"Ġngil":4838,"tian":4839,"ĠnovÃ¨mber":4840,"ĠanakÃ©":4841,"epan":4842,"Ã¨hakÃ©":4843,"Ġundhang":4844,"Ġmlaku":4845,"Ġsamudra":4846,"itz":4847,"Ġcin":4848,"Ġyear":4849,"Ġdirektur":4850,"ĠibunÃ©":4851,"Ä«":4852,"Ġnel":4853,"ull":4854,"Ġarj":4855,"Ġfranc":4856,"Ġtebih":4857,"str":4858,"Ġwel":4859,"Ġtaiwan":4860,"odhog":4861,"kin":4862,"Ġé":4863,"Ġson":4864,"Ġkapadh":4865,"inda":4866,"Ġhidr":4867,"Ġnorman":4868,"Ġdana":4869,"abil":4870,"Ġsatu":4871,"Ġbalai":4872,"Ġprefektur":4873,"Ġbebrayan":4874,"Ġkawiwitan":4875,"ason":4876,"Ġmasy":4877,"Ġton":4878,"Ġroh":4879,"Ġalum":4880,"ĠnduwÃ¨ni":4881,"Ġweteng":4882,"eong":4883,"zim":4884,"Ġub":4885,"Ġminyak":4886,"Ġformat":4887,"Ġakibat":4888,"Ġprasaja":4889,"Ġtropis":4890,"Ġkamardikan":4891,"du":4892,"een":4893,"osh":4894,"Ġaqu":4895,"ection":4896,"alisme":4897,"Ġdipunparingi":4898,"Ġpip":4899,"Ġmisi":4900,"Ġutamane":4901,"avor":4902,"Ġngrampung":4903,"asarakÃ©":4904,"Ġassoci":4905,"Ġsop":4906,"Ġtid":4907,"ahe":4908,"atau":4909,"Ġmungsuh":4910,"Ġrecord":4911,"Ġngayahi":4912,"alik":4913,"Ġnyegah":4914,"Ġkursi":4915,"Ġkecamatan":4916,"dy":4917,"Ġent":4918,"Ġtulis":4919,"Ġven":4920,"ithak":4921,"lus":4922,"Ġtut":4923,"Ġlad":4924,"asari":4925,"Ġpenduduk":4926,"Ġtump":4927,"Ġwash":4928,"Ġndamel":4929,"inggal":4930,"Ġsetengah":4931,"Ġsya":4932,"Ġdet":4933,"ahipun":4934,"owahi":4935,"Ġkilom":4936,"Ã¸y":4937,"Ùħ":4938,"Ġsosis":4939,"Ġnorm":4940,"Ġgall":4941,"osan":4942,"eam":4943,"utra":4944,"ege":4945,"Ġbabad":4946,"Ġsiswa":4947,"Ġfilmografi":4948,"Ġwadyabala":4949,"kak":4950,"ĠmÃ©t":4951,"ĠnduwÃ©ni":4952,"Ġkapadhetan":4953,"esa":4954,"Ġparl":4955,"Ġenc":4956,"Ġgolden":4957,"eksan":4958,"Ġlive":4959,"ĠkaryanÃ©":4960,"Ġgayutan":4961,"Ġkertas":4962,"Ġgegayutan":4963,"Ġmuncul":4964,"ender":4965,"Ġzh":4966,"Ġtradisi":4967,"ĠtÃ©lÃ©":4968,"Ġsanta":4969,"Ġbed":4970,"ush":4971,"Ġhem":4972,"ekak":4973,"Ġargentina":4974,"pt":4975,"Î¹":4976,"Ġcangk":4977,"ajengaken":4978,"Ġketemu":4979,"Ġleague":4980,"udha":4981,"Ġsmith":4982,"Ġmurid":4983,"Ġruang":4984,"Ġpsik":4985,"Ã¨dhen":4986,"Ġsanto":4987,"elar":4988,"Ġbayi":4989,"Ġbaj":4990,"Ġwangs":4991,"Ġyay":4992,"Ġmars":4993,"rem":4994,"Ġpimpinan":4995,"ĠmÃ¨mper":4996,"Ġingaran":4997,"atÃ¨ni":4998,"Ġirlandia":4999,"Ġajaran":5000,"Ġgreat":5001,"Ġpadhang":5002,"Ġadipati":5003,"agem":5004,"Ġdhiri":5005,"Ġlip":5006,"ister":5007,"Ã¨f":5008,"Ġriau":5009,"Ġinti":5010,"ĠswÃ¨dhen":5011,"Ġmateri":5012,"Ġjawab":5013,"ography":5014,"cal":5015,"Ġnav":5016,"Ġpro":5017,"Ġkomedi":5018,"Ġswasta":5019,"Ġreaksi":5020,"Ġcatalog":5021,"Ġpasif":5022,"erk":5023,"urat":5024,"Ġdiam":5025,"Ġorig":5026,"ĠÑ":5027,"Ġdpr":5028,"Ġnig":5029,"Ġjep":5030,"Ġasm":5031,"Ġpangaji":5032,"Ġza":5033,"cel":5034,"mb":5035,"aturan":5036,"Ġjalan":5037,"uwasani":5038,"Ġvinc":5039,"Ġnyinaoni":5040,"Ġmili":5041,"ĠlÃ¨r":5042,"yaya":5043,"krip":5044,"Ġgantos":5045,"Ġmei":5046,"Ġsugih":5047,"win":5048,"Ġkyai":5049,"akh":5050,"okus":5051,"entara":5052,"Ġnyat":5053,"Ġkakawin":5054,"Ġkontrak":5055,"Ġbbc":5056,"oi":5057,"Ġmg":5058,"Ġji":5059,"eli":5060,"Ġgedhong":5061,"anye":5062,"Ġditampa":5063,"Ġpier":5064,"Ġrobot":5065,"Ġpiring":5066,"Ġmagelang":5067,"Ġmotif":5068,"ridge":5069,"ĠtÃ¨knologi":5070,"Ġmolekul":5071,"ĠbÃ¨k":5072,"Ġrs":5073,"emÃ¨n":5074,"Ġkapit":5075,"Ġwontenipun":5076,"Ġpemilu":5077,"muwan":5078,"Ġç":5079,"Ġnad":5080,"Ġirisan":5081,"Ġsemi":5082,"Ġobahan":5083,"Ġbathara":5084,"Ġsend":5085,"ele":5086,"ette":5087,"agn":5088,"sion":5089,"unaan":5090,"Ġstudio":5091,"Ġkaryanipun":5092,"Ġproyek":5093,"Ã£o":5094,"ball":5095,"jen":5096,"Ġkembar":5097,"Ġfasil":5098,"Ġarang":5099,"Ġpuj":5100,"Ġgangg":5101,"apakÃ©":5102,"Ġdiangkat":5103,"Ġoe":5104,"Ġukra":5105,"Ġkaki":5106,"Ġjumeneng":5107,"Ġgreen":5108,"Ġsalebetipun":5109,"Ġpublik":5110,"Ġmup":5111,"Ġperp":5112,"ops":5113,"eaux":5114,"Ġusul":5115,"Ġroyal":5116,"Ġsekretaris":5117,"Ġumb":5118,"Ġsew":5119,"ink":5120,"Ġriver":5121,"Ġgood":5122,"Ġkeg":5123,"Ġbint":5124,"Ġrib":5125,"Ġregion":5126,"Ġdok":5127,"ĠmÃ¨h":5128,"Ġmeks":5129,"Ġapp":5130,"Ġpasir":5131,"Ġgerakan":5132,"Ġlogam":5133,"ĠÃ¨lÃ¨k":5134,"wood":5135,"Ġsib":5136,"Ġpont":5137,"Ġbambang":5138,"Ġnemu":5139,"Ġsaind":5140,"Ã¼n":5141,"Ġdod":5142,"Ġbig":5143,"Ġwesi":5144,"Ġrud":5145,"usa":5146,"Ġorang":5147,"Ġbudi":5148,"Ġdaftar":5149,"Ġdesa":5150,"ĠkomponÃ¨n":5151,"Ġbritish":5152,"jeng":5153,"Ġgendh":5154,"Ġkarbon":5155,"Ġasin":5156,"ters":5157,"undang":5158,"Ġsijining":5159,"war":5160,"Ġaja":5161,"Ġlint":5162,"Ġbanten":5163,"Ġwon":5164,"angkala":5165,"Ġanimasi":5166,"ĠtÃ©lÃ©visi":5167,"Ġhav":5168,"Ġsteph":5169,"Ġpangr":5170,"Ġulama":5171,"Ġraks":5172,"Ġcacahing":5173,"Ġhouse":5174,"Ġbubuk":5175,"ejo":5176,"Ġwarsa":5177,"Ġbatang":5178,"Ġsipil":5179,"hip":5180,"aharajan":5181,"Ġngalah":5182,"Ġhow":5183,"ando":5184,"Ġvert":5185,"ative":5186,"Ġbalik":5187,"Ġterj":5188,"reen":5189,"Ġditemokake":5190,"Ġpakaryan":5191,"Ġditepungi":5192,"Ġsebu":5193,"Ġjak":5194,"iwi":5195,"Ġkro":5196,"Ġkris":5197,"Ġdipasang":5198,"Ġmerah":5199,"Ġsedaya":5200,"Ġlangu":5201,"Ġvirg":5202,"Ġoffice":5203,"Ġmemp":5204,"atÃ©":5205,"Ġgangsal":5206,"ubuwana":5207,"Ġpitung":5208,"Ġnarik":5209,"Ġkinten":5210,"Ġnganc":5211,"Ġkabeh":5212,"Ġpitu":5213,"Ġwalikutha":5214,"Ġwashington":5215,"Ġmeksiko":5216,"eak":5217,"erÃ©":5218,"Ġraf":5219,"iff":5220,"Ġtekanan":5221,"Ġclub":5222,"Ġcharl":5223,"Ġnyanyi":5224,"ĠmÃ©dhia":5225,"Ġlul":5226,"Ġngingg":5227,"Ġchin":5228,"Ġyayasan":5229,"Ġsebuah":5230,"ning":5231,"val":5232,"Ġpamir":5233,"Ġbid":5234,"etron":5235,"Ġawan":5236,"akit":5237,"atinÃ©":5238,"ahu":5239,"Ġgerb":5240,"Ġalon":5241,"Ġstaf":5242,"Ġsinar":5243,"Ġë":5244,"ering":5245,"Ġdhaharan":5246,"Ġmanunggal":5247,"anci":5248,"Ġpanggung":5249,"angunipun":5250,"Ġwhite":5251,"Ġkamaharajan":5252,"aksanan":5253,"Ġsuara":5254,"Ãł":5255,"Ġtep":5256,"Ġbata":5257,"Ġhati":5258,"aksana":5259,"ÏĤ":5260,"inus":5261,"ikal":5262,"Ġhd":5263,"Ġprem":5264,"Ġmenj":5265,"Ġdiganti":5266,"Ġparu":5267,"Ġngliwati":5268,"Ġsite":5269,"ĠukuranÃ©":5270,"Ġliverp":5271,"Ġmbiyantu":5272,"Ġvokal":5273,"Ġjati":5274,"Ġendi":5275,"Ġburg":5276,"Ġsingle":5277,"Ġperemp":5278,"Ġkompas":5279,"Ġwidth":5280,"Ġsuj":5281,"Ġnek":5282,"ces":5283,"Ġwib":5284,"Ġremb":5285,"Ġug":5286,"erson":5287,"Ġtegesipun":5288,"Ġfasilitas":5289,"á»":5290,"itung":5291,"Ġhis":5292,"Ġhyang":5293,"Ġdangu":5294,"Ġliverpool":5295,"áĥ":5296,"Ġkaloka":5297,"umbang":5298,"Ġfrancis":5299,"Ġsundha":5300,"Ġmich":5301,"ques":5302,"Ġndhik":5303,"Ġkekalih":5304,"Ġwacan":5305,"Ġngib":5306,"Ġfall":5307,"ajat":5308,"Ġeast":5309,"Ġpamenang":5310,"Ġpanjang":5311,"ÑģÐº":5312,"ĠwernanÃ©":5313,"ĠtuladhanÃ©":5314,"len":5315,"Ãº":5316,"Î½":5317,"Ġbeg":5318,"usak":5319,"Ð¾Ð²":5320,"Ġdaniel":5321,"ĠÃ©nd":5322,"Ġnight":5323,"Ġngangg":5324,"Ġindustri":5325,"Ġcrita":5326,"Ġotot":5327,"Ġslamet":5328,"Ġare":5329,"Ġarea":5330,"ardi":5331,"Ġsinetron":5332,"Ġduduh":5333,"gb":5334,"kt":5335,"Ġlun":5336,"ilia":5337,"Ġnganggep":5338,"Ã¨nt":5339,"Ġmanca":5340,"Ġpertalan":5341,"Ġsandhangan":5342,"mal":5343,"zy":5344,"Ġgem":5345,"Ġhand":5346,"Ġhari":5347,"Ġditerbit":5348,"je":5349,"Ġplus":5350,"Ġskala":5351,"Ġacademy":5352,"Ġkok":5353,"Ġsev":5354,"Ġduk":5355,"akon":5356,"iris":5357,"Ġhuru":5358,"acak":5359,"oduksi":5360,"Ġdipunmang":5361,"atorium":5362,"oke":5363,"ĠgorÃ¨ng":5364,"Ġnduweni":5365,"Ġngrembaka":5366,"ĠbÃ¨ker":5367,"Ġsaindenging":5368,"Ġpig":5369,"ĠnÃ©":5370,"Ġcd":5371,"Ġmenehi":5372,"Ġlogo":5373,"atus":5374,"edy":5375,"Ġnyoba":5376,"ĠprofÃ©si":5377,"Ġbasis":5378,"Ġtamu":5379,"Ġgraf":5380,"iny":5381,"Ġpri":5382,"ose":5383,"Ġkomisi":5384,"ĠanggÃ¨nipun":5385,"Ġjamu":5386,"Ã©ntah":5387,"Ġgeguritan":5388,"ĠcontonÃ©":5389,"eblug":5390,"uluk":5391,"Ġngup":5392,"Ġutami":5393,"Ã¦":5394,"Ġeg":5395,"Ġsant":5396,"ikakÃ©":5397,"truksi":5398,"Ġmarga":5399,"stein":5400,"Ġpelatih":5401,"ĠkesÃ©hatan":5402,"Ġlayanan":5403,"Ġdigoreng":5404,"deka":5405,"Ġnya":5406,"itor":5407,"Ġaq":5408,"Ġuntu":5409,"Ġjinising":5410,"Ġundang":5411,"Ġdor":5412,"Ġlub":5413,"Ġbell":5414,"Ġturnam":5415,"assar":5416,"Ġmandheg":5417,"ets":5418,"Ġkraj":5419,"unggu":5420,"Ġzona":5421,"Ġanggit":5422,"ĠØ§ÙĦØ":5423,"Ġsf":5424,"Ġwart":5425,"ĠdiadegakÃ©":5426,"Ã³w":5427,"ĠkilomÃ¨ter":5428,"inah":5429,"Ġnir":5430,"Ġprajan":5431,"Ġanj":5432,"Ġcaket":5433,"Ġassociation":5434,"gen":5435,"äº":5436,"Ġbp":5437,"erna":5438,"Ġwingk":5439,"Ġjust":5440,"apah":5441,"olo":5442,"Ġhus":5443,"Ġapi":5444,"Ġpola":5445,"Ġcla":5446,"Ġinstan":5447,"Ġpasifik":5448,"ĠprofÃ©sional":5449,"asaken":5450,"ador":5451,"Ġcultur":5452,"ĠdipasarakÃ©":5453,"Ġradhio":5454,"Ġfox":5455,"Ġmudhun":5456,"orasi":5457,"Ġganti":5458,"Ġngatur":5459,"omong":5460,"ude":5461,"Ġkompos":5462,"Ġjunior":5463,"Ġcepet":5464,"Ġgedung":5465,"sen":5466,"ĠÑģ":5467,"Ġjapan":5468,"Ġfat":5469,"egoro":5470,"Ġpemimpin":5471,"Ġfamilia":5472,"Ġwikip":5473,"Ġmasyarakat":5474,"Ġjour":5475,"Ġjangkep":5476,"Ġnyerang":5477,"Ġprodhuksi":5478,"oper":5479,"Ġindep":5480,"ijing":5481,"ĠpiyambakÃ©":5482,"Ġkeuangan":5483,"ÐµÐ":5484,"Ġaugust":5485,"Ġtas":5486,"erja":5487,"irik":5488,"Ġpuncak":5489,"Ġeropa":5490,"Ġorient":5491,"ĠngÃ¨lmiah":5492,"Ġix":5493,"Ġtari":5494,"Ġlengk":5495,"ulung":5496,"ants":5497,"Ġsaubeng":5498,"Ġmass":5499,"aranipun":5500,"Ġteles":5501,"Ġmadura":5502,"Ġbukti":5503,"Ġconc":5504,"Ġisa":5505,"Ġtaj":5506,"gayuh":5507,"ohol":5508,"Ġdrum":5509,"Ġpalest":5510,"ĠkancanÃ©":5511,"Ġportugal":5512,"Ġdistrib":5513,"Ġlolos":5514,"nick":5515,"Ġsig":5516,"Ġsind":5517,"Ġmong":5518,"odo":5519,"Ġkurban":5520,"Ġpungkasanipun":5521,"Ġsedulur":5522,"Ġraos":5523,"Ġkampus":5524,"led":5525,"Ġell":5526,"Ġsacara":5527,"ingen":5528,"Ġganda":5529,"Ġcuw":5530,"udo":5531,"tress":5532,"Ġmakassar":5533,"Ġflor":5534,"Ġmaju":5535,"Ġlabor":5536,"Ġarjuna":5537,"Ġkisah":5538,"anga":5539,"alam":5540,"ekutif":5541,"Ġkemawon":5542,"Ġdileb":5543,"Äķ":5544,"Ġkip":5545,"Ġprestasi":5546,"mann":5547,"Ġgold":5548,"Ġproses":5549,"Ġrasul":5550,"asifikasi":5551,"Ġefek":5552,"Ġbent":5553,"Ġrok":5554,"uts":5555,"Ġparam":5556,"Ġump":5557,"Ġshah":5558,"Ġhead":5559,"Ġfoot":5560,"Ġkabinet":5561,"Ġsaxony":5562,"Ġnyakup":5563,"Ġhuruf":5564,"Ġeb":5565,"Ġsapan":5566,"Ġpangkat":5567,"Ġty":5568,"iksa":5569,"Ġdipilih":5570,"Ġpelat":5571,"ropol":5572,"Ġjajanan":5573,"Ġtetan":5574,"ĠbÃ¨l":5575,"Ġway":5576,"Ġcre":5577,"okrasi":5578,"Ġpunapa":5579,"ahana":5580,"cha":5581,"min":5582,"oa":5583,"ÉĻ":5584,"Ġled":5585,"Ġngadeg":5586,"Ġkawig":5587,"Ġcount":5588,"Ġkadhangkala":5589,"Ġvolume":5590,"Ġcetha":5591,"Ġdhistrik":5592,"Ġsint":5593,"Ġgitar":5594,"okaken":5595,"Ġakb":5596,"Ġdipl":5597,"Ġlomba":5598,"Ġlist":5599,"Ġgan":5600,"ukus":5601,"Ġold":5602,"Ġdipuntepang":5603,"Ġportugis":5604,"Ġcocog":5605,"Ġhubungan":5606,"oe":5607,"Ġwangsa":5608,"Ġhum":5609,"Ġnyekel":5610,"Ġsapa":5611,"Ġolimpi":5612,"Ġmakna":5613,"Ġulang":5614,"iat":5615,"Ġkaka":5616,"Ġpint":5617,"Ġdah":5618,"ĠnerusakÃ©":5619,"Ġrencana":5620,"esangan":5621,"app":5622,"Ġdiad":5623,"Ġkaraton":5624,"Ġod":5625,"Ġpenumpang":5626,"Ġukum":5627,"Ġmuhammadiyah":5628,"utupi":5629,"ĠdhialÃ¨k":5630,"Ġmess":5631,"Ġnab":5632,"Ġcos":5633,"Ġkarangan":5634,"Ġperju":5635,"Ġsalam":5636,"Ġsemangat":5637,"Ġbulg":5638,"Ġentuk":5639,"enge":5640,"Ġprom":5641,"Ġuuri":5642,"Ġyes":5643,"Ġkasun":5644,"field":5645,"Ġriyaya":5646,"ĠprotÃ¨s":5647,"ĠkarirÃ©":5648,"Ġbersama":5649,"Ġdipanggang":5650,"Ġpy":5651,"Ġngew":5652,"Ġhamb":5653,"odium":5654,"Ġsawah":5655,"Ġkasultanan":5656,"Ġpulisi":5657,"Ġcrit":5658,"Ãªn":5659,"Ġholland":5660,"Ġyam":5661,"Ġmusisi":5662,"Ġserv":5663,"Ġpersatuan":5664,"Ġstatist":5665,"rick":5666,"onc":5667,"Ġhasan":5668,"anding":5669,"ĠdidadÃ¨kakÃ©":5670,"uncur":5671,"Ġkudus":5672,"Ġatau":5673,"Ġdub":5674,"ingga":5675,"Ġproj":5676,"Ġsareng":5677,"Ġusus":5678,"Ġinternet":5679,"ercaya":5680,"Ġjepara":5681,"Ġrag":5682,"ict":5683,"Ġsport":5684,"Ġpost":5685,"Ġajang":5686,"Ġruslan":5687,"ĠsÃ¨pt":5688,"Ġgugus":5689,"Ġindepend":5690,"lish":5691,"sir":5692,"unjung":5693,"ulum":5694,"Ġoh":5695,"Ġsound":5696,"ĠcaranÃ©":5697,"ÙĪ":5698,"Ġnyi":5699,"Ġdigawa":5700,"Ġsenjata":5701,"Ġilmiah":5702,"ĠarsitÃ¨ktur":5703,"bal":5704,"ien":5705,"Ġsent":5706,"Ġgard":5707,"Ġcuc":5708,"Ġningkat":5709,"Ġaktivitas":5710,"urmatan":5711,"onya":5712,"Ġnl":5713,"Ġnak":5714,"Ġrc":5715,"Ġrog":5716,"enggan":5717,"Ġveg":5718,"Ġpemenang":5719,"Ġperkembangan":5720,"Ġsund":5721,"agen":5722,"Ġvill":5723,"Ġbarb":5724,"Ġabout":5725,"Ġaturan":5726,"astik":5727,"Ġflash":5728,"Ġkakung":5729,"Ġremaja":5730,"Ġraksasa":5731,"ekan":5732,"Ġasing":5733,"Ġthat":5734,"ovo":5735,"Ġwarn":5736,"lir":5737,"ĠÃ©t":5738,"Ġlent":5739,"enÃ©":5740,"Ġneb":5741,"uto":5742,"umum":5743,"anggung":5744,"Ġmini":5745,"Ġminor":5746,"ĠsÃ¨ptÃ¨mber":5747,"po":5748,"arap":5749,"Ġler":5750,"erti":5751,"Ġwulu":5752,"Ġabb":5753,"Ġantarane":5754,"Ġmitologi":5755,"Ġlembah":5756,"Ġdipunmangertosi":5757,"ĠkÃ©m":5758,"Ġwiy":5759,"Ġnaga":5760,"Ġsoekar":5761,"Ġmangkun":5762,"Ġtindak":5763,"oku":5764,"Ġvon":5765,"Ġsesanti":5766,"Ġplatnick":5767,"ĠnggambarakÃ©":5768,"Ã©dh":5769,"Ġbomb":5770,"iring":5771,"Ġnyuwun":5772,"Ġmendh":5773,"Ġngurangi":5774,"Ġdisiapake":5775,"Ġpamirsa":5776,"Ġjung":5777,"Ġjama":5778,"Ġfol":5779,"Ġperb":5780,"Ġalign":5781,"tro":5782,"ugr":5783,"Ġkhan":5784,"Ġseoul":5785,"Ġburuh":5786,"Ġmineral":5787,"tions":5788,"Ġirak":5789,"Ġsisa":5790,"ĠlarÃ©":5791,"ville":5792,"Ġè":5793,"Ġstan":5794,"stem":5795,"Ġblok":5796,"ĠskÃ©n":5797,"ophy":5798,"Ġaraneae":5799,"ĠdhÃ©mokrat":5800,"Ġperjuangan":5801,"eal":5802,"lok":5803,"Ã©yan":5804,"Ġlsp":5805,"Ġbeksan":5806,"Ġwanci":5807,"Ġric":5808,"Ġpramil":5809,"owo":5810,"Ġnovel":5811,"Ġtugu":5812,"Ġkoordin":5813,"ĠÃ¨ksp":5814,"mon":5815,"Ġangsal":5816,"Ġpindah":5817,"Ġmundur":5818,"ĠtÃ¨ks":5819,"ines":5820,"Ġngab":5821,"olik":5822,"Ġunik":5823,"ĠpanggÃ¨nan":5824,"esse":5825,"Ġedward":5826,"Ġfaktor":5827,"Ġgabungan":5828,"fr":5829,"wara":5830,"wich":5831,"asana":5832,"olia":5833,"arth":5834,"asaan":5835,"Ġaur":5836,"Ġleo":5837,"Ġkebud":5838,"Ġinstitute":5839,"Ġdayak":5840,"Ġcambridge":5841,"Ġcorn":5842,"Ġfed":5843,"ube":5844,"Ġbatur":5845,"Ġkulawarg":5846,"roning":5847,"Ġcollege":5848,"bul":5849,"rab":5850,"Ġdua":5851,"antun":5852,"Ġdipunanggep":5853,"Ġpamimpin":5854,"Ġmrat":5855,"Ġngibadah":5856,"pe":5857,"vel":5858,"ĠÃ¨f":5859,"Ġfort":5860,"Ġimag":5861,"Ġtipe":5862,"ĠsaubengÃ©":5863,"aptar":5864,"Ġhulu":5865,"Ġperl":5866,"ardo":5867,"ĠpapanÃ©":5868,"Ã®":5869,"Ġkey":5870,"Ġsanten":5871,"Ġjun":5872,"odhe":5873,"Ġsasuw":5874,"Ġsemu":5875,"Ġmadu":5876,"Ġinformation":5877,"Î»":5878,"Ġwed":5879,"Ġwho":5880,"Ġanalis":5881,"Ġsalad":5882,"Ġkabangs":5883,"Ġmboten":5884,"Ġklambi":5885,"Ġklasifikasi":5886,"Ġwitan":5887,"ograf":5888,"Ġtegese":5889,"Ġekonomi":5890,"Ġpierre":5891,"raw":5892,"Ã«":5893,"Ġdigodhog":5894,"ĠÃ©ndah":5895,"arjo":5896,"Ã¨re":5897,"Ġdriji":5898,"Ġtekst":5899,"ĠkonsÃ¨p":5900,"Ġsebab":5901,"Ġqur":5902,"Ġhabit":5903,"Ġwingking":5904,"oja":5905,"Ġfm":5906,"Ġperh":5907,"edhiy":5908,"ivid":5909,"ĠwiwitanÃ©":5910,"Ġdipunwiwiti":5911,"zzo":5912,"Ġnedahaken":5913,"Ġfiksi":5914,"Ġpramila":5915,"ingali":5916,"Ġche":5917,"Ġmerc":5918,"Ġngawontenaken":5919,"Ġdisajikake":5920,"ĠpanalitÃ¨n":5921,"mond":5922,"volusi":5923,"Ġtown":5924,"ime":5925,"Ġmakluk":5926,"Ġmutus":5927,"color":5928,"ken":5929,"rich":5930,"Ġnu":5931,"Ġfavor":5932,"Ġkalangan":5933,"Ġchels":5934,"Ġadol":5935,"Ġnatal":5936,"Ġgelem":5937,"ĠduwÃ¨ni":5938,"Ġfirst":5939,"Ġcolumbia":5940,"ĠÃ©n":5941,"ĠkÃ¨":5942,"Ġsea":5943,"Ġkapungkur":5944,"ungguh":5945,"ugu":5946,"Ġatos":5947,"Ġpalakr":5948,"Ġsriw":5949,"Ġformula":5950,"ĠÃ¨nergi":5951,"Ġukraina":5952,"Ø¨":5953,"alo":5954,"ija":5955,"inton":5956,"Ġrekaman":5957,"Ġjabatan":5958,"Ġnampi":5959,"awangan":5960,"ots":5961,"andang":5962,"ody":5963,"Ġtengahan":5964,"Ġkabupaten":5965,"ertÃ¨ni":5966,"Ġstrat":5967,"Ġsinebut":5968,"Ġeuro":5969,"Ġchelsea":5970,"ĠpÃ¨rsi":5971,"ĠdÃ¨rÃ¨ng":5972,"olas":5973,"Ġinsp":5974,"entah":5975,"intah":5976,"Ġdagang":5977,"Ġgelombang":5978,"Ġdideleng":5979,"Ġkartini":5980,"row":5981,"Ġngundh":5982,"Ġvid":5983,"iwayat":5984,"Ġbrah":5985,"Ġwars":5986,"erteni":5987,"Ġalbert":5988,"Ġngasilaken":5989,"Ġjava":5990,"Ġmimpin":5991,"alap":5992,"esco":5993,"ayar":5994,"Ġbrand":5995,"Ġurusan":5996,"Ġdiwangun":5997,"Ġrusak":5998,"Ġsolo":5999,"Ġnjaluk":6000,"Ġcitra":6001,"Ġsaraf":6002,"Ġkp":6003,"akÃ¨n":6004,"Ġbeng":6005,"Ġci":6006,"Ġngas":6007,"araja":6008,"orida":6009,"Ġdipundh":6010,"Ġguy":6011,"Ġsenior":6012,"Ġcacahipun":6013,"Ġsimon":6014,"Ġterbuka":6015,"ĠhotÃ¨l":6016,"ĠsangisorÃ©":6017,"zar":6018,"Ġpom":6019,"assi":6020,"Ġfen":6021,"Ġactress":6022,"Ġvii":6023,"Ġpenyakit":6024,"ĠngetokakÃ©":6025,"Ġkandhutan":6026,"Ġcentral":6027,"Ġjanganan":6028,"bus":6029,"rani":6030,"isaran":6031,"Ġwuri":6032,"Ġperlu":6033,"Ġstory":6034,"Ġmlayu":6035,"Ġblue":6036,"Ã©san":6037,"Ġpalembang":6038,"ĠrasanÃ©":6039,"Ġjejuluk":6040,"ways":6041,"Ġpejabat":6042,"cul":6043,"Ã©e":6044,"Ġnata":6045,"Ġenglish":6046,"lung":6047,"Ġngam":6048,"ector":6049,"onsumsi":6050,"Ġurang":6051,"Ġsystem":6052,"Ġrega":6053,"Ġalexander":6054,"ĠsÃ¨k":6055,"alian":6056,"Ġnang":6057,"ihat":6058,"Ġyon":6059,"Ġvul":6060,"Ġvoc":6061,"Ġindivid":6062,"ivi":6063,"Ġmbantu":6064,"Ġcarol":6065,"Ġkadhang":6066,"rement":6067,"Ġpala":6068,"asinÃ©":6069,"Ġnuli":6070,"apati":6071,"aptasi":6072,"uban":6073,"Ġmenc":6074,"Ġdipercaya":6075,"Ġagami":6076,"Ġhiburan":6077,"Äĥ":6078,"ĠsÃ©":6079,"Ġdarah":6080,"enangan":6081,"Ġnggih":6082,"Ġtahap":6083,"Ġastronom":6084,"Ġkalawarta":6085,"Ġkalawarti":6086,"jang":6087,"tus":6088,"ĠpÃ©ngin":6089,"Ġrai":6090,"Ġrgb":6091,"Ġhu":6092,"Ġpring":6093,"edhik":6094,"Ġselat":6095,"Ġprofes":6096,"Ġabdullah":6097,"Ġkenthel":6098,"Ġtoy":6099,"Ġbav":6100,"onic":6101,"emah":6102,"olak":6103,"Ġthukul":6104,"Ġatm":6105,"Ġpengembangan":6106,"annes":6107,"Ġpublish":6108,"Ġritual":6109,"apahit":6110,"airan":6111,"zan":6112,"Ġsebutan":6113,"ĠpÃ©r":6114,"Ġdak":6115,"ete":6116,"ampuan":6117,"Ġkabut":6118,"Ġgrid":6119,"inggo":6120,"Ġpurn":6121,"Ġreca":6122,"bu":6123,"iga":6124,"Ġern":6125,"Ġkode":6126,"engipun":6127,"Ġmanc":6128,"Ġmargi":6129,"Ġmila":6130,"Ġmajapahit":6131,"Ġproject":6132,"Ġjeron":6133,"Ġpinter":6134,"Ġpekal":6135,"Ġandrew":6136,"lang":6137,"ĠÃ©d":6138,"Ġhend":6139,"achi":6140,"odi":6141,"Ġchur":6142,"cher":6143,"ever":6144,"tive":6145,"ĠaslinÃ©":6146,"hal":6147,"rot":6148,"Ġkoth":6149,"isip":6150,"emis":6151,"Ġwater":6152,"Ġobah":6153,"Ġbibli":6154,"Ġkandel":6155,"Ġtiba":6156,"Ġwikipedia":6157,"Ġkebudayaan":6158,"ruk":6159,"arl":6160,"Ġkangge":6161,"Ġnyata":6162,"Ġterusan":6163,"ĠangÃ¨l":6164,"Ġbanyum":6165,"Ġngirim":6166,"Ġoksig":6167,"Ġperguruan":6168,"Ġdna":6169,"ikak":6170,"Ġfish":6171,"Ã¨ntr":6172,"Ã©rah":6173,"tera":6174,"Ġstyl":6175,"Ġbarcel":6176,"Ġskor":6177,"Ġpenting":6178,"Ġarta":6179,"Ġlumb":6180,"Ġjr":6181,"engahan":6182,"Ġngc":6183,"Ġsakab":6184,"Ġog":6185,"Ġpeteng":6186,"Ġkontr":6187,"Ġincrement":6188,"ĠÏ":6189,"Ġkemb":6190,"Ġlump":6191,"Ġbia":6192,"osaken":6193,"Ġyu":6194,"Ġwarung":6195,"Ġresik":6196,"Ġsoeh":6197,"oft":6198,"Ġkuala":6199,"Ġpaku":6200,"Ġscalem":6201,"Ġbusana":6202,"Ġmupangat":6203,"rang":6204,"ski":6205,"Ġruwang":6206,"Ġcop":6207,"Ġlanc":6208,"Ġfal":6209,"ident":6210,"andia":6211,"Ġdisc":6212,"Ġkamentr":6213,"Ġlabel":6214,"Ġnginggil":6215,"vin":6216,"ĠkuwÃ©":6217,"Ġbom":6218,"Ġwij":6219,"Ġwiyos":6220,"Ġrawa":6221,"Ġngomb":6222,"ekakÃ©":6223,"Ġdisebab":6224,"Ġpamanggih":6225,"inder":6226,"ĠbiasanÃ©":6227,"Ġmacan":6228,"Ġkoran":6229,"Ġkoleksi":6230,"Ġsyari":6231,"ĠditemokakÃ©":6232,"ĠcendhÃ¨k":6233,"ogo":6234,"hai":6235,"Ġvel":6236,"Ġfilms":6237,"Ġkhal":6238,"ĠmatÃ©m":6239,"Ġdipunsebut":6240,"Ġnambani":6241,"Ġbarcelona":6242,"Ġll":6243,"Ġwadhah":6244,"urna":6245,"Ġgos":6246,"Ġje":6247,"upan":6248,"Ġlain":6249,"owa":6250,"Ġpamr":6251,"Ġdipuntingali":6252,"Ġistim":6253,"Ġmentah":6254,"Ġgarwanipun":6255,"Ġkonstit":6256,"Ġks":6257,"Ġmakan":6258,"emuan":6259,"ekt":6260,"Ġnyimpen":6261,"Ġawake":6262,"Ġmbut":6263,"Ġpelabuhan":6264,"Ġteam":6265,"Ġhindia":6266,"Ġkahanan":6267,"Ġjil":6268,"aging":6269,"Ġhart":6270,"Ġprins":6271,"Ġpanguw":6272,"Ġpasta":6273,"Ġshin":6274,"Ġkacathet":6275,"Ġkualitas":6276,"Ġchoice":6277,"Ġgames":6278,"Ġplotdata":6279,"wi":6280,"Ġnord":6281,"uks":6282,"irasi":6283,"Ġanggot":6284,"Ġkuno":6285,"Ð¸Ð":6286,"Ġmekah":6287,"Ġtag":6288,"Ġtech":6289,"Ġbung":6290,"Ġrump":6291,"Ġover":6292,"Ġbarra":6293,"ĠtuwanÃ©":6294,"Ġfound":6295,"anjang":6296,"Ġbordeaux":6297,"Ġlulusan":6298,"ĠkrajanÃ©":6299,"Ġkamentrian":6300,"ger":6301,"Ġmn":6302,"Ġline":6303,"itra":6304,"ulang":6305,"Ġdial":6306,"ome":6307,"Ġkaturunan":6308,"idium":6309,"Ġmbeb":6310,"Ġkawic":6311,"inci":6312,"ãĥ¼":6313,"Ġcompany":6314,"Ġdhisik":6315,"Ġprodhuser":6316,"Ġbengkulu":6317,"sek":6318,"zen":6319,"Ġparta":6320,"Ġbujur":6321,"onel":6322,"awas":6323,"Ġry":6324,"emik":6325,"Ġabrit":6326,"Ġeug":6327,"erba":6328,"Ġmount":6329,"ĠprotÃ¨stan":6330,"Ġrab":6331,"Ġmaring":6332,"Ġmalayu":6333,"Ġdrs":6334,"Ġibnu":6335,"Ġcerita":6336,"ĠnindakakÃ©":6337,"Ġjambi":6338,"Ġwisat":6339,"ehake":6340,"Ġmetro":6341,"Ġmetropol":6342,"Ġgegrem":6343,"Ġhistori":6344,"Ġmiliter":6345,"Ġmarie":6346,"och":6347,"Ø¯":6348,"erj":6349,"ĠrÃ©k":6350,"Ġmard":6351,"Ġpenya":6352,"elli":6353,"Ġsuket":6354,"Ġkadhapuk":6355,"Ġvincent":6356,"Ġkroasia":6357,"Ġgridcolor":6358,"iew":6359,"mana":6360,"rin":6361,"ebaran":6362,"ogi":6363,"Ġkre":6364,"Ġkadamel":6365,"Ġtimor":6366,"Ġcook":6367,"Ġroad":6368,"Ġdemak":6369,"Ġkedhokteran":6370,"Ġtk":6371,"Ġtepung":6372,"Ġlebet":6373,"Ġdhaw":6374,"ogh":6375,"Ġaltern":6376,"Ġkapisanan":6377,"Ġau":6378,"Ġarya":6379,"Ġdisenengi":6380,"Ġpamek":6381,"Ġsemana":6382,"Ġbatak":6383,"emens":6384,"Ġheart":6385,"Ġhyd":6386,"Ġlittle":6387,"Ġputranipun":6388,"Ġkewan":6389,"Ġasian":6390,"Ġnip":6391,"Ġjaba":6392,"Ġfem":6393,"hic":6394,"Ġpangembangan":6395,"Ġteluk":6396,"Ġoby":6397,"Ġphot":6398,"Ġdharma":6399,"kus":6400,"ves":6401,"Ġsama":6402,"Ġnada":6403,"Ġhaji":6404,"Ġmatem":6405,"Ġkeamanan":6406,"Ġbass":6407,"Ġpulitikus":6408,"we":6409,"Ġpoc":6410,"Ġpambang":6411,"ullah":6412,"Ġhuman":6413,"Ġour":6414,"Ġasist":6415,"Ġindah":6416,"Ġmalam":6417,"Ġkerj":6418,"Ġkebo":6419,"Ġsky":6420,"ĠkÃ©mawon":6421,"à¤":6422,"Ġketan":6423,"Ġpond":6424,"akipun":6425,"Ġlaks":6426,"Ġbunga":6427,"Ġcc":6428,"iyaran":6429,"Ġbanj":6430,"Ġspirit":6431,"Ġcetus":6432,"ĠbojonÃ©":6433,"Ġpethak":6434,"for":6435,"sy":6436,"Ġlah":6437,"Ġnick":6438,"Ġgent":6439,"Ġnggayuh":6440,"Ġrcti":6441,"sari":6442,"zil":6443,"ĠakÃ©":6444,"Ġdp":6445,"Ġbing":6446,"Ġcinc":6447,"Ġdie":6448,"Ġany":6449,"Ġdhusun":6450,"Ġperaturan":6451,"Ġpanemu":6452,"Ġmakutha":6453,"Ġlampu":6454,"Ġpowiat":6455,"Ġpekalongan":6456,"Ġran":6457,"angani":6458,"opia":6459,"ojok":6460,"Ġalumni":6461,"ĠskÃ©nario":6462,"Ġluw":6463,"ĠbÃ©":6464,"uning":6465,"ingin":6466,"orf":6467,"elola":6468,"idaya":6469,"Ġpartikel":6470,"Ġrunner":6471,"Ġlightgrey":6472,"bour":6473,"Ġcut":6474,"Ġsav":6475,"Ġngganti":6476,"Ġgagal":6477,"Ġbaden":6478,"yeong":6479,"arbÃ¨ni":6480,"utanan":6481,"Ġdenmark":6482,"Ġspecial":6483,"Ġdarkgrey":6484,"Ġsfondo":6485,"ĠbÃ¨lgi":6486,"Ġkawicaksanan":6487,"ÅĦ":6488,"Ġpab":6489,"Ġbangs":6490,"Ġgampil":6491,"dhok":6492,"Ġsagara":6493,"stad":6494,"Ġorganisme":6495,"ĠÐº":6496,"Ġbayern":6497,"Ġfebruari":6498,"Ġprinsip":6499,"Ġwisatawan":6500,"Ġont":6501,"aruh":6502,"Ġmtv":6503,"ĠmatÃ¨ni":6504,"unakaken":6505,"ambung":6506,"embungan":6507,"Ġyour":6508,"Ġnyar":6509,"Ġmaz":6510,"Ġarth":6511,"Ġdhewe":6512,"Ġsilat":6513,"faat":6514,"Ġbutter":6515,"Ġpadhet":6516,"Ġperdagangan":6517,"Ġwangsul":6518,"Ġwartawan":6519,"rum":6520,"Ġgran":6521,"Ġmasehi":6522,"Ġever":6523,"Ġmbukak":6524,"Ġterp":6525,"Ġdesain":6526,"Ġwilangan":6527,"Ġoxford":6528,"Ġgagrag":6529,"Ġdudutan":6530,"Ġtidak":6531,"Ġchurch":6532,"Ġsoeharto":6533,"likasi":6534,"Ġkenc":6535,"Ġpasa":6536,"inum":6537,"uke":6538,"Ġsingk":6539,"idin":6540,"Ġpanlit":6541,"Ġkabel":6542,"Ġtimnas":6543,"Ġcacing":6544,"Ġkoes":6545,"Ġfootball":6546,"Ġsapanunggal":6547,"Ġpartai":6548,"vik":6549,"onegoro":6550,"Ġnuju":6551,"Ġwijaya":6552,"Ġfokus":6553,"aco":6554,"Ġakh":6555,"Ġapel":6556,"Ġsepuluh":6557,"Ġpertengahan":6558,"Ġseta":6559,"ĠdilakokakÃ©":6560,"Ġcoun":6561,"Ġdinas":6562,"Ġvarian":6563,"Ġnemt":6564,"sw":6565,"ycl":6566,"aly":6567,"Ġdhapur":6568,"Ġvs":6569,"ibia":6570,"Ġmakam":6571,"Ġflag":6572,"Ġgeneral":6573,"mentasi":6574,"Ġmuara":6575,"Ġbavaria":6576,"Ġmuda":6577,"adÃ©":6578,"Ġnguwasani":6579,"Ġmanut":6580,"Ġsaudi":6581,"Ġtresna":6582,"Ġbalapan":6583,"Ġpengalaman":6584,"Ġprofile":6585,"osiasi":6586,"Ġpresenter":6587,"Ġastronomi":6588,"Ġtikus":6589,"ĠwondÃ©nÃ©":6590,"ĠÃ¨fÃ¨k":6591,"ms":6592,"Ġderb":6593,"Ġmada":6594,"Ġbok":6595,"Ġranc":6596,"Ġkarl":6597,"Ġundh":6598,"Ġbrid":6599,"Ġbrown":6600,"Ġmalik":6601,"Ġklas":6602,"Ġmrica":6603,"Ġpeop":6604,"Ġhabitat":6605,"Ġkent":6606,"Ġduta":6607,"Ġmadh":6608,"onald":6609,"tual":6610,"Ġkonserv":6611,"Ġmulut":6612,"ĠkilÃ¨n":6613,"Ġrute":6614,"icus":6615,"Ġatt":6616,"ĠÃ©kan":6617,"Ġlaras":6618,"Ġcampur":6619,"Ġjendral":6620,"Ġantropolog":6621,"Ġintel":6622,"Ġolimpiade":6623,"br":6624,"dan":6625,"uat":6626,"Ġtentang":6627,"Ġngisi":6628,"ichi":6629,"umbuh":6630,"Ġdisebut":6631,"Ġsarujuk":6632,"ê¦¤":6633,"Ġelektron":6634,"Ġgong":6635,"Ġjuta":6636,"Ġcle":6637,"Ġngemp":6638,"Ġdipan":6639,"Ġndad":6640,"ustakan":6641,"Ġswanten":6642,"Ġpurb":6643,"Ġchic":6644,"Ġtataran":6645,"tip":6646,"arin":6647,"Ġtj":6648,"Ġunder":6649,"Ġsekar":6650,"Ġndeleng":6651,"Ġdream":6652,"Ġflu":6653,"Ġwaktu":6654,"ĠgÃ©nerasi":6655,"Ġalkohol":6656,"Ġditambahake":6657,"Ġmayoritas":6658,"ĠfranÃ§":6659,"Ġnormal":6660,"tom":6661,"arik":6662,"arawan":6663,"ĠwÃ¼r":6664,"awatan":6665,"uskup":6666,"entukan":6667,"Ġmarkas":6668,"Ġnyam":6669,"Ġsens":6670,"Ġdeleng":6671,"ĠdiwÃ¨n":6672,"Ġkonf":6673,"Ġide":6674,"Ġpindho":6675,"ĠkÃ©nÃ©":6676,"Ġsaks":6677,"osp":6678,"otan":6679,"Ġkalor":6680,"Ġalun":6681,"Ġindra":6682,"Ġsepatu":6683,"Ġedisi":6684,"flik":6685,"Ġgerbang":6686,"arsa":6687,"Ġdl":6688,"Ġmost":6689,"ako":6690,"ataran":6691,"Ġtentara":6692,"idul":6693,"indo":6694,"Ġkebak":6695,"Ġkonflik":6696,"ukaan":6697,"Ġsaham":6698,"ges":6699,"uz":6700,"Ġitu":6701,"Ġters":6702,"Ġwarta":6703,"rie":6704,"Ã¨wu":6705,"Ġpasukan":6706,"Ġpelay":6707,"press":6708,"ĠÙĪ":6709,"Ġkuminis":6710,"uskupan":6711,"work":6712,"Ġdawan":6713,"alon":6714,"enburg":6715,"Ġrach":6716,"Ġdipunj":6717,"mail":6718,"Ġplastik":6719,"Ġbask":6720,"Ġchinese":6721,"Ġpg":6722,"iner":6723,"Ġalih":6724,"ĠkasÃ©hatan":6725,"Ġagus":6726,"elly":6727,"Ġdikembang":6728,"Ġpedhes":6729,"Ġvictoria":6730,"Ġbulgaria":6731,"ĠkÃ¨ju":6732,"Ġkara":6733,"Ġturu":6734,"onis":6735,"Ġgawe":6736,"Ġsakw":6737,"uba":6738,"Ġkomer":6739,"Ã¨mp":6740,"ĠomahÃ©":6741,"Ġkecil":6742,"Ġpercaya":6743,"Ġregional":6744,"Ġoyot":6745,"Ġlaboratorium":6746,"rac":6747,"Ġpew":6748,"Ġmara":6749,"Ġlig":6750,"Ġhij":6751,"ampah":6752,"Ġditandur":6753,"Ġpameran":6754,"Ġobs":6755,"ree":6756,"Ġjuvent":6757,"Ġhidup":6758,"mus":6759,"Ġkri":6760,"ats":6761,"Ġtong":6762,"Ġlot":6763,"Ġsaindh":6764,"Ġbakteri":6765,"ĠwÃ©d":6766,"Ð°ÑĢ":6767,"Ġperiod":6768,"ĠsÃ©r":6769,"Ã©o":6770,"Ġbac":6771,"Ġcend":6772,"abeth":6773,"Ġperma":6774,"iwas":6775,"Ġtrip":6776,"Ġresear":6777,"Ġkeras":6778,"Ġsyah":6779,"Ġident":6780,"osaurus":6781,"Ġjurnal":6782,"Ġrecords":6783,"Ġeth":6784,"Ġdaw":6785,"Ġmaha":6786,"Ġcant":6787,"Ġngomong":6788,"ĠhÃ¨k":6789,"Ġkapustakan":6790,"Ġnyengkuyung":6791,"Ġsawiji":6792,"Ġlaur":6793,"Ġtern":6794,"Ġterak":6795,"ĠnglakokakÃ©":6796,"ture":6797,"Ġstreet":6798,"Ġhakim":6799,"Ġrevolusi":6800,"Ġpenerbit":6801,"Ġtali":6802,"Ġbug":6803,"ajaran":6804,"Ġutek":6805,"Ġye":6806,"Ġmaur":6807,"Ġseratan":6808,"Ġgenus":6809,"Ġkwart":6810,"lak":6811,"Ġloc":6812,"Ġnul":6813,"urun":6814,"Ġjud":6815,"itori":6816,"Ġpenari":6817,"Ġkasedh":6818,"Ġwisnu":6819,"empatan":6820,"Ġbakat":6821,"Ġsesawangan":6822,"ĠÃ©p":6823,"Ġhome":6824,"Ġalpinia":6825,"ĠdunungÃ©":6826,"yakakÃ©":6827,"Ġdown":6828,"Ġlawan":6829,"Ġwrit":6830,"omen":6831,"Ġmanag":6832,"Ġolih":6833,"Ġscott":6834,"Ġanget":6835,"Ġsyn":6836,"Ġreview":6837,"ĠproyÃ¨k":6838,"ĠoksigÃ¨n":6839,"Ġgegremet":6840,"Ġresearch":6841,"pati":6842,"wah":6843,"Ġdos":6844,"amad":6845,"Ġwood":6846,"Ġgov":6847,"Ġmarsh":6848,"Ġbotani":6849,"Ġdiduw":6850,"Ġtuwuhing":6851,"Ġgadis":6852,"Ġkakuwatan":6853,"edhiyakake":6854,"Ġrena":6855,"abet":6856,"Ġhasil":6857,"oso":6858,"epokan":6859,"Ġbook":6860,"Ġstatistik":6861,"Ġnyebabake":6862,"Ġpambangunan":6863,"Ġkomersial":6864,"Ġss":6865,"atang":6866,"Ġngob":6867,"Ġnyel":6868,"Ġkomik":6869,"Ġwali":6870,"ences":6871,"ĠpagawÃ©":6872,"Ġdarat":6873,"Ġsambel":6874,"Ġchristian":6875,"wÃ¨g":6876,"inter":6877,"Ġcuci":6878,"agam":6879,"Ġstud":6880,"obo":6881,"Ġkrupuk":6882,"Ġberita":6883,"Ġblog":6884,"ense":6885,"Ġkoala":6886,"Ġcures":6887,"Ġmamalia":6888,"Ġpadatanipun":6889,"Ġsujarah":6890,"Ġmetropolitan":6891,"ĠhÃ¨ktar":6892,"be":6893,"lon":6894,"Ġeri":6895,"Ġbea":6896,"rio":6897,"Ġmeny":6898,"Ġsadonya":6899,"Ġpagesangan":6900,"Ġpusaka":6901,"Ġtemanggung":6902,"Ġwulangan":6903,"ĠdhapurÃ©":6904,"Ġderby":6905,"Ùĩ":6906,"anon":6907,"Ġdv":6908,"atri":6909,"Ġlind":6910,"Ġragi":6911,"esm":6912,"imi":6913,"Ġsatelit":6914,"Ġoleh":6915,"Ġdiri":6916,"imbangan":6917,"Ġsinyal":6918,"Ġupaya":6919,"Ġairways":6920,"Ġhamengk":6921,"sterdam":6922,"Ġfriend":6923,"Ġkolonial":6924,"Ġkra":6925,"Ġsovi":6926,"akÃ¨":6927,"awijaya":6928,"Ġjes":6929,"Ġsakl":6930,"oshi":6931,"udara":6932,"Ġamsterdam":6933,"athan":6934,"Ġandre":6935,"Ġndadosaken":6936,"Ð¸Ð½":6937,"Ġangeles":6938,"ness":6939,"yatan":6940,"ĠÃ©l":6941,"Ġsha":6942,"Ġbiji":6943,"erland":6944,"emia":6945,"ilo":6946,"Ġngagem":6947,"andar":6948,"ubah":6949,"Ġmaneh":6950,"Ġsaunt":6951,"Ġchart":6952,"Ġbrig":6953,"Ġmust":6954,"Ġsekot":6955,"Ġplasm":6956,"Ġolym":6957,"Ġsiemens":6958,"Ð°Ð½":6959,"Ġbolongan":6960,"ĠÃ©wah":6961,"atosipun":6962,"Ġkedadeyan":6963,"Ġrawuh":6964,"Ġoriginal":6965,"Ġgangguan":6966,"Ġngus":6967,"Ġfel":6968,"ebo":6969,"oki":6970,"Ġperform":6971,"entu":6972,"ĠndarbÃ¨ni":6973,"Ġleluhur":6974,"Ġlibr":6975,"ĠnurwÃ¨g":6976,"Ġanalisis":6977,"ĠwÃ¼rt":6978,"ĠnurwÃ¨gen":6979,"uit":6980,"Ġsif":6981,"enza":6982,"Ġwadh":6983,"Ġngent":6984,"Ġdiisi":6985,"liga":6986,"Ġpeserta":6987,"Ġcommun":6988,"ustakaan":6989,"Ġfosil":6990,"Ġsoekarno":6991,"mah":6992,"Ġpower":6993,"Ġtes":6994,"Ġfisi":6995,"aci":6996,"Ġwarak":6997,"Ġach":6998,"Ġwujudipun":6999,"Ġmakili":7000,"Ġleon":7001,"Ġilmuwan":7002,"Ġturk":7003,"Ġdipunserat":7004,"Ġmohammad":7005,"ĠÃ¨tnis":7006,"Ġcounty":7007,"kins":7008,"zah":7009,"Ġtuku":7010,"Ġbeck":7011,"Ġjeb":7012,"Ġramb":7013,"Ġkaram":7014,"Ġnggol":7015,"Ġspong":7016,"Ġwall":7017,"Ġinstr":7018,"ĠombÃ¨n":7019,"Ġeconom":7020,"ĠkabinÃ¨t":7021,"ĠditindakakÃ©":7022,"ĠtetanÃ¨n":7023,"Ġpeople":7024,"Ġjuventus":7025,"Ġpasi":7026,"Ġnump":7027,"org":7028,"Ġrej":7029,"Ġcip":7030,"Ġhorm":7031,"Ġalasan":7032,"Ġantologi":7033,"Ġkonser":7034,"sual":7035,"Ġkalairan":7036,"ĠÃ©wadÃ©nÃ©":7037,"Ñĭ":7038,"Ġew":7039,"arag":7040,"ego":7041,"Ġyohan":7042,"gio":7043,"indhah":7044,"Ġsetunggal":7045,"Ġastana":7046,"Ġnuklir":7047,"alifikasi":7048,"Ġwi":7049,"adhi":7050,"ily":7051,"ĠsajatinÃ©":7052,"Ġsuriah":7053,"Ġlapis":7054,"Ġcacahe":7055,"shire":7056,"Ġarmada":7057,"Ġbosnia":7058,"heim":7059,"Ġmagnit":7060,"Ġencycl":7061,"ÑĮ":7062,"Ġpav":7063,"utus":7064,"ulisan":7065,"sim":7066,"Ġinj":7067,"epatan":7068,"ids":7069,"Ġkabar":7070,"Ġsaf":7071,"Ġbrun":7072,"Ġpamik":7073,"Ġpanggunaan":7074,"Ã©mon":7075,"ĠgodhongÃ©":7076,"Ġramayana":7077,"argyan":7078,"ĠakÃ©h":7079,"Ġsoviet":7080,"Ġá":7081,"Ġsump":7082,"Ġlud":7083,"Ġsadina":7084,"eff":7085,"Ġkunj":7086,"Ġmicros":7087,"Ġdharat":7088,"Ġcagar":7089,"cast":7090,"jord":7091,"Ġmala":7092,"enipun":7093,"itab":7094,"antis":7095,"oslav":7096,"Ġnyep":7097,"Ġresi":7098,"Ġngrujuk":7099,"Ġprofesi":7100,"Ġhongaria":7101,"zza":7102,"Ġkemen":7103,"Ġdc":7104,"Ġlindhu":7105,"Ġringk":7106,"elo":7107,"Ġsakedhik":7108,"Ġintr":7109,"ĠvÃ¨rsi":7110,"opp":7111,"Ġindian":7112,"Ġapol":7113,"Ġracun":7114,"Ġwillem":7115,"Ġdoug":7116,"ĠmenangakÃ©":7117,"Ġngasilake":7118,"Ġkehutanan":7119,"Ġlegenda":7120,"Ġkothak":7121,"Ġpenyair":7122,"Ġbukan":7123,"Ġlandh":7124,"Ġnyer":7125,"Ġunesco":7126,"Ġkasih":7127,"Ġkepr":7128,"Ġpemer":7129,"enterian":7130,"Ġstandard":7131,"ĠÅĽ":7132,"Ġsriwijaya":7133,"utÃ©":7134,"enengakÃ©":7135,"abau":7136,"Ġbiasa":7137,"Ġlumah":7138,"Ġxi":7139,"Ġmekan":7140,"Ġalexand":7141,"Ġpanglima":7142,"Ġdiskografi":7143,"Ġpamekaran":7144,"Ġchicago":7145,"ml":7146,"sum":7147,"ÅĽ":7148,"oria":7149,"esc":7150,"Ġikatan":7151,"Ġasiling":7152,"Ġnyrit":7153,"Ġwales":7154,"Ġsanga":7155,"Ġempuk":7156,"Ġchristoph":7157,"bah":7158,"cus":7159,"ÏĦ":7160,"Ġsov":7161,"anger":7162,"Ġmex":7163,"ench":7164,"emar":7165,"awai":7166,"ampahan":7167,"Ġkapern":7168,"Ġberd":7169,"Ġkuat":7170,"Ġuskup":7171,"Ġdicekak":7172,"Ġmigunakaken":7173,"rahim":7174,"ylor":7175,"Ġcatatan":7176,"zer":7177,"ĠbÃ¨t":7178,"Ġdias":7179,"Ġperjan":7180,"Ġark":7181,"Ġkula":7182,"erty":7183,"ency":7184,"Ġpoin":7185,"Ġbroad":7186,"Ġpernah":7187,"ĠnganggÃ©":7188,"rof":7189,"ĠÃ©s":7190,"astr":7191,"iter":7192,"emat":7193,"etahaken":7194,"Ġngarani":7195,"Ġamir":7196,"Ġkapisah":7197,"istiwa":7198,"Ġpangert":7199,"evin":7200,"Ġbundes":7201,"Ġjoe":7202,"Ġislands":7203,"Ġkabangsan":7204,"Ġsetaun":7205,"mul":7206,"Ġmbah":7207,"Ġkawin":7208,"Ġpelukis":7209,"Ġlink":7210,"Ġtekstur":7211,"Ġnow":7212,"usen":7213,"Ġsader":7214,"Ġamerica":7215,"Ġbait":7216,"Ġrepubl":7217,"Ġyohanes":7218,"raga":7219,"inger":7220,"ule":7221,"abasa":7222,"ukt":7223,"Ġov":7224,"Ġbiskop":7225,"Ġpanampilan":7226,"Ġtanggung":7227,"Ġdef":7228,"Ġprovinc":7229,"ĠpopulÃ¨r":7230,"Ġtapel":7231,"ĠtÃ¨knik":7232,"ĠmbiyÃ¨n":7233,"Ġjambu":7234,"Ġsocial":7235,"Ġwiyata":7236,"tic":7237,"Ġtivi":7238,"Ġlest":7239,"Ġriwayat":7240,"ipur":7241,"eto":7242,"olis":7243,"Ġtaunan":7244,"Ġort":7245,"Ġbrab":7246,"angsang":7247,"Ġseth":7248,"ethok":7249,"ĠkayadÃ©nÃ©":7250,"Ġdipundadosaken":7251,"Ġgeorgia":7252,"Ġchampionship":7253,"Ġanatomi":7254,"Ġyesus":7255,"zuki":7256,"Îµ":7257,"Ġtant":7258,"Ġwana":7259,"Ġwangi":7260,"Ġjkt":7261,"Ġruk":7262,"engga":7263,"Ġfon":7264,"Ġhang":7265,"Ġvar":7266,"Ã¨hÃ©":7267,"Ġismail":7268,"Ġpangh":7269,"iller":7270,"empuh":7271,"yangan":7272,"ËĪ":7273,"Ġdri":7274,"Ġmadi":7275,"ĠmÃ¼n":7276,"utanÃ©":7277,"agas":7278,"Ġsamanten":7279,"Ġkenya":7280,"Ġpekan":7281,"Ġminangkabau":7282,"Ġstylidium":7283,"ÄĽ":7284,"Ġsign":7285,"atul":7286,"Ġlup":7287,"ĠlÃ¨p":7288,"anggalan":7289,"Ġpasang":7290,"Ġbakt":7291,"Ġgaruda":7292,"Ġkui":7293,"Ġpersero":7294,"Ġque":7295,"Ġdataran":7296,"Ġjournal":7297,"Ġsyar":7298,"Ġpage":7299,"Ġlyn":7300,"elop":7301,"Ġfant":7302,"Ġfern":7303,"odes":7304,"Ġdigabung":7305,"Ġshe":7306,"Ġforum":7307,"Ġopera":7308,"Ġriz":7309,"ĠÐ¼":7310,"Ġminggah":7311,"Ġgurih":7312,"Ġsadhuwur":7313,"Ġpramuka":7314,"ĠmatÃ©matika":7315,"Ġmud":7316,"Ġlont":7317,"Ġbit":7318,"Ġgon":7319,"emahan":7320,"Ġhea":7321,"orius":7322,"opedia":7323,"Ġzu":7324,"Ġpolitik":7325,"Ġsctv":7326,"Ġkonstruksi":7327,"Ġphy":7328,"Ð°Ñ":7329,"Ġmajor":7330,"Ġmungkin":7331,"Ġkempalan":7332,"hum":7333,"kom":7334,"ĠÃ¥":7335,"atin":7336,"Ġlanj":7337,"anggu":7338,"Ġperencana":7339,"tai":7340,"Ġkomb":7341,"Ġmripat":7342,"Ġviii":7343,"Ġkecap":7344,"Ġborder":7345,"Ġscience":7346,"Ġster":7347,"Ġbond":7348,"aster":7349,"amah":7350,"Ġcall":7351,"esik":7352,"Ġhur":7353,"Ġdiasil":7354,"Ġtaylor":7355,"Ġmanus":7356,"amaan":7357,"Ġpengusaha":7358,"Ġwalt":7359,"Ġlumaku":7360,"Ġmahab":7361,"Ġmedali":7362,"ĠÐ¿":7363,"Ġalamat":7364,"jaya":7365,"zeg":7366,"Ġê":7367,"Ġsangg":7368,"Ġsoto":7369,"arn":7370,"Ġlama":7371,"Ġwut":7372,"Ġngangkat":7373,"ukuhakÃ©":7374,"ote":7375,"Ġakun":7376,"Ġill":7377,"ĠmanggÃ¨n":7378,"ĠjembarÃ©":7379,"Ġarsenal":7380,"Ġngendika":7381,"Ġà¤":7382,"Ġjacob":7383,"Ġlanguage":7384,"Ġkonstitusi":7385,"Ġiman":7386,"Ġfu":7387,"Ġparas":7388,"odha":7389,"Ġsawatawis":7390,"Ġsoklat":7391,"ĠÃ¨stri":7392,"Ġbrazil":7393,"Ġngadhepi":7394,"ĠÃ¨lÃ¨ktron":7395,"Ġmadiun":7396,"Ġpk":7397,"Ġpakan":7398,"Ġtatu":7399,"Ġjong":7400,"utakÃ©":7401,"ukakÃ©":7402,"ebunan":7403,"edonia":7404,"Ġnyaw":7405,"Ġchili":7406,"Ġunic":7407,"enda":7408,"Ġberp":7409,"Ġpanasonic":7410,"Ġvariabel":7411,"ĠngembangakÃ©":7412,"Ġhatta":7413,"Ġjilid":7414,"ĠbÃ¨tÃ¨ng":7415,"hel":7416,"mÃ¨n":7417,"Øª":7418,"Ġnampil":7419,"Ġrand":7420,"itt":7421,"ukÃ©":7422,"irim":7423,"imia":7424,"Ġkanton":7425,"Ġaksi":7426,"Ġantoni":7427,"Ġtexas":7428,"Ġtetembungan":7429,"Ġkamenangan":7430,"Ġtahta":7431,"Ġreform":7432,"Ġconn":7433,"utradarani":7434,"Ġngancik":7435,"Ġkasedhiya":7436,"day":7437,"Ġtamil":7438,"awu":7439,"Ġcik":7440,"Ġngat":7441,"Ġngendh":7442,"Ġdhahar":7443,"Ġpakary":7444,"Ġairbus":7445,"Ġrio":7446,"Ġmanggih":7447,"ĠÐ±":7448,"Ġwindows":7449,"Ġmatematika":7450,"Ġsaindhenging":7451,"Ġsekotlan":7452,"Ġpember":7453,"Ġpiano":7454,"ahasa":7455,"Ġcipta":7456,"Ġdiakoni":7457,"angkÃ©":7458,"Ġarti":7459,"Ġdragon":7460,"Ġkamangka":7461,"Ġmagepokan":7462,"lywood":7463,"Ġomben":7464,"Ġkompleks":7465,"Ġterminal":7466,"Ġindividu":7467,"sekerta":7468,"dom":7469,"get":7470,"xis":7471,"Ġengg":7472,"Ġlahan":7473,"Ġbella":7474,"utusan":7475,"andan":7476,"Ġsato":7477,"Ġfront":7478,"Ġkomune":7479,"Ġngrebut":7480,"Ġsumebar":7481,"Ġkonv":7482,"ĠmulanÃ©":7483,"ĠpancÃ¨n":7484,"Ġphilipp":7485,"Ġkakaisaran":7486,"ĠlÃ¨pÃ¨n":7487,"mur":7488,"oes":7489,"resi":7490,"Ġdog":7491,"Ġdra":7492,"ulat":7493,"abo":7494,"Ġpenampilan":7495,"Ġguide":7496,"Ġthai":7497,"ser":7498,"Ġnc":7499,"adwal":7500,"Ġits":7501,"Ġkonfer":7502,"Ġwild":7503,"Ġmirsani":7504,"Ġbagian":7505,"mund":7506,"yc":7507,"akti":7508,"Ġtuan":7509,"ĠngadegakÃ©":7510,"ĠgrÃ©g":7511,"Ġanggr":7512,"Ġibrahim":7513,"ĠdhÃ©wÃ©kÃ©":7514,"Ġmajelis":7515,"sky":7516,"Ġpresiden":7517,"Ġriset":7518,"ĠsuksÃ¨s":7519,"Ġpalestina":7520,"Ġistimewa":7521,"xi":7522,"Ġungu":7523,"Ġmawar":7524,"Ġtest":7525,"amik":7526,"Ġnes":7527,"Ġgemb":7528,"Ġvisi":7529,"Ġkapacak":7530,"Ġkrom":7531,"Ġdigambar":7532,"berry":7533,"temberg":7534,"Ġperkebunan":7535,"Ġcendhak":7536,"harata":7537,"Ġlibrary":7538,"Ġbrabant":7539,"wang":7540,"Ġdeb":7541,"amu":7542,"Ġwajan":7543,"eton":7544,"Ġkata":7545,"Ġsingap":7546,"igasi":7547,"Ġaud":7548,"Ġberl":7549,"Ġdhoktor":7550,"jal":7551,"ĠsÃ©n":7552,"Ġdugi":7553,"ape":7554,"Ġikan":7555,"Ġandal":7556,"ological":7557,"Ġtimes":7558,"Ġkementerian":7559,"Ġpesisir":7560,"Ġtransfer":7561,"Ġkekanc":7562,"Ġmoun":7563,"Ġdarb":7564,"ĠputranÃ©":7565,"Ġwolung":7566,"ĠÙĬ":7567,"Ġkevin":7568,"Ã©man":7569,"eling":7570,"olution":7571,"ajaya":7572,"imologi":7573,"Ġpesant":7574,"baru":7575,"orang":7576,"antin":7577,"Ġhans":7578,"otik":7579,"Ġyug":7580,"ijan":7581,"atian":7582,"Ġdisimpen":7583,"Ġdirancang":7584,"ĠngrampungakÃ©":7585,"ĠwÃ¼rttemberg":7586,"Ġtuhan":7587,"Ġlaj":7588,"Ġcard":7589,"edral":7590,"Ġuniversal":7591,"Ġpakubuwana":7592,"Ġkekuw":7593,"Ġwork":7594,"Ãªng":7595,"Ġjohnson":7596,"ithik":7597,"Ġtema":7598,"Ġtangerang":7599,"Ġpsikologi":7600,"ĠcuwÃ¨ran":7601,"atar":7602,"Ġlob":7603,"Ġfree":7604,"adhahi":7605,"omba":7606,"Ġibunipun":7607,"Ġharv":7608,"Ġlaris":7609,"Ġgerman":7610,"Ġrhine":7611,"ĠnganakakÃ©":7612,"Ġpanguwasa":7613,"Ġgeb":7614,"usastra":7615,"Ġpral":7616,"Ġdhalang":7617,"Ã¨nÃ©":7618,"Ġsalju":7619,"Ġagen":7620,"Ġadvent":7621,"Ġteks":7622,"Ġibrani":7623,"Ġmatt":7624,"Ġturunan":7625,"ĠkolÃ¨ksi":7626,"Ġsandwich":7627,"Ġruangan":7628,"Ġferr":7629,"masin":7630,"Ġkaprig":7631,"Ġroger":7632,"iara":7633,"Ġpoh":7634,"asy":7635,"Ġnaf":7636,"Ġjuan":7637,"Ġjelas":7638,"abol":7639,"Ġharian":7640,"Ã©kakÃ©":7641,"Ġpelawak":7642,"Ã¸r":7643,"Ġperdana":7644,"Ġnilai":7645,"ĠgarwanÃ©":7646,"Ġanggitanipun":7647,"Ġveget":7648,"kes":7649,"Ġcav":7650,"apaken":7651,"igo":7652,"Ġmarg":7653,"Ġaer":7654,"andhÃ¨ng":7655,"Ġaplikasi":7656,"ifer":7657,"Ġshort":7658,"Ġdrajat":7659,"Ġpemilihan":7660,"ally":7661,"Ġibune":7662,"Ġpanjenengan":7663,"Ġguin":7664,"Ġjuga":7665,"Î¿ÏĤ":7666,"Ġfried":7667,"Ġkwartal":7668,"sin":7669,"Ġrend":7670,"ilasi":7671,"Ġdiolah":7672,"uwangi":7673,"Ġaster":7674,"Ġarch":7675,"Ġkasebar":7676,"Ġkawonten":7677,"ombia":7678,"Ġscreen":7679,"Ġmagister":7680,"Ġorganik":7681,"Ġslav":7682,"phone":7683,"Ġsayur":7684,"Ġsauntara":7685,"dut":7686,"ners":7687,"Ð´":7688,"anus":7689,"Ġdara":7690,"Ġmaya":7691,"akia":7692,"Ġjane":7693,"Ġlanka":7694,"etak":7695,"Ġfuj":7696,"oll":7697,"Ġanug":7698,"Ġanne":7699,"idi":7700,"Ġlaos":7701,"Ġpangangg":7702,"Ġwiwitanipun":7703,"Ġsamar":7704,"Ġxii":7705,"airakÃ©":7706,"Ġbanyumas":7707,"fil":7708,"ËĲ":7709,"untu":7710,"isÃ©":7711,"Ġcf":7712,"egakÃ©":7713,"Ã©nan":7714,"uding":7715,"Ġdipunangkat":7716,"Ġmarch":7717,"Ġisk":7718,"Ġsemar":7719,"umpulan":7720,"Ġpaug":7721,"Ġpositif":7722,"Ġkathahipun":7723,"ĠjosÃ©":7724,"Ġmenteri":7725,"Ġbubur":7726,"Ġsecret":7727,"Ġcentre":7728,"Ġif":7729,"aktif":7730,"osit":7731,"Ġyudh":7732,"obatan":7733,"Ġtre":7734,"Ġbrad":7735,"Ġsansaya":7736,"Ġeliz":7737,"Ġpikiran":7738,"Ġngandharaken":7739,"Ġpinang":7740,"Ġdharatan":7741,"Ġtebihipun":7742,"Ġperempuan":7743,"aos":7744,"Ġpaman":7745,"ĠpÃ©ta":7746,"Ġtb":7747,"ikh":7748,"Ġgadh":7749,"Ġrut":7750,"unganipun":7751,"osom":7752,"edalaken":7753,"ambangan":7754,"ambahi":7755,"Ġkutai":7756,"Ġkastil":7757,"ivia":7758,"Ġmbintangi":7759,"Ġsupport":7760,"Ġmerdeka":7761,"Ġkemampuan":7762,"Ġkaji":7763,"Ġpembalap":7764,"elitian":7765,"Ġmahabharata":7766,"eno":7767,"Ġwajib":7768,"awahi":7769,"acar":7770,"Ġkalk":7771,"ubung":7772,"Ġchan":7773,"Ġsajroning":7774,"ĠdhÃ¨wÃ¨k":7775,"ĠjinisÃ©":7776,"Ġbottom":7777,"Ġedition":7778,"Ġharapan":7779,"Ġpopular":7780,"Ġmike":7781,"Ġjawara":7782,"Ġkakuwasan":7783,"Ġpromosi":7784,"ĠmratÃ©l":7785,"Ġmbebayani":7786,"bang":7787,"minton":7788,"zation":7789,"Ġseh":7790,"Ġsbs":7791,"Ġlirik":7792,"Ġbima":7793,"Ġcn":7794,"esar":7795,"Ġprok":7796,"Ġasosiasi":7797,"Ġamung":7798,"echt":7799,"inaan":7800,"Ġatawa":7801,"Ġatusan":7802,"ston":7803,"Ġblu":7804,"Ġkajian":7805,"Ġsirup":7806,"Ġbapake":7807,"Ġgagang":7808,"Ġbanjarmasin":7809,"ĠnyebabakÃ©":7810,"Ġcentury":7811,"Ġplasmodium":7812,"hong":7813,"top":7814,"Ġpungg":7815,"Ġpita":7816,"Ġtaw":7817,"Ġtiwas":7818,"Ġlov":7819,"Ġbuta":7820,"dhana":7821,"Ġkatres":7822,"ebob":7823,"Ġpandhidhikan":7824,"Ġkrab":7825,"Ġspe":7826,"Ġusa":7827,"eratur":7828,"suf":7829,"Ġkadhokteran":7830,"Ġformal":7831,"Ġdatab":7832,"Ġtelevision":7833,"Ġmundhak":7834,"Ġkekalihipun":7835,"ĠmÃ¼nchen":7836,"Ġnutr":7837,"Ġhadi":7838,"Ġherb":7839,"Ġprad":7840,"Ġmargar":7841,"Ġmete":7842,"Ġname":7843,"Ġmonop":7844,"Ġreguler":7845,"ĠÐ½":7846,"Ġditemoni":7847,"angkepi":7848,"á¹£":7849,"Ġstephen":7850,"Ġpid":7851,"Ġcart":7852,"ulake":7853,"ĠarkÃ©":7854,"Ġunion":7855,"yaning":7856,"Ġcomune":7857,"yll":7858,"Ġbadminton":7859,"Ġbantuan":7860,"Ġalkitab":7861,"Ġpropinsi":7862,"Ġngewrat":7863,"Ġbundesliga":7864,"Ġperencanaan":7865,"stan":7866,"yanÃ©":7867,"Ġia":7868,"Ġdki":7869,"Ġmangs":7870,"Ġwaw":7871,"Ġwetan":7872,"Ġrey":7873,"Ġcra":7874,"etah":7875,"Ġhung":7876,"Ġarn":7877,"Ġsains":7878,"Ġadi":7879,"Ġlord":7880,"Ġpatrick":7881,"ĠbaÃ©":7882,"ĠgawÃ©an":7883,"Ġsusuh":7884,"Ġother":7885,"Ġmurni":7886,"Ġpublic":7887,"Ġelizabeth":7888,"Î¬":7889,"Ġian":7890,"Ġlaman":7891,"isik":7892,"Ġnara":7893,"Ġwo":7894,"elok":7895,"dho":7896,"angke":7897,"Ġperw":7898,"uja":7899,"Ġarca":7900,"Ġchang":7901,"Ġkauskupan":7902,"ungkinan":7903,"Ġkolam":7904,"Ġlatihan":7905,"Ġmurah":7906,"Ġpambuka":7907,"Ġbekasi":7908,"Ġjones":7909,"Ġrebus":7910,"Ġlingu":7911,"Ġfavorit":7912,"Ġpiw":7913,"Ġlangka":7914,"Ġbangka":7915,"iket":7916,"abad":7917,"Ġdiay":7918,"Ġdiiris":7919,"uwuh":7920,"iyantu":7921,"arib":7922,"Ġabru":7923,"uction":7924,"Ġumar":7925,"arahaken":7926,"udhuk":7927,"Ġrose":7928,"Ġbenda":7929,"Ġapollo":7930,"Ġkunt":7931,"Ġlungguh":7932,"Ġbik":7933,"esiki":7934,"enger":7935,"ajang":7936,"Ġperwak":7937,"Ġvik":7938,"Ġkresna":7939,"Ġbandh":7940,"Ġdibukak":7941,"Ġkepul":7942,"Ġperson":7943,"Ġjanji":7944,"Ġpotongan":7945,"Ġazerba":7946,"Ġtwo":7947,"Ġjackson":7948,"Ġpujangga":7949,"Ġprofesor":7950,"Ġalternatif":7951,"Ġbangsawan":7952,"ming":7953,"mati":7954,"sik":7955,"Ġiris":7956,"Ġmom":7957,"Ġtob":7958,"Ġngec":7959,"ambu":7960,"Ġthis":7961,"ents":7962,"Ġkapur":7963,"Ġpananggalan":7964,"Ġfilsuf":7965,"Ġmenawi":7966,"Ġseksi":7967,"Ġnglambang":7968,"Ġkeris":7969,"ĠkepÃ©ngin":7970,"Ġmelu":7971,"Ġterbit":7972,"Ġgrav":7973,"Ġtuladhanipun":7974,"Ġgirls":7975,"Ġfalls":7976,"bach":7977,"ceae":7978,"ware":7979,"Ġbau":7980,"amo":7981,"Ġanom":7982,"Ġalang":7983,"ovan":7984,"Ġarchi":7985,"Ġchap":7986,"Ġkacil":7987,"Ġneur":7988,"Ġinteg":7989,"Ġmudha":7990,"Ġhawaii":7991,"Ġmessaging":7992,"ografis":7993,"Ġbibliografi":7994,"Ġspongebob":7995,"ĠgrÃ©gorius":7996,"fo":7997,"uv":7998,"aripun":7999,"Ġwaja":8000,"Ġdhos":8001,"Ġdhaptar":8002,"Ġparah":8003,"Ġdikonsumsi":8004,"Ġoptik":8005,"Ð¸Ñ":8006,"Ġfungs":8007,"Ġrele":8008,"Ġpandhawa":8009,"Ġeurop":8010,"ĠmutusakÃ©":8011,"Ġwadhuk":8012,"Ġmagnitudo":8013,"Ġsaderengipun":8014,"Ġsingapore":8015,"Ġperwakilan":8016,"Ġbengi":8017,"Ġanna":8018,"Ġnyebat":8019,"Ġabs":8020,"ĠsatÃ©":8021,"empuran":8022,"Ġsesebutan":8023,"Ġdibut":8024,"Ġsemin":8025,"Ġpaulus":8026,"Ġmemori":8027,"Ġwolu":8028,"kuit":8029,"Ġernest":8030,"aras":8031,"Ġbach":8032,"enne":8033,"Ġnaw":8034,"Ġril":8035,"ipan":8036,"Ġngajeng":8037,"Ġngowahi":8038,"omet":8039,"ĠutamanÃ©":8040,"Ġkadar":8041,"inggalan":8042,"Ġsumur":8043,"Ġpandan":8044,"Ġtabel":8045,"Ġtukon":8046,"Ġdipunlampahi":8047,"Ġkamboja":8048,"ĠsasuwÃ©nÃ©":8049,"Ġngempalaken":8050,"Ġazerbaijan":8051,"hol":8052,"Ġmengg":8053,"atra":8054,"amar":8055,"Ġrain":8056,"Ġcengk":8057,"ungsi":8058,"ices":8059,"andingan":8060,"Ġutc":8061,"Ġalan":8062,"Ġakadh":8063,"Ġgreg":8064,"Ġbros":8065,"Ġdisutradarani":8066,"ĠpamÃ©rangan":8067,"Ġirung":8068,"Ġlead":8069,"unting":8070,"Ġclass":8071,"endher":8072,"Ġmanga":8073,"Ġuwis":8074,"Ġwilliams":8075,"Ġrating":8076,"Ġbatavia":8077,"Ġkombinasi":8078,"vas":8079,"Ġthi":8080,"Ġlake":8081,"dhik":8082,"Ġsaid":8083,"Ġnjurung":8084,"inding":8085,"Ġdikirim":8086,"ĠwewengkonÃ©":8087,"Ġkamus":8088,"Ġpatih":8089,"Ġpersegi":8090,"Ġlumrah":8091,"board":8092,"Ġjagat":8093,"Ġbagus":8094,"Ġdomest":8095,"Ġsimbah":8096,"Ġwolf":8097,"Ġwestph":8098,"Ġngajak":8099,"Ġpaugeran":8100,"kh":8101,"ray":8102,"zel":8103,"Ġess":8104,"Ġera":8105,"Ġlebar":8106,"Ġjel":8107,"Ġjumbuh":8108,"Ġfab":8109,"imen":8110,"Ġsalib":8111,"Ġenzim":8112,"Ġepis":8113,"Ġjosh":8114,"Ġgagasan":8115,"Ġnetep":8116,"Ġyusuf":8117,"Ġnukle":8118,"oksida":8119,"lik":8120,"Ġdhataran":8121,"Ġnyusun":8122,"Ġarc":8123,"abai":8124,"Ġklompok":8125,"Ġkeppres":8126,"Ġmach":8127,"Ġdalu":8128,"Ġyout":8129,"Ġperpustakaan":8130,"Ġpremier":8131,"Ġturnamen":8132,"Ġarthur":8133,"jel":8134,"rÃ©":8135,"Ġkha":8136,"ĠsÃ¨n":8137,"Ġtony":8138,"Ġlarang":8139,"Ġbrian":8140,"ikular":8141,"Ġfrench":8142,"jurung":8143,"Ġkadis":8144,"Ġslov":8145,"zio":8146,"unjukan":8147,"Ġmutiara":8148,"Ġolahraga":8149,"finisi":8150,"Ġpondok":8151,"Ġcountry":8152,"oor":8153,"Å¾":8154,"arake":8155,"Ġtiti":8156,"inya":8157,"ektif":8158,"uwi":8159,"ido":8160,"Ġkarim":8161,"Ġyerus":8162,"Ġasr":8163,"Ġpanump":8164,"ovasi":8165,"Ġmarin":8166,"Ġfred":8167,"Ġngrusak":8168,"ĠpersÃ¨n":8169,"Ġgenerasi":8170,"Ġmigunani":8171,"Ã¶r":8172,"Ġhenri":8173,"Ġlengkap":8174,"Ġwestphalia":8175,"arwa":8176,"asama":8177,"ishi":8178,"Ġwes":8179,"Ġngolah":8180,"Ġanal":8181,"Ġkaldu":8182,"Ġmanusia":8183,"Ġpenyi":8184,"Ġsadangunipun":8185,"Ġpho":8186,"ĠupamanÃ©":8187,"ĠbagÃ©an":8188,"Ġsampurna":8189,"Ø©":8190,"Ø³":8191,"Ġenth":8192,"Ġmons":8193,"Ġtandhing":8194,"Ġbasil":8195,"isl":8196,"Ġpramb":8197,"Ġyog":8198,"Ġkapten":8199,"Ġball":8200,"ugan":8201,"alingga":8202,"Ġartic":8203,"Ġpemuda":8204,"lamasi":8205,"Ġdicel":8206,"Ġbanglad":8207,"Ġpaprangan":8208,"Ġtempur":8209,"Ġdangdut":8210,"Ġhabib":8211,"ĠngombÃ©":8212,"ĠdiduwÃ¨ni":8213,"Ġjami":8214,"Ġjason":8215,"itÃ©":8216,"olahan":8217,"Ġuz":8218,"Ġkalendher":8219,"Ġsajinis":8220,"ianak":8221,"Ġulasan":8222,"Ġgeger":8223,"Ġpekerja":8224,"Ġyusw":8225,"Ġcritics":8226,"Ġabruzzo":8227,"sun":8228,"vis":8229,"Ġmert":8230,"erine":8231,"Ġprek":8232,"ebes":8233,"amping":8234,"igur":8235,"odra":8236,"Ġpungkasane":8237,"Ġmoon":8238,"omotif":8239,"ĠnyatakakÃ©":8240,"Ġlintas":8241,"Ġbanjir":8242,"Ġobserv":8243,"Ð¼":8244,"Ġmgr":8245,"amÃ¨n":8246,"Ġnun":8247,"Ġwort":8248,"Ġjaka":8249,"elah":8250,"elasi":8251,"ulin":8252,"abu":8253,"agang":8254,"Ġdiowahi":8255,"onto":8256,"Ġbalap":8257,"Ġdumad":8258,"Ġketata":8259,"Ġnegri":8260,"Ġsamuel":8261,"Ġkaku":8262,"Ġpotensi":8263,"Ġmentega":8264,"Ġkampanye":8265,"Ġglobe":8266,"Ġrerenggan":8267,"Ġdistribusi":8268,"Ġkaranganyar":8269,"Ġhormon":8270,"Ïĥ":8271,"apor":8272,"Ġhun":8273,"opsi":8274,"Ġdiper":8275,"Ġpamilihan":8276,"Ġkereta":8277,"endhet":8278,"Ġpungkasaning":8279,"Ġmirib":8280,"Ġinggilipun":8281,"ĠakirÃ©":8282,"Ġconst":8283,"Ġanthony":8284,"Ġlentikular":8285,"Ġpie":8286,"Ġmd":8287,"Ġbaya":8288,"itakakÃ©":8289,"ipe":8290,"Ġngakoni":8291,"Ġhutan":8292,"udan":8293,"Ġasy":8294,"Ġsaat":8295,"Ġcher":8296,"Ġnggant":8297,"Ġmadinah":8298,"Ġoper":8299,"Ġambon":8300,"ĠslÃ©man":8301,"Ġekstr":8302,"Ġwinates":8303,"Ġbubar":8304,"Ġhilir":8305,"ĠwÃ©dok":8306,"Ġsovy":8307,"dad":8308,"arch":8309,"Ġiw":8310,"Ġdimain":8311,"ogl":8312,"embahan":8313,"ovina":8314,"Ġnjl":8315,"Ġsarapan":8316,"Ġmitos":8317,"Ġpahargyan":8318,"Ġå¤":8319,"Ġbanyuwangi":8320,"ĠdhÃ©mografi":8321,"Ġkuping":8322,"Ġnepal":8323,"Ġmidd":8324,"ĠfranÃ§ois":8325,"anis":8326,"ĠkÃ¨r":8327,"aruhi":8328,"Ġms":8329,"ening":8330,"urs":8331,"Ġryan":8332,"irus":8333,"Ġsajak":8334,"ather":8335,"Ġpanganggit":8336,"Ġequ":8337,"evo":8338,"Ġkawah":8339,"Ġdirector":8340,"Ġread":8341,"Ġkanjeng":8342,"Ġeric":8343,"Ġjaler":8344,"Ġexp":8345,"Ġnutrisi":8346,"uff":8347,"Ġmyan":8348,"Ġtutup":8349,"Ġgurit":8350,"emuk":8351,"etia":8352,"aping":8353,"Ġprob":8354,"Ġkaribia":8355,"Ġchamp":8356,"Ġchild":8357,"tie":8358,"Ġserie":8359,"ofi":8360,"Ġrumania":8361,"Ġlembut":8362,"ãĥ³":8363,"Ġrhin":8364,"Ġalpha":8365,"á¹Ń":8366,"Ġpicture":8367,"Ġkenthang":8368,"Ġprince":8369,"Ġkasunyatan":8370,"ĠkulawarganÃ©":8371,"yr":8372,"arp":8373,"ĠdÃ©w":8374,"Ġdinggo":8375,"ĠbÃ¨g":8376,"asakÃ©":8377,"Ġgant":8378,"ĠdhÃ©":8379,"Ġalesan":8380,"ental":8381,"Ġakasa":8382,"Ġmaneka":8383,"odon":8384,"Ġater":8385,"oyang":8386,"Ġpertempuran":8387,"Ġbeijing":8388,"Ġhalaman":8389,"Ġmpu":8390,"Ġreligi":8391,"Ġjazz":8392,"Ġpisang":8393,"Ġcemeng":8394,"ĠdhokumÃ¨n":8395,"Ġmendhet":8396,"Ġkoordinat":8397,"vo":8398,"ÄŁ":8399,"ĠÃ®":8400,"Ġkbs":8401,"Ġmie":8402,"Ġtingk":8403,"Ġbc":8404,"esian":8405,"agian":8406,"Ġproc":8407,"osari":8408,"Ã©na":8409,"Ġbandha":8410,"Ġserang":8411,"Ġacc":8412,"Ġbojo":8413,"Ġusada":8414,"ĠwohÃ©":8415,"Ġkosm":8416,"Ġarsitektur":8417,"Ġkomposisi":8418,"Ġhamburg":8419,"ĠbaktÃ¨ri":8420,"Ġkacilakan":8421,"åį":8422,"ìĿ":8423,"Ġpath":8424,"Ġwahana":8425,"ipik":8426,"eku":8427,"ekÃ©":8428,"ayanipun":8429,"icip":8430,"Ġperu":8431,"ontrol":8432,"Ġyas":8433,"Ġalm":8434,"Ġviv":8435,"Ġeff":8436,"Ġsisik":8437,"ĠdÃ©sain":8438,"Ġbekas":8439,"Ġterakhir":8440,"Ġwortel":8441,"Ġmyanmar":8442,"Ġira":8443,"Ġmuter":8444,"Ġwag":8445,"Ġfase":8446,"Ġpred":8447,"uwah":8448,"Ġuji":8449,"Ġminang":8450,"tral":8451,"igu":8452,"Ġtrep":8453,"Ġbre":8454,"Ġtinulis":8455,"Ġivan":8456,"Ġorgani":8457,"Ġdevelop":8458,"Ġwiyosan":8459,"cz":8460,"Ð³":8461,"atas":8462,"Ġnah":8463,"organ":8464,"Ġjord":8465,"usul":8466,"Ġngoko":8467,"Ġhok":8468,"arai":8469,"Ġperad":8470,"Ġsajatosipun":8471,"andhani":8472,"iber":8473,"Ġpengaruh":8474,"Ġbudidaya":8475,"Ġbooks":8476,"Ġclassi":8477,"Ġflorida":8478,"Ġstates":8479,"Ġeksekutif":8480,"Ġmcc":8481,"Ġbersatu":8482,"Ġprodhuk":8483,"Ġkrisis":8484,"ĠngundhakakÃ©":8485,"Ġgovern":8486,"Ġchristopher":8487,"Ġyerusalem":8488,"lis":8489,"ĠdÃ¨n":8490,"Ġnop":8491,"Ġngeng":8492,"irat":8493,"Ġthr":8494,"Ġwiwitane":8495,"Ġsekitar":8496,"Ġtert":8497,"Ġwalandi":8498,"ĠartinÃ©":8499,"Ġpapanipun":8500,"Ġlumahing":8501,"Ġsiklus":8502,"Ð°Ð»":8503,"Ġdipunwontenaken":8504,"ĠobjÃ¨k":8505,"ĠngalahakÃ©":8506,"Ġbiaya":8507,"Ġlancip":8508,"Ġmeteor":8509,"cs":8510,"fan":8511,"net":8512,"yin":8513,"Îº":8514,"Ġlaku":8515,"amana":8516,"Ġnut":8517,"Ġnev":8518,"Ġgaj":8519,"Ġgiyaran":8520,"usuma":8521,"omat":8522,"onga":8523,"asiat":8524,"ici":8525,"Ġyun":8526,"Ġstabil":8527,"Ġparag":8528,"Ġtanggel":8529,"Ġcourt":8530,"Ġkuwasa":8531,"Ġjohannes":8532,"Ġosaka":8533,"Ġkartun":8534,"Ġmengko":8535,"Ġjacques":8536,"Ġpontianak":8537,"Ġmenjadi":8538,"Ġpalakrama":8539,"ĠsÃ©j":8540,"ĠdisebabakÃ©":8541,"Ġlp":8542,"Ġlac":8543,"Ġnin":8544,"agung":8545,"Ġhet":8546,"Ġdih":8547,"ubur":8548,"Ġpamab":8549,"indakaken":8550,"Ġpengaw":8551,"ertos":8552,"Ġurban":8553,"ĠrÃ©volusi":8554,"Ġdibandhing":8555,"Ġsiyap":8556,"Ġinflu":8557,"ĠawalÃ©":8558,"Ġkarakteristik":8559,"Ġfarm":8560,"Ġkonstelasi":8561,"Ġsangisoring":8562,"Ġalfred":8563,"Ġprajanjian":8564,"Î¯":8565,"Ġsz":8566,"isia":8567,"orp":8568,"Ġcec":8569,"Ġngenal":8570,"Ġva":8571,"Ġpenemu":8572,"engka":8573,"empor":8574,"Ġarts":8575,"Ġtempo":8576,"Ġfermentasi":8577,"Ġaktivis":8578,"Ġdiayahi":8579,"med":8580,"vy":8581,"ĠtÃ©r":8582,"Ġnerbit":8583,"Ġnandur":8584,"ips":8585,"ekta":8586,"ongg":8587,"entingan":8588,"Ġbaby":8589,"Ġatlet":8590,"Ġblitar":8591,"Ġsyd":8592,"ities":8593,"Ġpawon":8594,"Ã©dakakÃ©":8595,"Ġpribumi":8596,"ĠÅ¡":8597,"Ġnggambaraken":8598,"Ġhias":8599,"wig":8600,"Ġtanda":8601,"Ġluth":8602,"Ġwedi":8603,"Ġcad":8604,"Ġdiv":8605,"udin":8606,"upsi":8607,"Ġnyuda":8608,"anca":8609,"Ġkaz":8610,"Ġsate":8611,"Ġplant":8612,"Ġkelu":8613,"Ġtouch":8614,"Ġmilyar":8615,"Ġlare":8616,"Ġlukis":8617,"Ġsahabat":8618,"opsis":8619,"Ġfrancisco":8620,"Ġmardika":8621,"Ġkerjasama":8622,"Ġdvd":8623,"Ġbangladesh":8624,"eel":8625,"Ġpupuk":8626,"Ġbeta":8627,"etti":8628,"ekaken":8629,"Ġnggantos":8630,"Ġbrambang":8631,"Ġdisug":8632,"Ġklan":8633,"Ġbakso":8634,"Ã©ntar":8635,"Ġpoly":8636,"Ġelec":8637,"Ġcro":8638,"Ġbangun":8639,"Ġturun":8640,"Ġidol":8641,"Ġgener":8642,"Ġsirip":8643,"Ġcerkak":8644,"Ġpresent":8645,"Ġliter":8646,"Ġwernane":8647,"riksa":8648,"Ġkafka":8649,"Ġservice":8650,"nica":8651,"ĠÃ©m":8652,"Ġmori":8653,"atesi":8654,"Ġwanda":8655,"Ġgang":8656,"ipa":8657,"adhang":8658,"ocus":8659,"Ġkuliyah":8660,"Ġmbok":8661,"Ġputaran":8662,"Ġsoed":8663,"Ġleiden":8664,"erania":8665,"Ġwilson":8666,"Ġdipunwedalaken":8667,"Ġpenyel":8668,"Ġsimbul":8669,"Ġfeatur":8670,"Ġsteve":8671,"Ġcarlos":8672,"Ġhidrogen":8673,"kripsi":8674,"Ġperformance":8675,"Ġsyarat":8676,"Ġtomb":8677,"Ġpre":8678,"Ġshang":8679,"Ġwatak":8680,"Ġsubur":8681,"Ġtopeng":8682,"Ġrekor":8683,"Ġlewis":8684,"Ġbendungan":8685,"Ġgambaran":8686,"Ġcenta":8687,"Ġdatabase":8688,"ĠarkÃ©ologi":8689,"Ġyoutube":8690,"tanÃ©":8691,"Ġmpr":8692,"Ġlurus":8693,"erm":8694,"isk":8695,"ages":8696,"sium":8697,"Ġuh":8698,"Ġvilla":8699,"Ġasean":8700,"Ġkaserat":8701,"uce":8702,"Ġcarabasa":8703,"Ġpertunjukan":8704,"Ġott":8705,"Ġotonomi":8706,"Ġwhit":8707,"Ġcorpor":8708,"ĠgÃ©ologi":8709,"Ġnetwork":8710,"Ġdistrict":8711,"Ġanthrop":8712,"Ġvoice":8713,"Ġzoet":8714,"Ġkekancan":8715,"Ġguinea":8716,"die":8717,"gy":8718,"jing":8719,"zia":8720,"Äĳ":8721,"Ġkow":8722,"Ġdeg":8723,"Ġingon":8724,"Ġnich":8725,"Ġwester":8726,"Ġgib":8727,"ukani":8728,"hie":8729,"Ġsalv":8730,"Ġnglajengaken":8731,"ofil":8732,"Ġdicekel":8733,"Ġalbania":8734,"Ġflora":8735,"Ġkolon":8736,"Ġkolombia":8737,"Ġbening":8738,"Ġpembuluh":8739,"Ġpandang":8740,"Ġwhat":8741,"Ġkejuaraan":8742,"ĠtÃ¨hnik":8743,"Ġkondur":8744,"ĠÃ©pisode":8745,"Ġpralambang":8746,"Ġpunggawa":8747,"Ġmaga":8748,"Ġtind":8749,"Ġnimb":8750,"utt":8751,"Ġhop":8752,"Ġuu":8753,"Ġalg":8754,"Ġthree":8755,"Ġamino":8756,"ujan":8757,"Ġnyithak":8758,"Ġgresik":8759,"Ã¨rgi":8760,"Ġkagabung":8761,"Ġdiwaca":8762,"Ġbatam":8763,"Ġmatth":8764,"Ġkebun":8765,"Ġheight":8766,"Ġkristal":8767,"Ġkuburan":8768,"Ġkertu":8769,"Ġvisual":8770,"Ġrembulan":8771,"Ġtechn":8772,"Ġpamaburan":8773,"arm":8774,"Ġdetik":8775,"awah":8776,"egani":8777,"Ġdia":8778,"Ġvga":8779,"ampir":8780,"Ã¨kaken":8781,"Ġakan":8782,"Ġkla":8783,"Ġteknis":8784,"Ġitb":8785,"Ġpelaksana":8786,"Ġimig":8787,"Ġtransform":8788,"enehi":8789,"Ġpancen":8790,"Ġrahasia":8791,"awarsa":8792,"Ġpecah":8793,"Ġyakuwi":8794,"Ġproduction":8795,"Ġvirginia":8796,"Ġcharlie":8797,"Ġnebula":8798,"Ġmicrosoft":8799,"ĠÃ®le":8800,"ÄĻ":8801,"Î¼":8802,"ĠmÃ©n":8803,"Ġburung":8804,"Ġwelas":8805,"Ġriy":8806,"Ġcawang":8807,"ante":8808,"Ġpanit":8809,"Ġadv":8810,"Ġbreak":8811,"Ġatr":8812,"Ġterk":8813,"Ġningali":8814,"Ã¨ngeti":8815,"ebetaken":8816,"Ġibn":8817,"Ġcross":8818,"Ġrakai":8819,"Ġtarik":8820,"Ġsecara":8821,"Ġsutra":8822,"Ġnapol":8823,"Ġkodam":8824,"Ġditindakake":8825,"ĠparlemÃ¨n":8826,"ĠsedulurÃ©":8827,"Ġkabutuhan":8828,"Ġiskandar":8829,"Ġkatresnan":8830,"rih":8831,"Ġ×":8832,"Ġsantos":8833,"Ġpod":8834,"atha":8835,"Ġlow":8836,"ahtera":8837,"Ġrang":8838,"Ġsinga":8839,"andra":8840,"Ġaudi":8841,"Ġspace":8842,"Ġkomis":8843,"Ġpasaran":8844,"Ġmbabar":8845,"Ġberang":8846,"Ġdenis":8847,"Ġsamodra":8848,"Ġsusunan":8849,"Ġweruh":8850,"Ġandhap":8851,"Ġfisiologi":8852,"mp":8853,"zon":8854,"Ġkukus":8855,"Ġsos":8856,"Ġsilih":8857,"Ġted":8858,"issa":8859,"adani":8860,"Ġkatiga":8861,"Ġoven":8862,"ento":8863,"asanipun":8864,"Ġgarudha":8865,"ĠkagawÃ©":8866,"Ġmadya":8867,"Ġraket":8868,"Ġdomin":8869,"Ġpandhita":8870,"Ġcemilan":8871,"Ġheadphone":8872,"Ġperwira":8873,"Ġkv":8874,"Ġgaw":8875,"Ġpray":8876,"Ġdiaj":8877,"epon":8878,"otong":8879,"ogle":8880,"Ġtril":8881,"ajaan":8882,"Ġlangkah":8883,"Ġseine":8884,"aringaken":8885,"Ġkupu":8886,"Ġnganut":8887,"Ġspiritual":8888,"hari":8889,"rence":8890,"athi":8891,"Ġbanda":8892,"ĠnÃ©g":8893,"Ġgapura":8894,"Ġriv":8895,"Ġciv":8896,"illes":8897,"Ġdiset":8898,"Ġanggaran":8899,"Ġples":8900,"ĠgedhÃ©nÃ©":8901,"Ġtaneman":8902,"Ġdibawahi":8903,"Ġperkara":8904,"Ġhyun":8905,"ÃŃa":8906,"Ġanime":8907,"Ġlyon":8908,"Ġmungkasi":8909,"Ġpanlitian":8910,"Ġbridge":8911,"Ġpelayanan":8912,"ior":8913,"Ġdul":8914,"akat":8915,"erik":8916,"Ġgim":8917,"Ġgob":8918,"itage":8919,"Ġngemu":8920,"Ġngumum":8921,"ĠprÃ©":8922,"Ġkatolik":8923,"otis":8924,"amai":8925,"ists":8926,"Ġzain":8927,"Ġsoo":8928,"Ġdene":8929,"Ã©hat":8930,"Ġbibar":8931,"Ġbawah":8932,"Ġtebing":8933,"Ġunggulan":8934,"Ġasmara":8935,"Ġmexico":8936,"Ġkekuwatan":8937,"nie":8938,"sit":8939,"tel":8940,"áº":8941,"Ġãĥ":8942,"Ġtebu":8943,"Ġlimb":8944,"Ġlengen":8945,"Ġnutupi":8946,"Ġwuntu":8947,"adu":8948,"ulas":8949,"ukiman":8950,"olic":8951,"Ġanwar":8952,"ontakan":8953,"Ġkapan":8954,"Ġadu":8955,"eva":8956,"Ġtimun":8957,"Ġpakurmatan":8958,"Ġajeg":8959,"Ġbetawi":8960,"Ġbapakipun":8961,"Ġcyg":8962,"Ġmengku":8963,"hidrat":8964,"ĠkÃ¨rem":8965,"Ġdevelopment":8966,"hat":8967,"iÄĩ":8968,"mes":8969,"Ġung":8970,"Ġdist":8971,"enn":8972,"asus":8973,"adari":8974,"edo":8975,"Ġvene":8976,"ampu":8977,"ariat":8978,"Ġpenelitian":8979,"Ġisab":8980,"Ġadil":8981,"Ġsarah":8982,"Ġzi":8983,"Ġsepisan":8984,"ormat":8985,"encan":8986,"Ġmereka":8987,"Ġmetode":8988,"Ġmulih":8989,"Ġprakt":8990,"Ġceko":8991,"Ġrangkah":8992,"Ġencyclopedia":8993,"mulder":8994,"Ġsupporting":8995,"Ġsydney":8996,"ble":8997,"ds":8998,"furt":8999,"pura":9000,"Ġpista":9001,"Ġcib":9002,"eliti":9003,"etis":9004,"oca":9005,"Ġmbayar":9006,"Ġpemeran":9007,"Ġsangang":9008,"Ġkualifikasi":9009,"Ġmrico":9010,"Ġsegi":9011,"Ġharris":9012,"Ġgerak":9013,"Ġgoogle":9014,"iningrat":9015,"Ġvokalis":9016,"Ġbangkok":9017,"oviÄĩ":9018,"Ġlumba":9019,"Ġzoetmulder":9020,"don":9021,"ios":9022,"tin":9023,"vania":9024,"Ġpojok":9025,"aringan":9026,"Ġnug":9027,"umo":9028,"Ġinduk":9029,"Ġmanado":9030,"edha":9031,"Ã©ka":9032,"Ġpasina":9033,"ifah":9034,"Ġklawu":9035,"Ġpuluh":9036,"Ġinteraksi":9037,"Ġngrasa":9038,"Ġpersis":9039,"Ġkunci":9040,"Ġmulang":9041,"erator":9042,"Ġvalenc":9043,"Ð¾ÑĢ":9044,"Ġsuwara":9045,"Ġtopik":9046,"Ġkenn":9047,"Ġpanci":9048,"Ġhtml":9049,"Ġdianakake":9050,"Ġprimer":9051,"Ġngilang":9052,"ĠdiwÃ¨nÃ¨hakÃ©":9053,"iana":9054,"lia":9055,"Ġkandhang":9056,"Ġmujud":9057,"Ġnen":9058,"Ġgath":9059,"etep":9060,"Ġdhadha":9061,"idah":9062,"upi":9063,"track":9064,"Ġarus":9065,"uge":9066,"Ġputu":9067,"Ġngleb":9068,"Ġtembaga":9069,"Ġkawangun":9070,"indhungi":9071,"Ġtinamtu":9072,"Ġmriku":9073,"Ġsinambi":9074,"Ġlemon":9075,"Ġotom":9076,"Ġqueen":9077,"Ġherzeg":9078,"ĠduwÃ©ni":9079,"Ġmengsah":9080,"Ġjejib":9081,"Ġjavan":9082,"ĠdhaÃ©rah":9083,"Ġdasawarsa":9084,"Ġfoundation":9085,"Ġrancangan":9086,"Ġsethithik":9087,"yy":9088,"yana":9089,"Î·":9090,"ĠãĤ":9091,"arki":9092,"Ġmath":9093,"Ġbps":9094,"Ġwos":9095,"Ġcong":9096,"Ġcaf":9097,"apak":9098,"Ġuj":9099,"Ġyos":9100,"Ã¨ki":9101,"Ġnyathet":9102,"Ġai":9103,"Ġkrak":9104,"Ġplank":9105,"Ġuniverse":9106,"Ġpanji":9107,"Ġbandar":9108,"Ġtransm":9109,"Ġistat":9110,"Ġmorf":9111,"Ġgesangipun":9112,"ĠbedhamÃ¨n":9113,"Ġmaterial":9114,"dah":9115,"Ġsangk":9116,"Ġsisan":9117,"akang":9118,"Ġtawon":9119,"ahab":9120,"iting":9121,"Ġcs":9122,"Ġced":9123,"Ġcabai":9124,"esipun":9125,"Ġngono":9126,"ekam":9127,"eber":9128,"oprak":9129,"Ġdipunter":9130,"edhakÃ©":9131,"Ġmenapa":9132,"Ġspes":9133,"Ġkomandan":9134,"Ġkurdhi":9135,"play":9136,"etail":9137,"Ġbonang":9138,"ripta":9139,"Ġngubung":9140,"Ġdouglas":9141,"Ġyugoslav":9142,"well":9143,"Ġbod":9144,"ones":9145,"Ġrid":9146,"eknik":9147,"Ġindo":9148,"Ġmanfaat":9149,"adhan":9150,"ried":9151,"Ġkomando":9152,"Ġkakang":9153,"Ġmangkat":9154,"Ġpawarta":9155,"Ġcerak":9156,"Ġfair":9157,"Ġfinlandia":9158,"Ġsharp":9159,"Ġbombay":9160,"ĠanggotanÃ©":9161,"ĠsovyÃ¨t":9162,"hr":9163,"pan":9164,"Ġpm":9165,"Ġbudh":9166,"onj":9167,"Ġnm":9168,"Ġwic":9169,"iks":9170,"adian":9171,"Ġgogh":9172,"Ġjajan":9173,"Ġdiomb":9174,"Ġve":9175,"Ġsaweg":9176,"Ġchen":9177,"Ġmaul":9178,"Ġagr":9179,"Ġmitra":9180,"Ġcomedy":9181,"Ġkagunganipun":9182,"Ġgladh":9183,"Ġtulung":9184,"Ġdarm":9185,"Ġbiro":9186,"Ġreli":9187,"iptakakÃ©":9188,"Ġpangkalan":9189,"Ġdoctor":9190,"ĠÃ§":9191,"ĠÃ¨wu":9192,"aker":9193,"alaya":9194,"atre":9195,"Ġlt":9196,"Ġnr":9197,"Ġcuka":9198,"Ġngump":9199,"Ġfun":9200,"Ġdiis":9201,"Ġinsi":9202,"okimia":9203,"Ġarena":9204,"ardjo":9205,"Ġearth":9206,"Ġsurv":9207,"Ġpalastra":9208,"Ġmeter":9209,"Ã©mp":9210,"Ġseorang":9211,"Ġpesen":9212,"Ġpotter":9213,"Ġbunderan":9214,"Ġengine":9215,"Ġkingdom":9216,"Ġmanajer":9217,"Ġcuaca":9218,"Ġmichel":9219,"Ġculture":9220,"Ġpelatihan":9221,"ĠmbutuhakÃ©":9222,"Ġharvard":9223,"Ġherzegovina":9224,"wana":9225,"Äħ":9226,"Ġpist":9227,"Ġdate":9228,"Ġtod":9229,"Ġlur":9230,"Ġbart":9231,"enberg":9232,"inor":9233,"iness":9234,"Ġrodha":9235,"esta":9236,"Ġngaku":9237,"Ġsingel":9238,"Ġpersia":9239,"embara":9240,"Ġmarit":9241,"Ġfilos":9242,"Ġariw":9243,"Ġmahk":9244,"Ġsken":9245,"Ġdilak":9246,"Ġromantis":9247,"Ġinfeksi":9248,"ĠprofÃ¨si":9249,"ĠkembangÃ©":9250,"Ġhollywood":9251,"ements":9252,"Ġpacific":9253,"Ġocean":9254,"Ġpanaliten":9255,"Ġlumpur":9256,"hana":9257,"Ġkuran":9258,"ĠkÃ©ng":9259,"ĠpÃ©ri":9260,"Ġiya":9261,"Ġdob":9262,"Ġmunt":9263,"Ġjas":9264,"abah":9265,"ekh":9266,"okerto":9267,"Ġoranye":9268,"Ġfreder":9269,"ĠtembÃ©":9270,"ormatan":9271,"Ġbebaya":9272,"Ġglandhang":9273,"Ġbour":9274,"Ġcour":9275,"Ġmessi":9276,"Ġesp":9277,"ylvania":9278,"Ġstudies":9279,"Ġfauna":9280,"Ġboys":9281,"Ġkendaraan":9282,"Ġkomisaris":9283,"jÃ¨n":9284,"mel":9285,"Ġsengk":9286,"Ġiz":9287,"Ġcob":9288,"Ġcopa":9289,"Ġdiundang":9290,"araning":9291,"Ġplas":9292,"Ġenergi":9293,"Ġdelta":9294,"Ġsymb":9295,"rahaken":9296,"Ġethi":9297,"Ã©dan":9298,"iyarakÃ©":9299,"Ġcirc":9300,"Ġsengaja":9301,"ĠdilebokakÃ©":9302,"Ġdubai":9303,"Ġindependen":9304,"ĠpÃ©rak":9305,"Ġasisten":9306,"uin":9307,"ĠÑĤ":9308,"Ġming":9309,"Ġlower":9310,"Ġbij":9311,"Ġgulu":9312,"uster":9313,"ird":9314,"Ġuc":9315,"Ġkarbo":9316,"andani":9317,"oplas":9318,"anie":9319,"Ġabdi":9320,"Ġadegan":9321,"Ġditutup":9322,"Ġdisedhiyakake":9323,"Ġkomite":9324,"Ġwalter":9325,"ellow":9326,"Ġdikarep":9327,"ĠkawÃ©ntar":9328,"Ġibuk":9329,"Ġmade":9330,"Ġkonsonan":9331,"Ġclark":9332,"Ġpendek":9333,"Ġkediri":9334,"ĠolÃ¨hÃ©":9335,"Ġpawongan":9336,"Ġkodhok":9337,"Ġngrembak":9338,"view":9339,"Ġginjel":9340,"Ġunicode":9341,"cia":9342,"kov":9343,"non":9344,"å¸":9345,"arus":9346,"unganÃ©":9347,"Ġpensi":9348,"Ġtrek":9349,"Ġditempuh":9350,"Ġterl":9351,"rough":9352,"Ġxv":9353,"Ġmikir":9354,"Ġtriang":9355,"Ġngilangi":9356,"ĠwarnanÃ©":9357,"Ġinspirasi":9358,"Ġperjanjian":9359,"Ġeuropean":9360,"Ġpanumpes":9361,"Ġjejibahan":9362,"ping":9363,"unakÃ©":9364,"ĠrÃ©n":9365,"Ġrilis":9366,"Ġcim":9367,"Ġhai":9368,"ĠdhÃ©p":9369,"Ã©nipun":9370,"Ġminuman":9371,"Ġkaanggo":9372,"Ġpasca":9373,"Ġkerang":9374,"Ġgedhung":9375,"Ġcarkak":9376,"Ġmisteri":9377,"Ġsetu":9378,"Ġkesatuan":9379,"Ġseason":9380,"Ġkontrib":9381,"Ġmichi":9382,"ĠtÃ©ater":9383,"Ġdipunbabar":9384,"Ġsedheng":9385,"Ġjulia":9386,"Ġdingerteni":9387,"ĠmÃ©todhe":9388,"Ġorientation":9389,"Ġhamengkubuwana":9390,"low":9391,"Ġkami":9392,"Ġdy":9393,"Ġlek":9394,"Ġlangg":9395,"Ġnembang":9396,"Ġjangka":9397,"ĠrÃ©l":9398,"Ġfull":9399,"ukir":9400,"Ġhers":9401,"Ġdiatur":9402,"iyo":9403,"upe":9404,"Ġpernik":9405,"Ġalmar":9406,"Ġasor":9407,"atiga":9408,"Ġain":9409,"oho":9410,"Ġklaten":9411,"ehatan":9412,"ĠkabupatÃ¨nÃ©":9413,"Ġsabib":9414,"order":9415,"Ġkonsumsi":9416,"Ġcolors":9417,"Ġview":9418,"Ġostr":9419,"Ġnazi":9420,"Ġcorak":9421,"Ġftv":9422,"ãģ®":9423,"Ġlempung":9424,"Ġuwong":9425,"ĠgunanÃ©":9426,"Ġpisces":9427,"Ġkyr":9428,"Ġjaban":9429,"ĠditerbitakÃ©":9430,"Ġpekanbaru":9431,"ĠdhosÃ¨n":9432,"Ġdomestik":9433,"Ġkarbohidrat":9434,"Ġalmarhum":9435,"jad":9436,"Ġdasa":9437,"ality":9438,"Ġtambang":9439,"ĠbÃ¨b":9440,"Ġnations":9441,"Ġjem":9442,"antÃ¨n":9443,"Ġfas":9444,"Ġvat":9445,"Ġthor":9446,"Ġamal":9447,"Ġpanah":9448,"Ġnjeron":9449,"Ġandy":9450,"Ġpembantu":9451,"Ġpeace":9452,"anjer":9453,"Ġarmenia":9454,"Ġbantul":9455,"Ġjonathan":9456,"Ġlambung":9457,"Ġsosialis":9458,"Ġparlemen":9459,"Ġmanuskrip":9460,"Ġreformasi":9461,"sem":9462,"atakÃ©":9463,"Ġnumb":9464,"Ġcum":9465,"Ġcot":9466,"ulangan":9467,"apatan":9468,"Ġfeder":9469,"ukuran":9470,"irman":9471,"Ġkatulis":9472,"ijakan":9473,"ersey":9474,"Ġspring":9475,"Ġdibumb":9476,"rahman":9477,"Ġptol":9478,"Ġdipunkenal":9479,"Ð¾Ð»":9480,"Ġpamikiran":9481,"etahuan":9482,"ÃŁ":9483,"ĠsÃ©ri":9484,"akir":9485,"Ġlengg":9486,"Ġbj":9487,"Ġjasm":9488,"Ġjadwal":9489,"Ġlant":9490,"Ġdiob":9491,"gae":9492,"Ġdhuk":9493,"Ġputeri":9494,"Ġdibungkus":9495,"Ġlaghu":9496,"Ġseti":9497,"Ġkemer":9498,"Ġdiluncur":9499,"uthu":9500,"Ġrobin":9501,"Ġsilver":9502,"Ġcekap":9503,"Ġfitri":9504,"ibatakÃ©":9505,"Ġpoliteknik":9506,"uturakÃ©":9507,"Ġmembran":9508,"Ġatmos":9509,"ĠkÃ©nging":9510,"com":9511,"crip":9512,"tt":9513,"Ã¬":9514,"Äĵ":9515,"Ġsira":9516,"ĠpÃ¨ng":9517,"arno":9518,"Ġiji":9519,"Ġdz":9520,"Ġdyah":9521,"Ã©c":9522,"Ġtm":9523,"Ġlast":9524,"isha":9525,"Ġnangg":9526,"awuhi":9527,"itun":9528,"Ġnguc":9529,"sica":9530,"Ġhik":9531,"Ġhass":9532,"Ġhesse":9533,"ides":9534,"Ġalat":9535,"enti":9536,"Ġnjagi":9537,"uchi":9538,"ĠumumÃ©":9539,"Ġflav":9540,"Ġrumangsa":9541,"ĠdijenengakÃ©":9542,"Ġpinyin":9543,"Ġcerpen":9544,"Ġsecond":9545,"Ġgulung":9546,"Ġkritikus":9547,"ĠadohÃ©":9548,"Ġobyek":9549,"Ġinjil":9550,"Ġnyawiji":9551,"abolisme":9552,"Ġyuswanipun":9553,"Ġplankton":9554,"ĠsÃ£o":9555,"Ġdeng":9556,"Ġmec":9557,"Ġbencana":9558,"amis":9559,"Ġgy":9560,"Ġgif":9561,"itanÃ©":9562,"Ġsakd":9563,"omun":9564,"Ġmaroko":9565,"Ġard":9566,"Ġtrag":9567,"Ġpangarep":9568,"Ġmbc":9569,"Ġklanjer":9570,"Ġsurin":9571,"Ġdiwen":9572,"Ġkursus":9573,"Ġmerek":9574,"Ġmeth":9575,"Ġgelas":9576,"Ġbelitung":9577,"Ġproton":9578,"ÃŃn":9579,"Ġbahasa":9580,"Ġengland":9581,"Ġgendhing":9582,"Ġakuntan":9583,"ĠdarbÃ©nÃ©":9584,"yim":9585,"Ð±":9586,"aktur":9587,"Ġbw":9588,"Ġbum":9589,"ams":9590,"Ġwur":9591,"Ġgp":9592,"ominasi":9593,"Ġvin":9594,"Ġdigolong":9595,"Ġditambahi":9596,"Ġbrebes":9597,"Ġsatya":9598,"Ġberh":9599,"ext":9600,"Ġsamen":9601,"Ġbangunan":9602,"Ġfly":9603,"Ġbened":9604,"Ġbausastra":9605,"Ġpanyebaran":9606,"Ġprotein":9607,"Ġrepr":9608,"Ġkoperasi":9609,"Ġgizi":9610,"Ġcollection":9611,"Ġmanggihaken":9612,"fjord":9613,"rut":9614,"ving":9615,"Ġsist":9616,"Ġdomba":9617,"att":9618,"ingu":9619,"Ġnolak":9620,"uset":9621,"Ġngak":9622,"Ġsakb":9623,"ajahan":9624,"otte":9625,"Ġyok":9626,"Ġalt":9627,"Ġarist":9628,"lex":9629,"ucal":9630,"Ġplace":9631,"Ġdiresm":9632,"Ġpizza":9633,"Ġpendukung":9634,"Ġkimi":9635,"Ġkejawi":9636,"Ġkejaba":9637,"other":9638,"Ġmikro":9639,"Ġtamba":9640,"Ġjenn":9641,"ĠdhÃ©mokrasi":9642,"Ġplayer":9643,"Ġlilin":9644,"Ġbidang":9645,"ĠnemtokakÃ©":9646,"Ġkunjara":9647,"niv":9648,"area":9649,"Ġdusun":9650,"alin":9651,"Ġbiyos":9652,"erd":9653,"onipun":9654,"ajor":9655,"tre":9656,"ativ":9657,"igar":9658,"Ġsalatiga":9659,"ĠkrÃ©ta":9660,"ochi":9661,"Ġein":9662,"Ġsher":9663,"Ġpla":9664,"Ġpengadilan":9665,"eller":9666,"ĠwÃ©tanÃ©":9667,"Ġteen":9668,"Ġabdur":9669,"Ġhanoi":9670,"Ġnias":9671,"Ġpaulo":9672,"Ġdonga":9673,"Ġgadjah":9674,"Ġsciences":9675,"Ġadams":9676,"Ġatlantik":9677,"Ġnigeria":9678,"Ġperempat":9679,"ĠnyritakakÃ©":9680,"Ġinfluenza":9681,"Ġmatthew":9682,"Ġskenario":9683,"Ġbiyoskup":9684,"bert":9685,"pasar":9686,"uasa":9687,"Ð²":9688,"Ġí":9689,"Ġtangk":9690,"Ġtungg":9691,"Ġbara":9692,"enis":9693,"Ġnandhang":9694,"adat":9695,"Ġgut":9696,"elum":9697,"etta":9698,"ukti":9699,"Ġpratan":9700,"sai":9701,"Ġnalik":9702,"Ġnjeblug":9703,"ches":9704,"ĠdhÃ¨wÃ©kÃ©":9705,"Ġditinggal":9706,"Ġurut":9707,"ave":9708,"Ġswiwi":9709,"Ġleuk":9710,"Ġpeters":9711,"Ġpertandhingan":9712,"incang":9713,"Ġbutuh":9714,"Ġsudut":9715,"Ġuwab":9716,"Ġpantun":9717,"Ġrebo":9718,"ĠÃ¨ksekutif":9719,"Ġstatistika":9720,"Ġsumpah":9721,"Ġantonio":9722,"Ġmonoponik":9723,"Ġlinguistik":9724,"dia":9725,"ĠÅį":9726,"Ġkuk":9727,"Ġich":9728,"erek":9729,"Ġnerang":9730,"uro":9731,"Ġjeff":9732,"Ġrabi":9733,"ited":9734,"imal":9735,"Ġyong":9736,"trop":9737,"Ġpanulisan":9738,"Ġdipisah":9739,"Ġtrin":9740,"Ġparad":9741,"ambaraken":9742,"Ġsabuk":9743,"Ġaction":9744,"Ġngrilis":9745,"Ġsangsaya":9746,"ĠilÃ¨n":9747,"Ġmerapi":9748,"Ġkonsep":9749,"Ġdidad":9750,"Ġcollec":9751,"Ġvertical":9752,"ĠÃ©nak":9753,"lop":9754,"Ġih":9755,"Ġtabung":9756,"ener":9757,"Ġnahan":9758,"Ġjemb":9759,"itter":9760,"etika":9761,"Ġful":9762,"Ġhindh":9763,"Ġdif":9764,"iao":9765,"acap":9766,"Ġamaz":9767,"ijk":9768,"umbah":9769,"Ġfrag":9770,"Ġmbal":9771,"Ġze":9772,"onstr":9773,"Ġdadosaken":9774,"uwihi":9775,"Ġinterior":9776,"Ġforce":9777,"inium":9778,"linois":9779,"Ġcair":9780,"Ġplatinum":9781,"Ġpurwokerto":9782,"Ġkyoto":9783,"Ġkiper":9784,"Ġkonservasi":9785,"Ġolymp":9786,"bel":9787,"bars":9788,"fik":9789,"åħ":9790,"Ġnark":9791,"ades":9792,"Ġjang":9793,"Ġjeblug":9794,"iler":9795,"Ġfut":9796,"Ġfour":9797,"edes":9798,"arium":9799,"ĠbarÃ¨s":9800,"Ġmusuh":9801,"Ġklip":9802,"Ġpetrus":9803,"endhem":9804,"Ġkanal":9805,"Ġherman":9806,"Ġdeputi":9807,"Ġlawrence":9808,"Ġmoral":9809,"Ġavi":9810,"Ġpinggiran":9811,"ĠprimÃ¨r":9812,"Ġgabri":9813,"Ġgallery":9814,"Ġzaitun":9815,"Ġfolk":9816,"Ġperadaban":9817,"Ġpernikahan":9818,"kr":9819,"isih":9820,"Ġrembang":9821,"Ġramanipun":9822,"Ġcura":9823,"Ġfund":9824,"Ġhut":9825,"Ġperum":9826,"Ġalso":9827,"ancy":9828,"Ġawu":9829,"Ġear":9830,"Ġpamangk":9831,"eaxis":9832,"Ġbakul":9833,"Ġtimeaxis":9834,"Ġtelek":9835,"under":9836,"Ġnova":9837,"esize":9838,"emeni":9839,"Ġmadras":9840,"Ġdaun":9841,"Ġxx":9842,"tify":9843,"Ġesai":9844,"zair":9845,"Ġexpress":9846,"Ã¶n":9847,"Ġboston":9848,"Ġcepu":9849,"Ġsayap":9850,"utradarai":9851,"Ġtibet":9852,"Ġplotarea":9853,"Ġsoundtrack":9854,"Ġimagesize":9855,"Ġscalemajor":9856,"ÑĪ":9857,"Ġkandha":9858,"Ġtawar":9859,"Ġtinggal":9860,"Ġrin":9861,"Ġcame":9862,"elik":9863,"Ġford":9864,"away":9865,"ubengi":9866,"Ġkaputusan":9867,"Ġsalim":9868,"Ġbaron":9869,"Ġsadawan":9870,"Ġdibagi":9871,"Ġblan":9872,"Ġinfo":9873,"Ġlux":9874,"Ġkongo":9875,"ĠÃ¨nÃ¨rgi":9876,"Ġhadits":9877,"ĠpokÃ©mon":9878,"Ġhitler":9879,"Ġsempet":9880,"ĠkapernahakÃ©":9881,"Ġngengingi":9882,"Ġotomatis":9883,"Ġkawi":9884,"Ġpest":9885,"Ġgord":9886,"Ġjombang":9887,"Ġrick":9888,"Ġroda":9889,"ilik":9890,"agaran":9891,"ukon":9892,"sional":9893,"Ġkapapat":9894,"ĠspÃ¨si":9895,"Ġpanguripan":9896,"Ġsekab":9897,"Ġngras":9898,"ĠdÃ©p":9899,"Ġpelop":9900,"Ġillinois":9901,"Ġcilacap":9902,"Ġkeadilan":9903,"Ġpurwa":9904,"Ġheritage":9905,"Ġpraktik":9906,"Ġsandiwara":9907,"ĠdongÃ¨ng":9908,"Ġkotak":9909,"Ġsteven":9910,"ĠrupanÃ©":9911,"ĠkethÃ¨k":9912,"Ġlady":9913,"Ġalignbars":9914,"ĠjeronÃ©":9915,"Ġbasket":9916,"ĠdikembangakÃ©":9917,"Ġsifat":9918,"Ġsabibaripun":9919,"omunikasi":9920,"basa":9921,"kn":9922,"uas":9923,"Ġkegi":9924,"Ġsangan":9925,"Ġdosa":9926,"Ġdetail":9927,"ĠmÃ¨n":9928,"Ġmij":9929,"Ġlinc":9930,"Ġnutup":9931,"adya":9932,"ĠfÃ¨s":9933,"Ġdiego":9934,"Ġkarena":9935,"Ġstie":9936,"Ġsury":9937,"Ġkerajaan":9938,"Ġtelepon":9939,"Ġmaks":9940,"Ġkorean":9941,"ĠmodÃ¨l":9942,"Ġwae":9943,"Ġmenangaken":9944,"Ã¶l":9945,"Ġpresident":9946,"Ġmandhap":9947,"Ġborne":9948,"Ġpendhudhuk":9949,"Ġmundhut":9950,"Ġdiameter":9951,"ĠturnamÃ¨n":9952,"Ġrumpun":9953,"Ġpakaryanipun":9954,"Ġanugerah":9955,"cop":9956,"fah":9957,"fish":9958,"mik":9959,"yut":9960,"Ġmomot":9961,"atara":9962,"enh":9963,"ikir":9964,"ures":9965,"epyakakÃ©":9966,"opo":9967,"Ġdead":9968,"eformat":9969,"Ġparty":9970,"Ġkedua":9971,"Ġkadhiri":9972,"Ġdateformat":9973,"Ġinstitusi":9974,"Ġpencak":9975,"Ġfotografi":9976,"kol":9977,"nus":9978,"rov":9979,"yg":9980,"Ġtort":9981,"erra":9982,"ikulum":9983,"Ġgyeong":9984,"Ġfra":9985,"ogn":9986,"Ġaset":9987,"Ġindustr":9988,"Ġstadhi":9989,"Ġnyerah":9990,"Ġbale":9991,"illo":9992,"ehan":9993,"Ġkawula":9994,"Ġsemif":9995,"ĠmainakÃ©":9996,"Ġpetern":9997,"Ġdenpasar":9998,"Ġgaleri":9999}