#version: 0.2 - Trained by `huggingface/tokenizers`
a n
Ã ©
e u
Ġ k
a r
Ġ t
n g
Ġ a
Ġ m
Ġ s
Ġ p
n a
Ġ d
Ġ b
a l
r o
a t
Ġ n
an g
Ġd i
s t
o r
Ġ j
e r
Ġ i
s i
a h
t a
i d
Ġa st
a d
o n
a k
e n
ro id
eu n
Ġk a
Ġ c
Ã© roid
Ġast Ã©roid
Ġ l
u k
Ġ r
i n
Ġ h
u n
t i
a s
k eun
Ġ ng
Ġ an
u l
Ġ g
u r
a p
a m
u m
a g
Ġn u
Ġt i
y a
i t
Ġ o
r i
eu ng
at e
u t
u p
Ã© n
e d
Ġt h
en t
Ġj eung
o l
Ġ w
Ġi eu
ar i
Ġi n
u s
i s
Ġan u
Ġth e
l an
a b
ad i
u ng
o m
e l
Ã© k
or i
Ġ f
Ã© ta
Ġp lan
e m
k a
an a
e s
Ġk ate
e ng
i l
g ori
Ġkate gori
e t
Ġdi na
Ġj adi
Ġti na
j i
Ã© h
ar a
Ġm in
i c
p o
i ng
Ġm ar
Ġn ya
uk an
Ġp i
a w
u d
e b
i r
Ġnya Ã©ta
ad a
Ġk al
m or
Ã© r
c ap
ul a
e k
l o
Ã© b
i ji
an d
Ġpi keun
Ġk u
Ġ ari
Ġm ang
Ġa p
up a
na l
Ġplan Ã©
Ġmar cap
Ġmarcap ada
Ġn Ã©b
ĠnÃ©b ula
Ġp an
e p
i k
ah an
t er
a y
d i
Ġs ar
i m
i on
Ġh iji
Ġ un
a si
Ġo f
Ġ ro
Ġmang r
u j
Ġ na
u h
o g
ol lo
Ġmangr upa
Ġt eu
um b
Ġa l
Ġt Ã©h
u ar
Ġap ollo
Ġka b
a j
t ar
Ġ or
o nal
Ġs ak
Ġm ah
Ġr Ã©
ta s
ang ka
w a
Ġb eu
Ġka w
a c
Ġ Ã©k
Ġp er
Ġmin angka
Ã©n t
Ã© an
an j
Ġd eu
Ġa mor
Ġ v
Ġb ag
Ġsar ta
ro n
o k
Ġin ter
Ġka c
Ġr uj
eu l
Ġruj ukan
eu t
umb u
a un
i h
o t
Ġg ed
b ah
Ġkal uar
Ã© na
or a
ar an
m al
Ġt ut
Ġs ed
o ng
ang g
as a
e c
Ġp ri
Ã©n si
ĠÃ©k s
Ġb ad
Ġo b
Ġkaw as
ti onal
ent uk
Ġ ar
ic al
Ġsed eng
Ġinter na
k eut
Ġm ag
i a
Ġ y
l ak
Ġsedeng keun
si tas
Ġd ap
Ġc ent
b it
um na
ate t
Ġbag Ã©an
Ġdap tar
Ġn y
Ġa ta
Ġpan on
Ġdeu keut
Ġmag n
Ġan d
Ġa s
Ġinterna tional
Ġbad ag
Ġdi p
Ġro bah
e g
Ġob j
po Ã©
ĠrÃ© f
Ġc uk
Ġm ut
Ġng ora
b eul
Ġplan et
Ġata wa
Ġb eb
it ud
r ek
Ġcuk up
Ġor bit
Ġtut umbu
ron om
ti si
Ġast ronom
Ġt aun
Ġpanon poÃ©
Ġun ion
Ġcent er
Ġsak umna
Ã©r Ã©nsi
Ġged Ã©na
ĠrÃ©f Ã©rÃ©nsi
ĠplanÃ© t
Ġkac atet
Ġobj Ã©k
Ġkab entuk
Ġs al
itud o
Ġp ro
e roid
Ġmin or
Ġng anj
Ġi s
ent ukan
Ã©nt ri
Ġast eroid
at an
Ġmut lak
Ġnganj rek
Ġastronom ical
di al
Ġmagn itudo
ĠÃ©ks Ã©ntri
ĠÃ©ksÃ©ntri sitas
beul ahan
Ġpri mor
Ġprimor dial
Ġbeb entukan
ĠrÃ©fÃ©rÃ©nsi na
ĠplanÃ© tisi
Ġbeu beulahan
ĠplanÃ©tisi mal
Ġmutlak na
u b
Ġm po
Ġp ang
Ġo g
o d
Ġt o
Ġa ya
i b
Ġog Ã©
Ġin d
si a
Ġk ar
s a
r a
Ġs t
i an
Ġb is
a ya
ang an
Ġs ab
eu s
Ġm an
ang k
i st
i g
c h
m a
o b
eu r
ti k
Ġbis a
o s
Ġp r
d a
Ġl eu
am b
Ġ e
Ġp am
an t
o h
Ġa m
l e
Ã© l
o p
u a
Ġdi s
Ġj al
al i
i ka
Ġs a
e w
em b
ak Ã©
Ã© t
u g
o ta
ar ah
Ġc h
i p
am p
u na
a i
Ã© m
a an
Ġb asa
at ion
Ġk ana
i na
ur ang
u an
Ã© s
Ġind on
v er
i ti
si on
eb ut
en d
Ġ Ã©ta
Ġleu w
Ġp ar
an c
Ġp o
Ġc on
Ġka p
Ġf or
Ġs p
u y
Ġg eus
at a
Ġs ta
Ġt r
l ah
em p
Ġl a
aw a
Ġka s
og a
Ġa k
Ġp as
eng k
Ġn ep
Ġsab ab
Ġna g
Ġleuw ih
ang un
Ġs ap
Ġa t
at i
and a
Ġa b
ung an
Ġb i
ak ar
l y
Ġk ul
Ġb ar
u st
ti on
Ġ on
i si
Ġ u
r e
Ġa c
Ġb e
Ġm ib
v e
Ġng al
Ġs Ã©
Ġnep i
Ġc om
Ġa w
Ġs un
Ġh ar
t h
Ġs h
in e
ur an
Ã© sia
ap i
Ġs o
Ġdi t
Ġk ota
Ġk at
Ġk on
Ġt er
m an
ah iji
Ġsta sion
Ġ us
Ġindon Ã©sia
ak eun
Ã©h na
Ġdi b
Ġm as
aw an
t o
Ġk eur
eu na
Ġb and
Ġk om
Ġs at
akar ta
ak u
Ã© ng
u si
Ġm a
Ġng aran
al a
ung g
m p
Ġk e
Ġk ad
Ġd e
im iti
en c
Ġa d
Ġs aj
Ġ um
Ġ Ã©
Ã© ri
am an
Ġt ur
u c
ng g
t u
Ġng ag
ri s
Ġdip akÃ©
Ġr e
Ġt api
Ġnag ara
ol og
Ġd a
i w
Ġng ab
m i
Ġs am
Ġa g
ak an
asi l
Ġsun da
Ġ urang
Ġa y
ec t
er i
Ġi t
Ġw h
Ġan t
eu h
am a
ro p
q u
Ġb al
an s
Ġdis ebut
er s
Ġr upa
o w
Ġm al
Ġ z
Ġdi g
Ġt ul
an y
es s
Ġng ar
Ġd ua
o c
us an
arah a
l i
it h
Ã© si
Ġs e
ob a
Ġo p
f or
t ur
uh an
Ġs ur
ir a
un d
si onal
Ġw ar
ti ng
Ġb ul
Ġj akarta
ay an
Ġh al
Ġsal ah
e st
ro m
in d
i ri
di a
a st
e ro
Ġw al
g a
Ġd un
ar d
Ġkar Ã©ta
uh ur
on om
Ġp ul
Ġp al
Ġr es
Ġd Ã©
j Ã©n
Ġsabab araha
Ġb ak
v i
Ġe x
Ġm imiti
Ġb ab
Ġc o
Ġw ew
l u
Ġj ur
engk on
Ġman Ã©hna
Ġb er
Ġm o
Ġt emp
Ġt an
u w
Ġf il
Ġwew engkon
Ġk el
Ġj awa
Ġam Ã©ri
ĠamÃ©ri ka
Ġd an
um p
e si
Ġb y
Ġm akÃ©
Ġy Ã©n
Ġun i
ar keun
k an
Ġp ol
Ġka m
Ġk id
Ġl oba
Ġs ahiji
Ġan j
m e
is an
ic h
Ġ el
on d
Ġi ngg
Ġu ta
as ar
ari ta
Ġs ac
Ġingg ris
Ġng aw
Ġband ung
Ġp en
Ġb at
ir up
it u
uk u
Ġpo Ã©
Ġs en
eu m
il a
Ġb oga
in t
Ġw ak
ĠsÃ© jÃ©n
Ġkid ul
r am
Ġn o
ag a
Ġdeu i
p in
Ġ nal
ap an
Ġj ep
Ã©m b
Ġw il
Ġp l
it y
al na
j ang
eun na
Ġjal ma
Ġm il
Ġs er
Ġb u
Ġar e
Ġsac ara
Ġj p
Ġtemp at
i f
Ġng ad
Ġmib oga
ig h
Ġh ent
Ġc ai
or t
Ġper ang
Ġw ith
Ġjep ang
Ġ eu
Ġth at
Ã© a
er ti
Ġhent eu
Ġm Ã©
ang s
Ġap i
as an
er e
Ġi m
Ġs aw
Ġb r
Ġkal awan
Ġl am
Ġm at
ar ak
Ġa h
ari s
Ġng ah
eun ang
Ġl uhur
Ġs y
Ġg un
Ġb ud
Ġm od
aj a
w an
t or
Ġdi k
Ġk ira
olog i
as ana
ol a
Ġp at
Ġkul on
Ġs angg
ti p
ate s
Ġw angun
Ġjp g
f f
un t
Ġant ara
s e
j an
Ġg en
as up
Ġg amb
Ġng an
Ġny i
Ġdi m
Ġt umbu
Ġnal ika
Ġp h
Ġng aj
Ġg r
j a
uk eun
ti c
Ġ Ù
Ġ uk
Ġmib anda
Ġa ir
ung si
el l
Ġt eng
e na
Ġsal aku
Ġb Ã©
g an
onom i
up at
ung k
i ta
Ġm usi
Ø §
ak a
Ġh a
Ġ angg
l am
Ġ q
Ġs um
Ġs em
ub l
Ġdi c
Ġk or
Ġk ara
Ġuni ver
for m
Ġlam un
Ġbak al
Ġjal ur
eu p
Ġdun ya
Ġsangg eus
p a
Ġtul uy
g i
Ġ Ã©l
Ġl uar
Ġtr ans
Ġb ah
j adi
d er
Ġc ara
Ġt angg
k at
Ġgun ung
Ġjur usan
Ġkab upat
Ġb o
is h
Ù Ħ
Ġt el
lan d
Ġf r
Ġke cap
un an
id a
Å į
Ġsaj arah
Ġsap erti
ri k
Ġk h
g e
ar Ã©nt
em po
Ġhar ti
un c
Ġk ud
Ġanj eunna
Ġwak tu
Ġs i
Ġk ol
una keun
Ġs ub
si t
Ġg e
Ġl ian
Ġb ahan
Ġp ag
Ġjal an
ah a
Ġmang sa
Ġm eunang
Ġka asup
Ġa f
r al
Ġf rom
Ġi b
e h
Ġti m
Ġbag ian
Ġpam arÃ©nt
Ġh irup
Ġp ak
k i
j aan
Ġcom p
Ġng euna
Ġm en
Ġdi ji
Ġs in
Ġkal ayan
Ġl ine
Ġm asi
Ġs ist
us na
r at
Ġp a
us a
Ġs ok
Ġl al
Ġbi asana
Ġk ah
ar ang
c i
e sia
Ġs el
ã ĥ
Ġla ut
er n
ĠÃ©k onomi
Ġl o
Ġm er
Ġk iw
eng an
Ġpan y
Ġr a
Ġn ew
al an
Ġkabupat Ã©n
f i
h a
Ġan y
Ã©t an
angs ung
Ġp ara
Ġngeuna an
Ġkiw ari
l a
ti s
j o
aya an
Ġpul o
Ġm ak
Ġis lam
Ġc an
Ġm ana
Ġk ak
Ġleu tik
and ap
Ġp ur
t s
Ġnyi eun
si s
Ġd r
Ġan tar
Ġindon esia
e y
Ġc ar
Ġs ol
Ġt angk
Ġs u
aw ar
Ġi i
Ġal atan
Ã©r Ã©
um i
Ġl an
Ġl i
h i
angg ih
Ġkara jaan
emb ang
Ġkal Ã©r
Ġb ang
Ġi st
Ã©r ah
Ġw or
ri c
Ġdi st
ungg al
r ak
Ġteng ah
r y
Ġr adi
Ġdi w
om b
Ġh asil
Ġm ed
ar na
Ġtangg al
ul is
ut an
Ġp ad
Ġti lu
im a
Ġdiji eun
o an
Ġbul an
ti f
arak at
Ġd um
Ġda Ã©rah
c e
Ġsar eng
Ġgamb ar
Ġpro d
ika si
Ġor gan
Ġs ag
f er
Ġs m
Ġp us
Ġh as
ag e
Ġpan jang
s on
tar an
e v
ag i
Ġcon to
Ġsar ua
t on
Ġg er
Ġmar an
Ġw a
Ġn or
at keun
Ġs w
Ġg o
Ġm ungg
al l
im p
Ġdi r
m in
Ġy ang
Ġc a
ay ang
Ġuta ma
Ġs ing
ac h
Ġm un
id ang
angk an
ar y
Ġh id
Ġti ng
ari ng
Ġkom p
t an
or y
Ġdi l
Ġc ir
Ġab ad
y an
b i
Ġth is
in an
Ġst at
it an
Ġw Ã©tan
Ġmungg aran
Ġm us
Ġpam a
Ġ en
ak i
r an
Ġj ero
un i
Ġaw ak
n ya
Ġd o
Ġkud u
w ay
uk ang
Ġv ari
umb er
ac e
e ta
Ġm aj
m u
Ġd aun
er asi
i z
Ġp op
Ġdi h
Ġb as
m ad
ri l
Ġman usa
Ġsa urang
Ġk o
Ġdum asar
Ġw as
ĠdÃ© sa
al ah
Ġangg ota
Ġal am
Ġr aja
igh t
Ġng ali
Ġmas arakat
an ana
Ġs ana
Ġm on
Ġg Ã©
d Ã©n
Ġ ul
um lah
Ġged Ã©
Ġl in
Ġp ut
Ġp up
ud i
eb on
l in
u al
enc e
s Ã©s
Ġas alna
ã Ĥ
Ġk m
Ġum um
or e
ur a
Ġc ol
am atan
an ti
e x
s o
Ġg el
i j
Ġk itu
Ġh andap
Ġt empo
Ġcom m
Ġo k
od e
Ġ x
Ġlan taran
Ġa sia
ak s
p r
Ġ up
i v
ac k
Ġsana jan
Ġp isan
Ã©mb er
ik an
ih an
Ġk an
ek u
Ġal b
Ġ ed
Ġ Ø§
Ġm et
Ġna sional
Ġngali w
ir an
Ġla in
anc is
en si
Ġka jadi
Ġk ur
l es
u ta
ĠbÃ© da
uw uhan
Ġj an
Ġany ar
ã ģ
l d
Ġs or
Ġkajadi an
Ġk er
Ġs ik
Ġan ak
Ġay ana
Ġf o
Ġm ay
Ġt ok
ing an
Ġpr Ã©si
Ġc l
asil keun
Ġt ukang
Ġay euna
Ġs uk
ing k
Ġj a
Ġtangk al
Ġharti na
Ġs il
Ġs ig
Ġp ap
ag u
Ġn ot
ri b
Ġwh ich
m ent
Ġs angkan
Ġt uj
Ġst r
Ġd at
om e
h an
Ġs ah
ul an
ate d
ation s
ong an
er al
Ġs ul
Ġb in
Ġk im
Ġsam Ã©m
Ġs it
tik an
Ġngag unakeun
Ġres mi
Ġl um
emb er
Ġdiw angun
o v
u ari
Ġd al
m b
m ana
n i
Ġi l
Ġs Ã©l
Ġin t
Ġbeu r
Ġm u
ubl ik
Ġsak ab
Ġr ep
er t
Ġpro pin
Ġpropin si
o us
Ġar ab
Ġj am
Ġs c
Ġ ur
Ġc arita
im b
Ġk l
Ġs up
ul i
er a
Ġb en
ur e
Ġbu ah
c a
Ġt ar
wan oh
Ġb el
st ra
Ġp il
Ġ Ã©n
Ġk Ã©n
Ġg al
Ġ angk
Ġfil e
Ġm is
Ġs amp
h ar
Ġmusi k
ah aran
Ġpro g
ĠrÃ© p
s u
Ġtr adi
Ġr el
Ã© w
Ġtut uwuhan
Ġwal anda
Ġs ep
Ġkap anggih
Ġb a
ot o
uh u
st r
Ġl eg
Ġantar ana
Ġd ar
Ġpama Ã©n
Ġm ur
Ġkac amatan
Ġ ub
Ġj umlah
Ġin dia
Ġtan euh
Ġar g
a in
Ġs isi
i al
ati f
ug h
Ġbab ar
si r
uk a
Ġmasi h
Ġh us
is asi
Ġk ahiji
Ġm ad
ah keun
Ġkad aharan
Ġs eb
aw Ã©
Ġk urang
Ġb od
Ġj en
v el
at u
Ã© ar
Ġd ata
b ab
r Ã©
Ġ unggal
o na
Ġs k
ay ah
Ġp end
Ġp eng
Ġas up
Ġg ar
Ġwar na
Ġl e
Ġv i
i um
and ung
ĠsÃ©jÃ©n na
Ġuniver sitas
ut er
ing pin
Ġin c
y ah
Ġm ul
Ġs ari
ĠÃ©ks eku
Ġlian na
Ġdi d
Ġg ol
Ġin form
Ġkar ya
Ġradi o
er b
anc e
Ġp x
et an
ĠprÃ©si dÃ©n
Ġi lah
Ġg re
eur eun
Ġk i
Ġb oh
Ġsak ola
Ġla uk
Ġfor m
ah ar
si k
Ġm el
Ġam p
og ra
Ġg u
Ġsal ila
Ġngaliw atan
Ġb ur
Ġs ip
Ġh e
ĠÃ©kseku tip
Ġa ust
Ġl at
Ġs ek
Ġf i
Ġm uh
as e
Ġel ect
rop a
t ung
Ġi d
il ah
Ġj aman
Ġ ut
Ġs an
s h
Ġt um
at na
t e
Ġsakab Ã©h
Ġ end
eul a
si na
on e
Ġpas ar
Ġbar ang
id e
Ġbang sa
Ġc i
h er
Ã© p
Ġbar at
Ġh ad
Ġprog ram
Ġng am
Ġsist em
ang na
Ġp in
ac a
Ġ ang
Ġl ang
Ġkul awar
o ro
ti l
Ġs ang
or d
Ġl ist
Ġr ah
Ġkad ua
Ġl agu
Ġsen i
Ġt a
ika wanoh
th er
Ġkel as
ing g
Ġm e
Ġb asi
Ġl ar
Ġd es
Ġt ah
Ġc ur
k ah
ok al
Ġuta mana
Ġt ak
Ġd ay
eg keun
Ġkon s
Ġka ayaan
n is
ic e
Ġp el
y o
Ġng andung
Ġper ancis
em ent
Ġst and
st i
Ġs us
Ġ em
si ng
Ġsor angan
Ġk ungsi
Ġl ap
Ġuk uran
Ġk embang
st em
Ġf ak
Ġs uku
Ġn eg
Ġ upa
Ġs as
Ġm i
ta si
Ġv ol
imiti an
on an
ak it
Ġbeur eum
eu k
Ġun it
Ġm Ã©rÃ©
Ġon e
Ġt Ã©
il l
ap a
tion s
ob ana
n o
Ġk and
t en
Ġc m
s p
ri ka
Ġt amb
Ġs umber
at ara
Ġpro sÃ©s
Ġp asi
Ġra il
Ġn ur
Ġsp Ã©si
Ġam er
Ġkul it
Ġb uku
Ġka mp
y al
Ġc al
it e
ula si
Ġpas ukan
ĠpamarÃ©nt ahan
Ġim ah
ab le
angg ap
as s
sit y
Ġr am
al ia
Ġr ec
uk na
ĠrÃ©p ublik
Ġal lo
Ġwor ld
si n
Ġl og
Ġstat ist
Ġdip ikawanoh
ant en
Ġub ar
um an
Ġc ina
Ġh Ã©
un j
uk si
Ġcon t
o ur
ut keun
n ik
Ġdi ri
Ġb entuk
Ġr u
Ġist ilah
Ġwil ayah
Ġsaw atara
ĠpamarÃ©nt ah
Ġm esi
engk u
or k
Ġi mp
Ġsat er
Ġcir ebon
us ah
at ur
Ġl em
c k
h y
s ur
v id
Ġt ari
Ġt at
Ġm ol
Ġb ut
Ġb og
po k
Ġf ir
Ġal l
on t
Ġop at
t Ã©
Ġp angg
Ġkulawar ga
Ġt ang
Ġw idang
aj ar
Ġlum angsung
asa an
Ġah ir
ah ir
Ġap ril
Ġmuh am
ic s
Ġap p
Ġs ch
Ġdi j
Ġkal i
Ġb umi
Ġd ag
Ġpo si
ena h
ar t
Ġd asar
Ġc or
Ġ ek
Ġb l
Ġh arita
Ġkas ebut
Ġr um
Ġbud aya
Ġal so
Ġngah asilkeun
Ġi r
Ġf re
Ġs ir
Ġf ungsi
Ġsat o
Ġaf rika
ay u
Ġsater usna
Ġs ora
et w
Ġre fer
Ġbat u
Ġsa stra
j u
Ġha ve
aw ang
Ġinterna sional
Ġbod as
Ġg ur
it una
y p
v a
it er
Ġw ates
Ġwangun an
Ġjen is
in i
r es
Ã© d
Ã© st
Ġl eung
na h
et ep
Ġas al
f Ã©k
Ġpro f
ak si
Ġbeu lah
Ġas am
Ġ eng
Ġl eb
c o
l im
Ġa z
Ġj oh
Ġn om
Ġk ri
Ġd ep
Ġr eg
Ġum ur
Ù Ĩ
Ã©k t
Ġw ik
Ġpus eur
Ġp aj
Ġm ent
Ġl ol
it al
eu tik
ut h
ka si
ti h
Ä ģ
ĠÃ©l mu
at or
w o
Ġ qu
Ġmin d
Ġus ed
Ġ ud
Ġt ek
Ġp and
Ġj apan
Ġh ur
Ġpen ting
ang keun
usah aan
Ġr Ã©k
f t
Ġh i
Ġo ther
Ġti p
Ġka g
Ġtuj uan
ung tung
Ġsur at
Ġm ik
Ġsy stem
er an
u e
er na
n ana
m at
Ġl angsung
Ġh ist
Ġkap ul
Ġrail way
Ġkim ia
e f
Ġs ome
Ġb aris
w al
Ġdi lak
ul uy
Ġsaj ab
Ġconto na
ĠkÃ©n Ã©h
Ġti me
iw at
Ġh uk
Ġal i
Ġit s
Ġh on
eu d
Ġf l
ant ung
i tik
Ġsit us
in c
ogra fi
ro w
t ob
ab aya
Ġdun ia
ĠspÃ©si Ã©s
c al
Ġk ari
Ġs ate
Ġe v
r asi
Ġwal ungan
Ġp emb
al uk
b n
ec h
Ġkor Ã©a
Ġaw Ã©w
Ġk un
Ġo t
d e
Ġm ot
Ġdi anggap
si al
Ġkapul oan
s er
ow n
Ġsur abaya
Ġna s
an k
tob er
y ak
Ġd ur
Ġmuham mad
ĠÃ© ropa
b a
al keun
ro l
Ġv er
Ġkat ut
na m
Ġin st
Ġf isi
ĠØ§ ÙĦ
Ġi k
ayan an
Ġngaw engku
Ġfil m
Ġk ituna
ro k
Ġsap rak
Ġpur w
it ar
Ġalb um
is me
ac an
Ġag ama
Ġd em
ong k
Ġr i
el d
Ġak s
n e
Ġis bn
o ut
p or
u it
o ul
ta k
Ġun sur
ul ar
ĠawÃ©w Ã©
e en
Ġv al
ist an
Ġc iri
aw i
Ã©n d
tik el
Ġngaran na
ro s
Ġw at
Ġm and
Ġj uni
Ġpang l
ong keun
Ġbog or
b o
Ã© g
Ġw e
ĠsamÃ©m Ã©h
Ġna m
Ġm ek
Ġn el
Ġs ad
Ġp t
Ġp u
Ġy og
al ung
Ġka i
Ġh ub
Ġab d
Ġmod Ã©l
Ġper s
Ġbud ak
Ġc amp
Ġ Ø
Ġr ata
lan dia
Ġsari kat
aluk arkeun
Ġk ut
Ġg a
Ġgr up
ang t
Ġind ust
Ġt d
Ġaust ral
Ġbasi sir
Ġk ant
Ġb ung
Ġs ec
Ġc ik
Ġac c
Ġ ya
ta in
Ġj el
Ġpan as
Ġd om
Ġg am
f in
Ġc ap
Ġp ot
ung na
Ġmaran Ã©hna
w er
Ġl iwat
em en
Ġuniver sity
ay akeun
Ġsist im
Ã© ter
Ġl amb
Ã©r man
Ġny ebut
j ong
Ġm eng
et er
Ġngaw angun
Ġg um
il ity
Ġt ungtung
ah na
Ġex p
Ġhuk um
as keun
n ologi
Ġt aman
il e
Ġkol ot
Ġp e
Ġt Ã©k
en ti
ay at
Ġbi asa
Ġh y
Ġr aya
Ġsp ec
Ġkah irup
Ġj Ã©rman
un ikasi
Ġth umb
Ġ ec
Ġto p
ond ok
Ġhus us
er g
b an
si st
Ġt eg
Ġngab alukarkeun
Ġp ort
Ġkon t
Ġag ust
Ġge tih
Ġwa Ã©
Ġk r
i keun
Ġmaran Ã©h
Ġt ab
Ġn um
Ġallo h
Ġp ate
Ġof f
i es
Ġal at
Ġs ri
ent s
Ġaw al
Ġmang g
ĠÙ ±
Ġs et
Ġus um
st a
Ġter us
ti m
ari a
ti ve
Ġn il
em a
Ġma Ã©n
Ġkahirup an
Ġuk ur
ro d
Ġdi ta
Ġg l
Ġting kat
Ġk ep
Ġka yan
ung keun
Ġh igh
min ist
Ġn on
ri p
Ġman uk
uw uh
Ġah li
Ġj i
Ġper enah
Ġmod Ã©r
s an
h o
p ort
Ġun d
oh or
Ġhid eung
il i
Ġarg o
Ġop erasi
Ġdip er
Ġj er
Ġl ahir
Ġpany akit
Ġkayan ing
m Ã©n
Ġdit ulis
Ġlal aki
amp ang
an o
on s
y akarta
Ġl aw
Ġagust us
anj ang
m ar
Ġt al
any ol
Ġsin yal
Ġlol obana
Ġmang ka
Ġpro bab
Ġng ur
Ġj uli
Ġsab ada
Ġmind eng
Ġd ec
Ġyog yakarta
Ġh ak
Ġg ag
ag ian
Ġsal ian
Ġdim imitian
Ġjan uari
Ġjoh n
Ġl okal
Ġp em
Ġsag ala
ent ara
Ġak tor
Ġum umna
Ġb eung
si an
e i
Ġt in
Ġc c
Ġw eb
Ġdig unakeun
Ġd engan
ro g
Ġad minist
ab u
e a
k s
Ġsu ch
Ġro h
c ara
si g
es e
Ġs im
Ġkap al
b u
Ġdat ang
Ġn i
Ġkar b
ok ot
Ġf a
Ġt ep
Ġn ik
Ġl ingk
lo b
Ġindust ri
Ġperenah na
Ġi ng
u tion
or an
Ġan al
Ġkamp ung
Ġfir st
Ġi p
uk ur
uk tur
Ġh ay
oh ong
Ġmar et
Ġp eu
omb ang
aring an
Ġc atet
ol ah
Ġin f
Ġsp anyol
Ġant ukna
Ã ¡
an n
Ġm ore
ig a
Ġs eri
Ġdi ad
en s
Ġw aw
ur keun
Ġhub ungan
st er
anc ang
Ġd ari
Ġo s
Ġin ohong
ip ta
ic k
Ġkal im
Ġok tober
r ap
Ġaustral ia
Ġl ib
Ġh t
eb ar
Ġl ima
any i
Ġday euh
ak as
ri a
ĠÃ©l Ã©kt
Ġb ari
il u
Ġy o
Ġt rop
Ġm em
Ġpr ess
ud a
Ġper d
olog y
ĠÙ± ÙĦ
Ġc ah
ari ma
Ġo ver
Ġb ot
Ġf unc
Ġend og
Ġfak ul
z a
Ġ å
Ġk n
Ġcatet an
Ġsum at
Ġaks ara
Ġt ot
Ġh at
Ġf m
v ol
er ang
ah o
Ġmal ay
Ġtum uwuh
Ġl ila
ic a
Ġm ac
Ã©r an
ĠrÃ© a
Ġleuw eung
Ġbah eula
ing et
Ġro b
Ġas s
ad e
engk ep
enc y
Ġm ob
Ġr ak
ri ng
is m
Ġp ondok
Å «
Ġdig ital
Ġch ar
u f
Ġ et
Ġlang u
an i
Ġpak akas
Ġp oh
Ġb lo
Ġac ara
Ġhon da
Ġj u
Ġtradi sional
Ġ er
Ġa tikan
Ġsa eutik
Ġwil l
ĠmaranÃ©h anana
Ġdip ik
ĠhÃ© jo
a e
er ah
Ġw is
Ġd Ã©s
ĠmÃ© ter
Ġpat ali
Ġmar k
w ang
Ġp ed
Ġh ow
Ġo ut
ut e
Ġmin yak
t ed
Ġb ec
t r
Ġl aj
Ġh o
ur i
Ġtamb ahan
Ġp ep
Ġg ub
Ġlist rik
eng g
Ġy unan
Ġk um
Ġna bi
Ġl amp
Ġo c
Ġorgan isasi
w ar
eb r
Ġs ay
t p
Ġb Ã©nt
or s
Ġl emb
Ġst udi
Ġkas ohor
Ġthe ir
Ġkac ida
Ġat om
Ġso uth
Ġilah ar
Ġyunan i
Ġc all
Ġt wo
Ġb ir
ur na
ud ul
er to
Ġro man
Ġin di
Ġkate lah
and ing
Ġtim ur
Ġhur up
w i
Ġpang b
Ġpam ak
Ġp ubl
Ġo l
Ġv ir
Ġk ed
y at
Ġpan alung
Ġdib agi
lin es
amb arkeun
Ġdist rib
an an
Ġdi ff
Ġib u
Ġbabar engan
Ġstr uktur
Ġelect ric
in s
Ġb ri
Ġbal ik
l at
Ġn e
Ġpang aw
mi nal
Ġkak aw
Ġnas kah
l l
Ġt v
Ġso sial
Ġm h
Ġar tis
Ġa j
Ġmo st
y ana
Ġmasi ng
Ġsip at
Ġdi ng
Ġinform asi
Ġv an
Ġting ali
w euh
Ġbeu rat
tur e
Ġpl us
Ġn ulis
Ġr ar
Ġh is
Ġr asa
Ġr et
Ġp ari
up an
ard s
om pok
Ġk eb
Ġj aringan
Ġh ib
Ġw est
ep h
om o
uar keun
Ġsem arang
Ġj uta
ch i
Ġsol o
Ġdist rik
Ġw ad
etw een
a u
l ud
Ġb etween
Ã©n der
Ġmus lim
Ġd en
Ġhar eup
Ġnel asan
Ġs ud
Ġp ada
and i
l ine
Ġw ere
Ġal k
Ġit alia
Ġmang pa
Ġpr abu
Ġam b
b le
Ġngal ak
ĠÙ Ī
Ġud ara
Ġco unt
Ġupa cara
Ġair lines
Ġf ac
Ġpa usahaan
am i
uy u
Ġdag ing
v en
as h
ji an
Ã©b r
Ġph il
Ã© o
Ġmalay sia
Ġb uk
Ã©r a
Ġru sia
Ġpate mp
Ġpil em
Ġj in
Ġs tar
Ġr ad
Ġg aya
Ġ emp
Ġk ec
Ġso vi
in o
aran an
Ġkar ak
m on
Ġop er
Ġl u
eng na
Ġmangr up
anj ung
Ġprod uc
Ġpup us
Ġt etep
Ġi f
Ġti tik
Ġamp ir
angt ukeun
v al
Ġan ti
Ġg ro
Ġti ngg
angk at
Ġm or
ara an
asi k
Ġbah asa
angg a
Ġp Ã©r
Ġh an
Ġja uh
Ġngad egkeun
Ã ¶
Ġh ol
Ġar ah
Ġay at
Ġp ab
Ġp ind
g er
Ġp Ã©
l ing
Ġt ra
v es
Ġrefer ensi
p h
l er
Ù ħ
Ġkab Ã©h
Ġbis nis
Ġka gi
Ġtok yo
Ġhist ory
d en
t y
Ġs imp
ir e
Ġeu weuh
ar uh
Ġter minal
Ġkagi atan
Ġp arah
Ġlingk ungan
Ġb ola
Ġdi n
Ġl Ã©
asi s
unj uk
Ġmesi n
Ġd ok
Ġj angk
Ġb ub
Ġr ed
Ġper i
Ġsel atan
Ġsik i
Ġpal ing
j id
em Ã©n
Ġka j
Ġin to
imp i
ĠdÃ©s Ã©mber
l ar
or Ã©ng
aw at
Ġngal awan
Ġinc lud
Ã© dia
Ġn ing
id ikan
Ġpr asa
Ġs ci
Ġim age
Ġj ang
Ġkel ir
Ġkomp uter
Ġa di
Ġmas alah
Ġleung eun
ĠmodÃ©r n
Ã©h keun
ic an
Ġper k
ĠsamÃ©m Ã©hna
t os
Ø ±
us keun
Ġkon Ã©ng
Ġt yp
Ġdi jadi
el s
Ġl ab
Ġma ot
oc k
uluy na
Ġb atan
Ġus aha
Ġngar o
Ġpop ulasi
e an
Ġ ori
Ġe qu
Ġal us
Ġgen us
Ġt ri
Ġj anten
Ġaw i
Ġnor mal
Ġn ar
Ġl and
Ġbar eng
Ġsat uluyna
Ġposi si
ok o
Ġar tikel
Ġnor th
Ġilah arna
Ġdijadi keun
Ġg ula
lo w
Ġpar ob
Ġpo wer
Ġz at
Ġb ap
ang pa
on ia
Ġg ampang
Ġth an
Ġthe y
i e
is e
uar y
Ġabd ul
ump ulan
er ta
Ġk em
Ġd ahar
ed ia
Ġwik ip
Ġpanalung tikan
Ġdiff er
Ġprasa sti
p t
ari k
Ġku at
Ġp os
Ġmimiti na
Ġgel ombang
Ġht tp
an na
Ġk et
Ġpus at
Ġus e
Ġj aw
Ġsat aun
Ġsam ud
Ġn op
Ġy ork
Ġth ere
il ih
Ġm am
Ġj aya
Ġmeunang keun
Ġsajab ana
s b
Ġm Ã©t
Ġc ab
Ġh or
Ġlo ka
Ġparob ahan
at h
Ġdi si
Ġser v
r ed
y u
Ã©k u
Ġl im
Ġg as
us h
us un
Ġr unt
Ġg ancang
Ġb ro
Ġf in
Ġna on
Ġpangg ed
Ġt am
ec tion
Ġpend idikan
Ġgol ongan
Ġpop ul
Ġsovi Ã©t
Ġ es
Ġsab ud
Ġcol l
Ġtang tu
g ara
o sa
Ġper nah
em an
Ġr atu
in ta
Ġthe se
Ġneg eri
Ġnum utkeun
p er
t eu
Ġmas jid
Ġding aranan
Ġm Ã©an
Ġb ali
ang sa
Ġj r
ut at
Ġm y
Ġst ation
ĠÃ© fÃ©k
Ġprod uk
h ak
r ah
Ġk aku
Ġm awa
Ġpan c
j am
Ġc ic
Ġe st
Ġhad Ã©
Ġk ong
Ġs wa
Ġc ity
anc i
Ġkel ompok
Ġj udul
Ġna tional
Ġinform ation
Ġdiad egkeun
Ġr ay
un keun
Ġkarak ter
ang e
Ġj arak
Ġpro c
Ġstand ar
Ġfakul tas
ul keun
Ġpr Ã©m
Ġbul eud
ont al
Ġg ug
Ġman t
Ġkam er
Ġmh z
f a
Ġb ay
ur us
el y
n ing
Ġdi al
Ġl ik
Ġdi ajar
Ġcomp any
Ġcur r
ur y
Ġan im
ab at
Ġtrans form
Ġpang h
Ġs ada
Ġny amb
Ġpen y
Ġm it
f ik
Ġm m
Ġp p
Ġc ip
Ġr ada
lan a
et s
ati ve
Ã ¨
Ġk y
at ing
ad em
um a
Ġma in
Ġpul itik
v ia
Ġpang aruh
Ġab out
Ġgel ar
Ġkakaw asaan
Ġmangpa at
en ian
Ġc r
Ġhay am
m o
Ġp es
Ġbeu ki
qu e
Ġdi eu
as na
Ġv ita
le y
Ġci anj
Ġgur u
Ġben er
ĠprÃ©m ium
d in
Ġc ib
ik at
Ġsh in
Ġleg a
ti ka
Ġw ayang
Ġt ong
Ġkal Ã©nder
Ġpro tÃ©
Ġ ent
Ã©k s
Ġon ly
Ġtan pa
Ġngad eg
Ġut ara
Ġk ita
Ġt ech
Ġno v
d Ã©k
l as
l it
Ġg ra
Ġwh en
Ġn umber
Ġde fin
Ġput ra
ser v
f ikasi
Ġt ug
aj ah
Ġbe en
Ġunit ed
Ġdep art
Ġi ran
Ġkad ang
ida e
Ġfi eld
Ġpatemp uran
Ġteng gara
Ġrah ayat
Ġb aj
ud ak
Ġpoh ara
Ġvita min
ti na
z e
Ġ uy
Ġng a
Ġdal am
k er
m s
Ġl ong
Ġman y
Ġngaj adi
Ġr as
Ġeu rop
Ġfr Ã©ku
Ġk es
Ġex amp
Ġamer ican
Ġjel ema
Ġh am
Ġnop Ã©mber
s Ã©
Ġj aj
Ġso ci
d ing
Ġr ight
Ġtok oh
Ġnyebut keun
Ã© at
Ġeu sina
Ġt ol
Ġin s
e e
on j
Ġsen Ã©n
Ġ æ
Ġd ew
Ġse e
Ġinst it
angpa atkeun
Ġk il
Ġl ond
Ġo lah
Ġy Ã©ar
Ġtul isan
Ġcomm on
ri st
uh keun
ok erto
ump ang
Ġii i
Ġpeu ting
Ġtot al
e lan
Ġh er
ant ara
Ġsul tan
ĠfrÃ©ku Ã©nsi
Ġd aya
Ġb Ã©b
es ar
ant an
Ġswa sta
Ġka ul
Ġg aris
ĠbÃ©nt ang
Ġj amb
eg an
Ġgar ut
d an
eung it
Ġbar udak
Ġlond on
Ġro s
Ġlat in
Ġs uc
Ġp ati
Ġc at
Ġw anci
os e
Ġpup uhu
Ġment eri
Ġnil ai
an ia
Ġtrop is
n s
en an
es ep
Ġog e
Ġkom unikasi
Ġsem u
r et
Ġj at
it s
el akan
Ġbr itan
Ġp ast
Ġp unc
Ġg awÃ©
ek aran
Ġadminist r
Ġec onom
Ġs itu
us e
Ġf ar
angg o
k o
r id
ro ng
ĠsÃ© pt
ĠtÃ© ori
oul d
Ġsw ed
Ġsig a
Ġ Ð
Ġt Ã©r
ul u
ek ul
Ġt ex
Ġd Ã©m
Ġper t
Ġcon c
Ġdic utat
i o
Ġk en
Ġb ik
Ã©m p
n er
Ġp aran
it ung
Ġband ara
Ġph y
Ġpangged Ã©na
v in
om at
Ġat an
iri m
Ġsamud ra
Ġr and
ug a
Ġdiri na
Ġpam ingpin
w is
Ġb ac
Ġprod uksi
Ġint eg
p l
Ġt anda
Ġd am
Ġd ong
ang i
uj ud
angun an
Ġpamak Ã©an
Ġd ad
Ġkand ungan
Ġkat ilu
ĠÙ Ĭ
ern ur
Ġvari ab
Ġsabud eureun
Ġb aku
Ġj o
si h
ing ga
Ġdib Ã©rÃ©
Ġseb aran
Ġfunc tion
Ġkaul inan
ar at
Ġun der
vel op
Ġfisi ka
Ġperd ana
Ġcianj ur
Ġk ing
ab ung
Ġmat ak
mb ahan
Ġkari r
Ġatan api
Ġm und
ĠmÃ© i
m ina
ap keun
Ġteg al
Ġpang k
vi sion
Ù Ĭ
Ġt s
Ġp ah
Ġd el
Ġc ac
Ġh in
o ugh
di si
ĠtÃ©h nik
Ġis land
e ar
Ġj ag
Ġnya bab
Ġpi k
Ġcurr ent
Ġse j
Ġsum ebar
Ġgum antung
Ġm ic
uk s
Ġtur un
Ġmal ah
à ¸
Ġinter n
ungk ul
Ġger ak
Ġr em
ĠprotÃ© in
is a
Ġbe kasi
Ġmaj alah
ab ar
Ġkas us
Ġat uran
Ġrum ah
Ġm Ã©n
Ġp ac
ic ation
ĠrÃ© g
Ġna p
Ġput ri
or g
Ġch ina
Ġm p
Ġc ok
Ġl engkep
og rap
ĠrÃ© aksi
Ġngag ambarkeun
an si
Ġp et
Ġw ir
Ġmesi r
v ing
ro ugh
on y
Ġc er
Ġl ak
ai jan
Ġde velop
Ġda erah
Ġnyabab keun
d o
Ġprobab ility
Ġk os
Ġn er
Ġcent ral
Ġsap o
j aya
Ġt e
Ġr at
ti v
ĠrÃ© ng
r ang
Ġp akar
ag es
Ġcall ed
Ġpind ah
eu keut
Ġk us
Ġro ck
Ġgen ep
Ã©br uari
Ġngal aman
Ġaz erb
Ġpurw okerto
Ġtingg i
Ġp Ã©ri
li am
Ġgen eral
Ġfre qu
Ġro m
im an
Ġag ung
Ġkaku atan
z i
Ġtan ah
Ġlog am
Ġst ate
Ġstatist ik
Ġcamp uran
Ġm c
al ik
Ġh uj
ab ab
Ġtuj uh
Ġtah un
Ġazerb aijan
eng ah
Ġis ra
Ġroh angan
Ġb angk
Ġn uk
Ġab u
Ġtul ang
ongk ok
Ġport ug
Ġth ai
ud ayaan
Ġsal aj
Ġmob il
um e
Ġjur u
ar th
Ġpang Ã©ran
Ġkap er
Ġwis ata
n ia
en e
Ġti is
ali tas
Ġanj eun
Ġnom er
Ġn Ã©
Ġju ara
Ġpep elakan
Ġp ala
Ġr ap
Ġh ayang
Ġpar t
Ġngajadi keun
ent ar
Ġnur utkeun
v isi
Ġh ari
Ġna Ã©k
Ġsap anjang
Ġser angan
c us
m en
Ġp enc
ch e
Ġmis alna
Ġcah aya
z ila
Ã© tik
Ġm ari
Ġb lu
ep on
ungk as
Ġq ur
Ġger akan
Ġupa zila
e j
Ġku na
Ġpang w
Ġdih asilkeun
Ġgub ernur
ĠsÃ©pt Ã©mber
u ang
um Ã©n
Ġpi hak
Ġmol ekul
Ġkri st
Ġs Ã©s
er gi
Ġl oc
Ġlin i
Ġg Ã©n
po t
al s
ind u
Ġk op
ur ahan
Ġw o
si l
Ġkon st
k y
l et
t un
Ġm ich
ta i
Ġngur angan
f ir
Ġh adi
Ã ¼
Ġwh ere
sik o
Ġmot or
asis wa
h od
Ġp Ã©bruari
Ġr ub
Ġpro t
Ġbab agian
Ġeu si
Ġb ed
Ġtur ki
Ġbung bu
Ġa ut
Ġm ap
Ġs es
Ġn unjuk
Ġj ul
Ġw w
aj aran
Ġper c
Ġpr es
Ġnag ri
Ġlaj u
á ®
Ġm ec
uli ah
u i
Ġj un
eun d
Ġr ich
Ġg ad
Ġnep ika
Ġkut o
Ġexamp le
h ir
Ã ¤
Ġc il
olog is
Ġngar onj
b l
eun t
Ġun t
Ġna jan
Ġahir na
l ukeun
n ess
Ġl ayanan
Ġngal uarkeun
od eu
Ġpar ab
Ġsig nal
Ġdilak ukeun
ĠÃ©lÃ©kt ron
Ġtur unan
ect s
Ġdistrib ution
Ġuy ah
Ġbritan ia
Ġi wal
Ġc y
Ġnu t
Ġpr ak
ina si
Ġk ode
Ġt en
Ġj ad
Ġl ok
Ã©h atan
Ġad at
Ġcomm un
Ġsep t
ingg u
d s
Ġk umpulan
Ġth rough
Ġkate m
if ic
b ur
s al
s es
Ġb ol
Ġb ant
Ġkas enian
Ġjer man
Ġbap ana
Ġhuj an
Ġl ay
ic ial
Ġsab en
Ġsing ap
Ġji wa
o si
r it
Ġl ow
Ġan c
Ġbal ap
as hi
Ġsak uliah
Ã©l Ã©hkeun
Ġaf ter
ar u
Ġt entara
Ġg ul
Ġg aring
adi akeun
Ġdina sti
uy an
tur al
Ġbul u
Ġkarb on
ĠbÃ©b as
l ish
eu w
Ġti ongkok
Ġmar ch
Ġangk utan
Ġsalaj engna
Ġawak na
up ati
op le
iti on
vi tas
Ġpany anyi
Ġc lo
Ġng ahiji
og aan
re e
Ġtradi si
e tic
z o
un ungan
Ġob serv
Ġsup er
Ġf u
Ġkaw entar
ig ir
Ã©s Ã©
id er
Ġr us
Ġkant or
Ġund ang
Ġlangu age
Ġpunc ak
Ġk ebon
Ġt anjung
Ġr aj
in um
Ġg lob
Ġamer ika
Ġcok lat
Ġh aw
Ġo le
il ang
et y
any aho
Ġem as
Ġnyamb ung
r Ã©n
Ġk ere
ara jang
po si
Ġv id
Ġbad an
Ġst ates
Ġkur ing
Ġwat er
Ġna t
Ġch rist
Ġkas Ã©hatan
Ġsept ember
Ġt unggal
if e
Ġstat us
Ġhin dia
Ġsaben erna
r ad
v an
am at
Ġind it
ect ed
Ġangk atan
ar uhan
Ġm Ã©k
es an
int ang
n y
Ġc ita
et h
Ġdilak san
Ġkatem po
on o
ipta keun
ĠsÃ©s ana
Ġunt uk
f at
Ġs amb
si d
Ġc angk
ag o
Ġv okal
Ġh ab
emb angan
Ġak tip
oc i
Ġkol on
Ġgre gori
Ġjad wal
b ol
Ġ ãģ
Ġh eula
Ġg ram
Ġg orÃ©ng
Ġsak ap
Ġmah a
Ġpri m
s ud
Ġm ata
il ing
Ġny arita
Ġdim angpaatkeun
Ġcir c
etw ork
Ġolah r
Ġdi ter
Ġw ay
Ġwar nana
Ġngaj aga
Ġtel epon
Ġsec ond
Ġrand om
r um
Ġp int
Ġb ank
Ġment ri
v ed
eu y
Ġd as
Ġb awang
Ġdi nya
Ġv o
ĠÃ© ach
Ġm emb
Ġm ust
Ġs d
Ġs Ã©k
Ġp eta
Ġn Ã©mb
ic es
Ġmo al
Ġjam es
Ġlamb ang
Ġadministr atif
m it
Ġt asik
Ġd v
Ġn etwork
Ġpri b
Ġbar u
Ġngag anti
Ġwh o
Ġdig anti
Ġgr and
Ġsakap eung
Ġsaj ak
Ġngah ontal
Ġkn own
e ver
Ġc im
Ġh and
Ġres ep
Ġmil it
c s
em at
Ġst ud
Ġphy si
Ġnuk l
Ġm adi
am ana
Ġkac a
ebut an
Ġdilaksan akeun
Ġs l
Ġth en
Ġw id
Ã©h an
Ġhal teu
Ġca u
iv al
p s
Ġm aca
Ġs eg
ul uh
ug i
Ġil mu
Ġgregori an
ur uan
Ġul ah
g aan
Ġh el
Ġh ot
Ġmah asiswa
Ġb eunang
Ġngam imitian
Ġsumat ra
Ġd u
Ġb anten
Ġar Ã©a
Ġbal apan
Ġsajab a
Ġolahr aga
o di
Ð °
Ġin i
Ġkam ekaran
ates an
Ġpak istan
Ġkal apa
ip ina
Ġl ul
Ġth Ã©
Ġpasi r
y Ã©k
Ġt ara
Ġd er
Ġb esar
al ly
ti es
Ġng impi
Ġas p
Ġsab ag
Ġang in
Ġp b
Ġb anj
ok u
Ġwil liam
eup an
Ġpanjang na
Ġstand ard
p on
Ã ¢
Ġs uhu
Ġd ang
Ġj ab
Ġti b
om i
ek arkeun
Ġind ung
ij aya
un ya
Ġbeung eut
Ġng inget
it ch
le x
Ġch ann
Ġpo int
Ġgamb ir
t in
Ġb upati
Ġc ul
Ġpan umpang
Ġngab ogaan
Ġpa ul
ãĥ ¼
Ġngalak ukeun
l ad
Ġ Ã©t
Ġh indu
Ġpar k
vol usi
Ġn angtukeun
Ġpal ab
Ġtep i
Ġjin is
n ed
Ġ ep
Ġc ell
Ġh awa
Ġkal urahan
sit e
Ġperi od
op h
Ġu c
Ġkat uhu
Ġww w
Ġtasik mal
an akeun
eu si
Ġm eg
Ġd ul
ag ara
ya wa
is at
om a
Ġkita b
Ġk any
Ġl uyu
uh un
Ġcon n
Ġmet hod
ĠÃ©n ergi
ti keun
Ġg and
el a
asi a
Ġur ut
Ġmand iri
Ġtasikmal aya
y ang
si p
adi ng
Ġpr in
Ġpar am
Ġkere ta
Ġpint onan
l is
Ġt Åį
Ġs ma
Ġs imb
Ġl emp
Ġl ev
uk ut
Ġper an
uan ana
Ġmas sa
o ya
Ġs eun
Ġe ast
Ġmil ih
ace ae
Ġproc ess
Ġc oc
Ġng ak
iri p
uni tas
Ġfo und
Ġlem ak
n ey
Ġb h
uk i
Ġbeu si
Ġper Ã©
Ġ eureun
Ġk end
Ġas li
Ġsas at
Ġgro up
Ġnunjuk keun
c es
f ah
l ed
Ġb or
Ġb on
Ġwar ga
Ġlo kasi
c ar
Ġs mal
ab umi
ver n
b ia
l uk
u at
Ã©r gi
Ġata u
ub aran
od a
Ġoff icial
o ol
Ġ ãĤ
Ġt ap
Ġs lo
Ġs ant
Ġl et
Ġdic okot
Ġwor k
Ġng Ã©lÃ©hkeun
ab an
ĠmÃ© as
Ġhirup na
Ġmangg ihan
Ġm id
Ġs ut
or ge
Ġal iran
Ġe ff
Ġde v
Ġluhur eun
Ã©l a
ver y
Ġpl ast
Ġt id
Ġn arima
Ġl obana
Ġr anc
Ġh Ã©sÃ©
Ġw ah
ara c
Ġsak um
amp ahan
Ġcl ass
Ġsasat oan
Ġf am
Ġal lah
Ġwak il
g o
Ġh eu
it ra
Ġna mp
Ġma x
eri al
Ġki eu
Ġseri es
Ġass oci
j al
Ġt ata
Ġs Ã©r
ji ng
Ġmin eral
Ġmal ang
uhur na
Ġrunt uyan
Ġthai land
k e
s ed
ar am
Ġs upa
Ġs ind
Ġpi ala
Ġpang ant
Ġsam e
Ġpag unungan
Ġmek ar
Ġcic ing
Ġt ai
Ġc inta
ok ol
Ġpang al
Ġak adem
Ġmil iter
Ġbu ana
Ġsuk abumi
h at
Ġ ãĥ
Ġw ould
Ġged ong
Ġpro p
Ġser ikat
g u
m er
Ã© as
Ġg angg
f l
m ing
Ġdi ro
i i
u ron
Ġk anggo
Ġb il
er angan
Ġpag aw
Ġlal ampahan
Ġsate lit
Ġkalim antan
Ġpakar ang
Ġk ek
Ġc ak
Ġf it
ic ations
Ġny erang
Ġwar ta
Ġpl ay
Ġwikip Ã©dia
k t
Ã ³
Ġt atan
Ġbl ack
h ol
t le
Ã Ń
Ġp d
as si
is ar
Ġof ten
Ġdip ingpin
Ġmusi si
Ġba Ã©
Ġseun eu
Ġpas awat
Ġp s
en sis
am is
ed ang
Ġpar tÃ©
Ġnag oya
Ġsil ih
Ġvir us
Ġngaro bah
Ġh un
Ġkab isat
Ġpar tic
Ġter m
Ġdiffer ent
Ġor g
ĠrÃ© l
Ġc d
Ġkac ang
Ġpang p
Ġsp ace
b y
o ka
Ù ĩ
Ġn empo
Ġn ingg
Ġdi ayakeun
ti vitas
Ġis uk
eu man
Ġt aya
Ġm inggu
al ian
Ġj os
ent ang
om as
Ġmana j
Ġm ate
Ġb aca
ta ge
ing u
Ġanal og
Ġhow ever
Ġlemb aga
Ġng ayakeun
Ġar mÃ©n
Ġpang arang
od o
Ġtur k
Ġsin ce
Ġgo vern
Ġbro ad
Ġs id
Ġs om
om unikasi
Ġna ha
eul i
Ġdip el
Ġkom unitas
Ġmat h
Ġdes c
Ġlap isan
j ana
Ġg iv
ik i
ig awÃ©
ob aan
Ġsa udi
asup keun
Ġkh al
Ġdar atan
Ġole h
i ah
Ġj l
op erasi
Ġdar at
Ġhus usna
Ġsakum aha
i y
j ah
s c
Ġn emb
Ġc am
Ġl anc
ag am
Ġf ebr
Ġjal u
for d
Ġbr an
k ar
Ġ é
Ã© c
ar esep
Ġnu s
ol ak
Ġw ell
Ġw ano
iti es
Ġke y
Ġpag uron
Ġpangl uhurna
Ġnik ah
f is
Ġ angka
Ġl ife
asi ng
ollo w
Ġper m
ag ai
Ã©r si
Ġsaw ah
Ġkomp on
Ġbot h
Ù Ī
Ġon line
Ġex pr
Ġmate mat
g ong
at angan
Ġl uk
Ġr ac
Ġkab udayaan
Ġkas al
Ġsing le
Ġhandap eun
ĠÃ©n d
Ġkum aha
Ġwano ja
Ġm om
at er
Ġak ar
Ġwangun na
lo p
Ġsa ukur
uw an
ungk in
Ġli ang
k op
Ã© wa
si un
Ġg ab
Ġpar Ã©
Ġaw ard
ual ly
ĠarmÃ©n ia
Ġk eu
Ġk aka
Ġt or
al e
Ġr un
Ġal g
Ġparab ot
Ġb an
Ġteu ing
ist er
enc ana
Ġdaun na
Ġfi nal
Ġtip e
Ġyo u
si da
Ġw ungkul
ing s
Ġngab entuk
Ġha ji
Ġbo ok
Ġsul aw
Ġdok ter
r ag
Ġs and
Ġb ers
er uh
Ġf ollow
di ka
Ġter as
Ã©ng k
Ġkomp l
e ed
l or
Ġp ic
Ġg anda
Ġf at
Ġf er
Ġgen er
m uwan
Ġ emb
Ġs if
Ġka mi
ul Ã©r
um si
tis h
Ġpasi fik
Ã©d akeun
rog Ã©n
Ġpangw angunan
ar jo
el as
ji kan
Ġny ang
Ġdib anding
ĠkÃ©n ca
Ġleung it
mar k
Ġsulaw esi
Ġn ang
ot ana
Ġah mad
Ġsum edang
Ġbang lad
Ġj iga
Ġman Ã©h
Ġik lim
Ġd uanana
Ġb ob
Ġn it
Ġar sit
Ġny eri
Ġdib uka
ĠØ§ÙĦ Ø
c ol
Ġb ack
Ġw ind
ek ar
Ġsek olah
Ġlang it
Ġnom or
Ġn and
Ġdit ut
i tas
Ġn an
Ġy us
Ġkar ang
Ġtech n
y n
unt ut
Ġrob ert
Ġisra Ã©l
Ġpol a
Ġdr ama
Ġc andi
is s
Ã©k si
Ġar anj
Ġdip as
ist ik
Ġsap i
Ġkud a
awar sa
Ġbanj ar
y e
Ġm unc
Ġp ek
Ġn et
Ġr ek
Ġind ep
Ġband ar
Ġhal l
Ġmed ia
Ġglob al
h e
o id
Ġp ing
Ġr angk
it o
ek si
Ġpas angan
enc es
Ġda vid
Ġpol iti
ril is
Ġjan uary
Ġj asa
om p
rom ag
ĠdÃ© wi
Ġeng ine
Ġm oh
Ġs oto
Ġd j
Ġo x
et su
Ġsumat era
Ġbik ang
Ġa ug
Ġin v
Ã©nt ah
Ġpang inget
Ġmak sud
Ġvol ume
Ġkalim ah
s m
Ġh ong
Ġib uk
Ġnew s
Ġserv ice
Ġnov ember
s ol
Ġk g
Ġdi rilis
di na
Ġgal uh
Ġsch ool
m os
Ġ ä
ka w
ir ang
Ġna k
Ġar m
Ġcent ury
Ġny ingk
Ġsystem s
Ġfrequ ency
Ġ ç
Ġdi ti
Ġg itar
es h
Ġpr e
Ġelect ron
r en
ul t
Ġat lan
Ġtrans por
way s
Ġanak na
Ġsan yawa
Ġvid Ã©o
Ġdas awarsa
Ġs ong
Ġc ing
Ġal ter
Ġde sig
Ġok sig
Ġsus unan
Ġcont in
Ġanal y
h am
Ġt ay
at uran
Ġi tu
Ġo m
Ġkaw ilang
Ġlar ge
Ġkons Ã©p
Ġfisi k
Ġjangk ungna
Ġsci ence
Ø ¯
Ġb Ã©h
at us
Ġng ubaran
am in
Ġe ropa
Ġngar asa
Ġbuah na
Ġvariab el
Ġgovern ment
Ġg if
ay ana
Ġsar upa
Ġna me
Ġop en
ĠbÃ© as
al ig
Ġr amb
Ġth ree
Ġbe st
Ġngal ayanan
Ġdisebut keun
esi s
Ġgre en
ement s
l on
n an
Ġs aha
ul tan
ori tas
Ġsak ali
Ġsun an
etep keun
Ġt ali
Ġb any
ak e
ti an
Ġkan ada
Ġheu beul
Ġsupa ya
Ġgangg uan
operasi keun
Ġd own
ent al
Ġor ang
Ġsab an
Ġbat ur
Ġdes a
Ġpagaw Ã©an
Ġw an
har gaan
Ġeng lish
Ġreg ion
Ġintern et
c ang
Ã© y
Ġr eb
ek el
Ġal un
Ġind ungna
Ġdipik anyaho
ĠpartÃ© y
z im
Ġk ok
Ġb os
Ġj ar
om an
Ġna mbahan
Ġas ak
Ġkar eta
Ġaf ric
Ġpama jikan
Ġram o
w n
Ġs ung
ro na
ul l
uc tion
ĠdÃ© wan
Ġkam amp
imb ang
Ġsip il
Ġkand el
Ġpangaw eruh
Ġdi angkat
ab a
Ġpam ungkas
Ġsa at
Ġsh ow
Ġtel ev
Ġsate ng
Ġcab ang
j ul
p as
Ġdi am
Ġper ta
ical ly
ub an
Ġrum us
Ġplast ik
Ġp ust
Ġd uit
Ġti asa
Ġak tif
Ġu sing
Ġdisebut na
Ġcur ug
Ġdag ang
war e
o f
Ġt om
Ġt eh
Ġa ti
Ġm es
Ġd eg
Ġka isar
Ġh en
ĠtÃ©k nologi
Ġnus antara
Ø ¨
Ġb om
Ġr ug
Ġsa acan
Ġcont rol
Ġlem ah
Ġweb site
Ġbri tish
Ġtid ak
Ġdipel ak
c l
c ast
k u
p ut
Ġp on
Ġj ukut
si der
eun tas
Ġc ut
Ġh uman
ri es
Ġf Ã©
il y
uh a
und an
tic al
pr Ã©s
rod uksi
j ect
Ġc uc
un da
Ġsa engg
Ġser at
omb a
Ġtungtung na
ĠnÃ©mb ongkeun
Ġj sb
Ġka um
el ar
lo g
di um
Ġpin uh
Ġtat angk
is aran
Ġsal am
Ġpl at
Ġtel uk
Ġlem es
Ġumur na
Ġver y
uks ak
Ġngaronj atkeun
Ġg ust
ig i
Ġmil u
Ġbas ed
Ġmad e
Ġseb agai
Ġkun ingan
Ġval ue
dÃ©k aan
Ġtatan Ã©n
alig us
Ġg i
Ġg eg
Ġf ur
Ġpro bl
oh ol
Ġkh ali
Ġjapan ese
Ġmangrup akeun
Ġsuc i
Ġmath emat
n u
Ġa ff
Ġj end
Ġi v
Ġst ock
Ġe f
Ġpar tikel
Ġkas akit
alan keun
Ġtelev isi
Ġ Ã©s
Ġp ok
Ġb ra
Ġj ati
Ġj kt
ad ah
Ġng om
Ġpam il
Ġpas undan
Ġluhur na
Ġdahar eun
g ana
Ġt awang
Ġa jÃ©n
Ġl it
Ġw in
Ġmur id
Ġrec ord
Ġrak yat
Ġmam alia
Ġrom awi
Ġpangant Ã©n
Ġtatangk alan
Ġb Ã©r
Ġg h
Ġal ex
Ġdip igawÃ©
Ġhar d
int on
Ġno vel
Ġpap ua
ĠdÃ©m ok
o ch
Ġn ob
Ġj ust
Ġng ari
ag an
eg ara
Ġpr Ã©
Ġpo st
Ġcon sider
Ġalam i
Ġil mi
Ġm os
Ġb et
ut usan
Ġin str
ic i
uh na
Ġper son
Ġsig n
Ġfre e
Ġeurop e
Ġcirc uit
Ġalter na
Ġprobl em
r in
Ġp aris
Ġad alah
ungk us
ĠrÃ©ng sÃ©
Ġaug ust
Ġsaengg eus
b er
Ġs q
Ġs ti
Ġng irim
ap ah
Ġku alitas
im al
Ġny okot
j il
m bah
p i
Ġng u
Ġo ld
Ġw ujud
Ġv ia
Ġsaw ar
Ġdur ing
Ġpalab uan
l awan
it ori
Ġtip ung
Ġpust aka
g in
Ġj antung
una an
ĠÃ© ar
ov a
uluy keun
Ġpu isi
Ġkr l
Ġlik e
Ġningg alkeun
k in
s s
z z
Ġi on
eun an
Ġh ir
Ġna mi
ac t
Ġdip ilih
Ġch i
aks anakeun
Ġkamer dÃ©kaan
Ġp or
Ġb eg
Ġb untut
al ity
Ġg od
ic ingan
Ġwh at
Ġkabupat en
Ġmen engah
Ġci amis
Ġportug is
Ġa v
Ġnu jul
Ġw etan
Ġin ti
Ġar k
Ġsal uran
for e
Ġsol at
Ġnyang har
a use
b c
r aw
Ġb apa
si b
Ġsak aligus
Ġper tan
Ġny iptakeun
Ġmund ing
e in
y t
Ġm Ã©m
Ġbeu t
Ġny al
Ġny at
Ġre qu
ĠmÃ©as ur
Ġoksig Ã©n
w ard
Ġa si
Ġm uka
Ġl os
Ġl iga
Ġo h
Ġdis c
Ġber k
Ġgen erasi
Ġmur ag
Ġgam elan
Ġdibanding keun
c aya
g h
Ġka cap
Ġw anda
Ã©k tur
ek s
Ġhiji na
Ġcon st
Ġkad ar
Ġsag ara
ĠpÃ© ople
ĠyÃ©ar s
Ġmilit Ã©r
Ġchann el
k Ã©t
Ã© al
Ġt w
Ġd oc
Ġc as
Ġan at
is ah
Ġar tic
Ġmagn etic
ĠrÃ©f er
ig n
alik na
Ġt adi
Ġng ap
ri an
Ġpi ta
Ġkab ut
Ġar ch
Ġsab ot
Ġpr esi
Ġpad al
Ġdir ect
Ġdih ar
Ġcor r
Ġwik i
ĠnÃ© angan
m asi
p an
ji b
Ġob at
Ġpro vin
Ġhar ga
Ġair port
aki lan
Ġtar jam
Ġbentuk na
Ġsmal l
e nal
Ø ª
Ġ ì
Ã© on
Ġb d
ur u
ant u
Ġmul tip
Ġapp ro
Ġexpr ess
h ul
Ġt Ã©l
Ġj ay
ri ch
Ġsab alikna
Ġtr an
Ġak hir
Ġngag abung
Ġsam entara
Ġpul uh
Ġtan aga
Ġtangk alna
Ġsw itch
Ġing on
Ġlamp ung
Ġket ua
Ġlim it
Ġsoci ety
b al
Ġ engk
ar k
Ġt u
Ġt est
Ġs int
Ġs ebutan
Ġp ng
at on
Ġdi operasikeun
Ġc ali
Ġfor mal
Ġsp esi
Ġpol itik
ord an
Ġfak tor
Ġning kat
Ġ uj
Ġc up
Ġngal aksanakeun
Ã©si s
Ġjero na
Ġinclud ing
y angan
Ġt et
Ġn arajang
ara ja
Ġngaliw at
Ġleg ana
ros s
Ġlok omo
Ġnukl ir
Ġtranspor tasi
Ä «
Ġs uh
Ġs emp
ed a
Ġwh ile
Ġngar ebut
Ġtrans port
Ġdita mbah
Ġmich a
er ing
Ġc el
Ġr ib
ed i
eur keun
ali keun
Ġum at
aks ud
Ġek onomi
Ġbeut eung
Ġm r
Ġm ong
Ġl ight
Ġr Ã©b
Ġg aw
Ġkab agi
Ġor der
Ġto ur
Ġdis k
Ġbe ing
ĠÃ©l muwan
Ġek sp
Ġdevelop ment
Ġk ro
Ġs ara
Ġkal er
ter s
Ġar j
Ġup ama
Ġimp ort
fÃ©k tur
Ġdom ain
Ġkaka isaran
Ġindep end
Ð ¾
Ġs mp
Ġd ugi
Ġb re
ol e
po ng
Ġmal ayu
for nia
Ġhat Ã©
Ġpast i
Ġkhal id
m is
Ø ³
Ġc u
Ġl ump
ul ation
ĠmÃ© dan
Ġtat ar
Ġlangu ages
Ġoc c
ĠmÃ©n ta
eund eun
Ġt and
st an
ak ana
Ġg m
Ġper lu
Ġny er
Ġdib awa
it or
Ġth omas
ka id
ib atkeun
Ġsas ak
Ġpand awa
Ġmangrup ikeun
Ġbac aan
w ijaya
ĠÃ©ks prÃ©s
Ġsa int
ungg uhan
Ġsin ar
Ġkuto arjo
o st
Ġt embang
Ġb ata
ak h
Ġc ri
aj an
Ġkaw in
Ġv s
Ġam is
op at
Ġsaj umlah
Ġbu il
Ġcomp uter
Ġger man
ij akan
Ġbeung keut
Ġpubl ic
Ġalk ohol
Ġkelir na
Ġsateng ah
c le
t v
y l
Ġk ang
Ġm end
ad u
ak aan
ap at
om Ã©ter
ud din
Ġv Ã©rsi
Ġny adiakeun
Ġe ta
Ġbi ologi
Ġli ar
Ġorgan isme
Ġprib adi
Ġbran ch
o und
Ġt amp
ak on
en i
Ġpang eusi
ist s
Ġpar l
Ġpas ant
aman an
Ġorgan ik
Ġdiper caya
Ġpubl ish
Ġest im
Ġlengkep na
Ġfebr uary
k et
t Ã©ri
w ana
y ar
Ð µ
ar in
Ġb us
Ġc ong
ag ana
end er
Ġcon d
Ġse ver
ĠmÃ© dia
Ġpurw akarta
Ġpab rik
Ġparan ti
Ġgiv en
Ġpertan ian
Ġm g
Ġp m
Ġd w
Ġch em
Ġge j
Ġdal apan
Ġsus u
enti al
Ġindi vid
Ġphil os
Ġswed ish
l s
Ġ Ã©m
Ġp ay
Ġd h
Ġj ak
ol ia
Ġsta siun
Ġmas s
eh na
ĠprÃ© fÃ©ktur
y s
Ġd ki
en ting
Ġc rÃ©
Ġl awan
as ari
Ġkaw ih
Ġy am
Ġdit angtukeun
Ġkom un
Ġad v
Ġkan ji
Ġhist ori
Ġspec ial
Ġbec ause
Ġjudul na
l ina
Ġs ug
ta y
Ġth ough
ep an
Ġla st
iri ng
Ġex t
ĠÃ©n Ã©rgi
Ġblu e
Ġtai wan
Ġgif u
c ayaan
É Ļ
Ġm ala
Ġj ack
Ġj ordan
ak uan
and ingan
Ġbeu b
Ġmat aram
aks ana
Ġprof il
Ġtyp e
f ace
Ġdi visi
si ble
Ġh amb
Ġthe ory
Ġsar jana
Ġy ud
Ġmaj al
Ġrep ubl
Ġhun tu
Ġm ula
Ġs ya
Ġd ol
Ġan ta
it usi
ungk inan
Ġjumlah na
Ġlap oran
Ġsingap ura
Ġpb b
Ġa udi
Ġs Ã©n
at s
Ġc op
Ġh Ã©r
Ġst e
angk it
ĠdÃ© wa
Ġkor ea
Ġge orge
Ġlin k
Ġcl assi
Ġmu ch
Ġvi ew
row n
Ġsada ya
Ġmicha el
o y
à ¦
Ġ è
Ġ ug
Ġ Åį
Ġp eter
Ġd uk
uk aan
Ġo rok
ed er
ahan an
Ġbeu s
Ġny aho
Ġpro yÃ©k
Ġac Ã©h
Ġdit ur
Ġkat ing
Ġhasil na
ĠgÃ© ografi
Ġul ama
Ġgu ide
Ġtug u
igir eun
j ar
Ġm ingpin
Ġp sik
Ã©n keun
asi h
Ġper usahaan
la im
Ġmaj or
Ġvi Ã©t
Ġdij ual
Ġchar les
Ġblo k
Ġbuk ti
Ġkompon Ã©n
Ñ Ģ
adi lan
Ġat mos
Ã©mb ong
Ġbud d
Ġmak am
ogra fis
Ġnur unkeun
Ġcal on
Ġhadi ah
e ing
al ang
Ġh ous
Ġo d
ed alkeun
il ingan
Ġv ac
ub ungkeun
ĠsÃ© j
Ġum ar
Ġre sist
Ġdik al
Ġmen y
lob ana
Ġindi an
Ñ ģ
Ã© ja
Ġk uk
Ġr p
Ġh amp
Ġti h
eb ah
Ġkal ah
Ġna b
Ġak t
Ġma Ã©han
Ġber b
Ġpad ang
Ġrep ort
Ġwad ah
Ġmant uan
Ġk Ã©
Ġt og
Ġb idang
Ġng atur
Ġist ana
Ġparah yangan
Ġtong gong
Ġrich ard
r u
Ġa tas
Ġj our
Ġna da
Ġmah luk
Ġmas y
Ġser ing
Ġcah ya
Ġkhali fah
Ġlokomo tip
t una
Ġm asa
Ġh ok
ul na
Ġsar Ã©
Ġmal ik
Ġdim aksud
Ġmen it
Ġalam at
ingpin an
Ġir landia
Ġngaro jong
r Ã©si
Ġt emb
Ġp aka
at ik
on es
Ġc it
Ġl ahan
Ġr ag
Ġti lar
di ri
Ġpang lobana
Ġkar angan
ant Ã©
Ġkap utusan
Ġnepi keun
Ġdit empo
Ġkom o
Ġca iran
Ġjab atan
Ġakadem i
Ġnyingk ahan
Ġj ej
er ia
Ġr h
Ġr ut
ing ton
Ġal p
ec ti
Ġar us
Ġsab agian
Ġso ekar
Ġsir ah
Ġtek nologi
Ġhttp s
Ġibuk ota
Ġakt ris
s or
as on
Ġkaw ijakan
Ġy ah
Ġpol and
Ġkam ungkinan
igh ts
Ġmel ayu
erg y
Ġlib r
Ġroman ia
wis ata
Ġgej ala
r us
eu lana
Ġt Ã©a
Ġt atu
Ġdi an
Ġc euk
Ġl as
Ġpr inc
Ġleu pas
ĠsÃ© sa
Ġker tas
Ġneg ara
b erg
r as
Ã© ak
Ġd na
Ġdi ag
en na
Ġh ip
Ġh ulu
is cus
om et
Ġag eman
Ġdid ahar
Ġjangk ung
Ġpres ent
Ġbroad cast
ro b
Ġl uc
Ġkap ing
Ġsp am
Ġso ft
Ġter b
Ġint rod
Ġsang u
Ġcap ac
z ed
Ġk adi
Ġj uj
ol ongkeun
Ġpang eran
Ġco ul
ump ulkeun
Ġist ri
Ġbas ajan
Ġkim i
Ġvi et
Ġaust ria
Ġassoci ation
Ġsif at
l ikasi
Ġh u
Ġg ala
Ġmin angk
amp ur
Ġus ually
Ġde f
Ġpad um
Ġpot Ã©nsi
Ġpari wisata
Ġkonst itusi
ĠsÃ©j Ã©na
b on
Ġb it
Ġb intang
Ġl il
ed Ã©
ol ik
is k
una h
Ġre st
rop ol
Ġoper ator
p us
Ġm Ã©ta
ap p
Ġf al
Ġpr ed
Ġak ib
ĠÃ© ast
Ġngaw ih
Ġtangg a
idang keun
Ġev en
Ġhor mon
Ġpopul ation
Ġray on
Ġarj una
Ġb ara
Ġb amb
Ġj ah
Ġthe m
el askeun
Ġpas agi
Ġsah ingga
vel y
Ġpala stra
hol m
e ron
k ir
Ġt on
Ġm ina
al in
Ġl ip
Ã©n an
Ġin j
Ġmang aruhan
Ġpan ulis
Ġny eb
Ġind o
ant um
Ġpol y
Ġbo eing
Ġkak ara
til l
Ġsir k
Ġya y
Ġtex t
Ġkaper cayaan
Ġdiro bah
Ġilmi ah
Ġa x
Ġl ic
Ġh anj
Ġg ap
ol ot
angk ung
Ġmal ahan
Ġsur ya
Ġrep res
Ġkun o
Ġngalak onan
Ġstud y
Ġpasant rÃ©n
Ġm enc
Ġd ed
Ġl od
Ġf os
Ġkal ungguhan
ot her
ant s
Ġcon ver
Ġpal ebah
Ġot ot
Ġwikip edia
Ġisland s
Ġbangk ong
Ġhab it
Ġp it
Ġp eg
Ġp ena
Ġd z
ro t
um ah
ok an
Ġch ang
Ġen ergy
Ġpaj eg
Ġkag unaan
Ġgust i
Ġkacap i
ĠrÃ©fer Ã©nsi
j at
Ġt ub
Ġb itu
Ġc ase
angg u
Ġsal uyu
Ġad am
ans en
Ġsy n
Ġviet nam
Ġ Å
ag ung
Ġna tural
op hy
amp ak
Ġak tivitas
Ġsw Ã©dia
Ġgo od
Ġtek enan
Ġrad en
ultan an
Ġsq uar
Ġkabut uhan
Ġs v
Ġp id
at ori
Ġng arah
Ġf ish
Ġmar tin
Ġal f
Ġam an
Ġch o
vi ew
Ġanj euna
gi nal
Ġfr ank
Ġfo ur
Ġja va
Ġsk ala
Ġjaw ara
Ġinstit ut
ĠviÃ©t nam
g en
Ġ enc
Ġp se
Ġb utan
Ġdi aj
Ġdi beul
si um
ul ang
um ul
Ġaw ards
Ġdib entuk
Ġmil ik
Ġallo w
Ġcali fornia
Ġd on
Ġd et
Ġng inum
ep t
Ġv oc
Ġcon tain
Ã©ng Ã©
Ġkad u
Ġmil l
Ġtel ek
Ġlo ve
Ġsit e
Ġvol tage
Ġhy d
Ġpah lawan
Ġprin sip
Ġpaka it
d om
Ġ eg
Ġm eta
at uan
el asan
Ġmar ad
Ġbak tÃ©ri
Ġkam us
ich i
Ġacc ess
Ġadminist rasi
Ġhib iscus
Ġsever al
c ul
s us
Ġm ach
Ġp ra
and er
ron t
ch oc
iw angi
Ġmen jadi
Ġle ft
Ġaj aran
Ġanaly sis
z u
Ġ Õ
Ġb ima
Ġh il
um en
Ġkawas an
Ġso ur
Ġvari an
Ġstr uc
ĠpÃ©r sia
Ġinteg ral
Ġbanglad Ã©s
Ġrangk Ã©an
Ġmarad ona
b s
c in
u ti
ad ag
ti ngg
Ġg sm
ol i
Ã©b asan
Ġro yal
Ġdis abab
Ġsp ir
tu al
tur es
Ġtim es
Ġgum elar
Ġkec amatan
Ġmasy arakat
a f
a ir
Ġb un
ro sa
Ġn ic
Ġr in
lan da
ik si
ra in
Ġpr em
Ġkap ilih
Ġkas ultanan
Ġsap uluh
Ġsh ort
Ġad di
ĠÃ© st
ect or
Ġmusi c
iz i
Ġil l
Ġspec ies
posi si
Ġng embang
Ġg il
et keun
lo t
Ġun ik
Ġv ic
iti s
Ġdan i
Ġmet al
Ġpeny anyi
okol akeun
r ess
Ġk emb
Ġb ell
Ġf lo
ara i
Ġpi p
asi fikasi
Ġto y
sion s
Ġbi jil
Ġad d
asil itas
son an
Ġsoekar no
m y
s en
Ġb end
Ġdi tar
ah i
Ġdip ak
Ġdig awÃ©
la v
Ġdew i
Ġbungbu ahan
Ġnyarita keun
Ġgala x
Ġtelek omunikasi
Ġk ill
Ġp aw
Ġb ill
Ġg et
uh uran
Ġdit and
ĠÃ© p
Ġpag awÃ©
Ġlo u
Ġdat aran
Ġswed en
Ġaudi o
Ġdikal uarkeun
ar ana
Ġm im
Ġs on
Ġp y
Ġl s
Ġg anti
Ġw i
Ġpi g
tar us
ot e
Ġradi asi
Ġsil iwangi
Ġmis choc
ĠÙĪ ÙĨ
Ġinstit ute
Ġmischoc yt
b r
l uan
Å ĭ
Ġdi kaw
Ġkon sonan
Ġdik enal
Ġkor ban
Ġjer uk
Ġcount ry
Ġmatemat ika
Ġditur unkeun
Ġmischocyt tarus
d y
o ve
eu b
ar e
Ġm ig
Ġs ans
ad o
Ġh eur
ut o
Ġmin ton
lo ng
eur euh
Ġkas ar
Ġkon disi
Ġngaw asa
Ġsi aran
Ġsamp el
Ġform ula
Ġsimb ol
Ġrepubl ic
l Ã©t
Ġb und
ro r
Ġn umb
Ġn ow
ta g
Ġh om
Ġng anc
Ġan other
ul lah
Ġg uha
ag angan
Ġny eg
Ġkar asa
Ġdis co
ve st
Ġprovin si
a z
e ti
p ing
Ġd y
al u
Ġi rak
ak na
Ġka amanan
ri al
Ġmah k
Ġas h
ra ft
Ġbi ola
uc k
ĠdÃ© w
Ġpl ace
Ġmat erial
ograp h
Ġjul y
Ġjos eph
Ġminangk ab
z il
Ġm l
ang a
Ġr c
Ġr asi
Ġr asana
Ġkat erangan
ãģ ®
Ġarg Ã©n
Ġlar as
Ġcount ries
Ġdul ur
w u
Ġk ata
at ih
Ġr aks
Ġv on
ot h
ot t
Ġpro vid
Ġbr asil
Ġcor por
Ġdang d
Ġmoh am
Ġt es
Ġd pr
Ġg ajah
ap or
Ġnu tur
el is
Ġpan j
Ġper l
Ġpang an
esi an
Ġmed al
Ġkl asifikasi
Ġsamp ing
ili tas
Ġsim il
Ġwaw acan
Ġbaj u
Ġstock holm
Ġimport ant
ĠargÃ©n tina
g est
u es
Ġm akan
Ġb eng
Ġl iter
Ġr ute
ri ed
Ġal um
Ġal esan
Ġas lina
os o
Ġpr ancis
imb angan
Ġhib uran
Ġgug ur
Ġras ul
Ġeconom ic
Ġkrist en
Ġmadi un
l ang
or m
si m
Ġc ag
Ã©k a
po s
Ġar t
ali sis
Ġmusi m
Ġtel e
eungit keun
Ġmic ro
Ġsapo poÃ©
Ġminangkab au
Ġd Ã©n
en tif
Ġr ul
ur unan
Ġf lu
il le
Ġbal uk
Ġim am
Ġdik ur
eup askeun
Ġfo od
Ġme i
Ġwaw atesan
Ġkus abab
ĠmÃ©k an
Ġnutur keun
o o
p ar
u um
u el
Ġd aw
Ġh ij
et her
Ġkal uhuran
Ġkar yana
Ġpr ac
Ġsup port
Ġjel as
Ġdiper lukeun
ĠmÃ©an s
Ġdesc rib
Ġatlan tik
Ġyay asan
k ing
k rip
Ġf asilitas
Ġinter val
Ġsp eed
ati onal
Ġwh ite
itu al
Ġdim ekarkeun
Ġmer lukeun
Ġinc rÃ©
Ġluk isan
Ġmunc ul
ropol itan
c om
o od
Ã ¥
Ġm Ã©h
Ġp ungsi
Ġc ode
Ġr an
Ġg an
Ġf e
es mi
aj Ã©n
Ġv ul
Ġfor ce
Ġdit emp
Ġdit arima
Ġpa Ã©h
Ġgre at
ons umsi
Ġtin imbang
Ġperk ara
Ġanim asi
Ġlemp eng
Ġlev el
Ð ¸
Ġa da
Ġi g
ad at
on i
Ġc in
Ġl ess
Ġl Ã©mp
Ġnya eta
Ġny ump
Ġch arac
Ġmusi eum
iz ation
Ġsip atna
Ġapp l
tim es
Ġparah u
ĠtÃ©r itori
Ġkop i
Ġtechn ology
c c
Ġb Ã©l
ro f
ta b
Ġg izi
Ġar ound
eg e
Ġpr am
Ġlal akon
Ġmaj u
Ġmon t
Ġrep ublik
Ġsome times
Ġver si
Ġrad Ã©n
Ġk w
Ġd ek
Ġj ac
ent h
Ġpan tun
Ġkab ar
Ġe very
Ġib adah
Ġpak Ã©an
Ġkembang na
Ġabdul lah
ograp hy
Ġngom ong
v is
Ġm emp
si de
Ġc able
Ġg ir
Ġti ong
ut u
Ġth ose
Ġkab el
Ġkaw ah
ac y
eg oro
Ġkar uhun
Ġsp Ã©kt
est er
Ġkan ker
Ġgub eng
Ġsoft ware
Ġtele vision
d ay
z ation
Ġn ig
or dina
Ġl on
Ġl ey
Ġh um
uj uan
Ġpro ject
ant o
Ġkat akana
ĠdÃ© pok
Ġex c
Ġbab ak
Ġtrans mit
ãĥ ³
Ġdih andap
Ġwas h
ĠÃ©n zim
Ġstatist ical
Ġbir u
org ia
i wa
l ung
Ġk in
Ġs n
Ġb ib
Ġc enah
os h
Ġdib ar
Ġag ain
Ġmu atan
Ġgur at
Ġfunc tions
ar ch
Ġt Ã©t
ah oan
Ġh ung
Ġg p
Ġw ang
Ġin uman
eng th
ud uk
Ġdip ind
Ġter s
Ġband Ã©ra
Ġdr um
Ġsm k
Ġform at
de ka
Ġol impi
o u
w ell
Ġj arang
Ġka opat
ya an
ab ut
Ġkaw angun
Ã©nt rÃ©
Ġv isi
oh an
Ġair ways
Ġtrans l
Ġsub ang
Ġpad et
Ġcomm uter
ĠtÃ©k nik
Ġip is
Ġshin k
g ar
o po
t atif
Ġs ump
Ġb p
Ġc amb
Ġl ag
Ã©k tor
ep keun
Ġfl or
ho a
Ġsay uran
upan ing
Ġserv ices
g s
i lan
t ori
Ð ½
Ġm ara
Ġd c
Ġd Ã©k
Ġc and
Ġg in
Ġw s
anc es
Ġde tik
olog ical
Ġsen iman
Ġmod ern
Ġpup uh
Ġsri wijaya
Ġtransform ers
ĠpÃ©ri ode
Ġhir agana
Ġartic le
Ġsimil ar
m us
Ġ á®
ī Ħ
Ġm ungkin
al es
Ġdi rek
ur uh
eng ka
Ġku Ã©h
Ġper form
Ġch in
Ġdig ambarkeun
ero r
ĠÃ©l Ã©h
Ġstatist ics
Ġkari bia
Ġmangg arai
Ġtumuwuh na
Ġinclud e
Ġtug as
Ġjat in
d ana
uk ung
Ġnu ng
ion s
Ġpam anggih
ver s
Ġq uan
Ġkah ayang
Ġning ali
angsa an
Ġrug bi
Ġgm r
Ġm ere
Ġs s
Ġp unah
Ġl ek
Ġg or
Ġpri x
Ġny imp
Ġdip ib
Ġbi ografi
Ġq s
Ġtradi tional
Ġpel esi
Ġbl itar
Ġmob ile
Ġtra vel
Ġkaper luan
Ġjun e
Ġningkat keun
d am
g r
eu j
Ġm ir
Ġd omba
Ġn emp
Ġc n
Ġl angka
Ġg y
it z
Ġro ma
Ġsal ak
ip s
Ġaw alna
Ġbu uk
Ġtel eph
Ġmus eum
Ġdo es
Ġmaj apah
Ġcol umb
Ġgl uk
Ġjaw ab
Ġpoland ia
Ġmajapah it
r ation
w ak
Ù Ĥ
é īĦ
at ika
id s
Ġl ingu
and ar
Ġab b
Ġbe fore
eri ta
res na
ĠÃ©t nis
Ġkany ahoan
Ġmanaj emen
Ġkasal ahan
Ġcoul d
Ġnyeg ah
i ar
y od
Ġ ara
Ġk ip
Ġn ick
Ġdi uk
or na
Ġr up
us s
Ġf ut
and aran
Ġap likasi
Ġsal aw
Ġsa id
end s
Ġres ear
ĠgÃ© ografis
Ġgar Ã©ja
Ġram at
Ġstatist ika
Ġgag al
Ġoc tober
Ġgug us
Ġloc al
ĠmÃ©k siko
Ġparam Ã©ter
Ġnyanghar eupan
Ġtiong hoa
Ġshink ansen
m ah
Ã© di
Ġt un
Ġs iti
Ġd og
al th
Ġj im
Ġr y
ul ung
Ġnu ju
ri um
ic us
os om
Ġe arth
Ġres our
Ġsub ur
Ġmun ic
Ġhid rogÃ©n
Ġprogram ming
fÃ©k si
Ġos aka
Ġpatali na
Ġwad itra
abar ata
Ġalg or
Ġark Ã©
Ġkating ali
Ġvac uum
Ġresear ch
e ff
k al
p ati
Ġt as
Ġdi wanoh
Ġc od
ur uk
el es
Ġf oto
ek tur
Ġdis usun
Ġbal ong
Ġtah ta
Ġpand an
Ġpangb adag
Ġdepart emÃ©n
Ġsabag Ã©
Ġparl emÃ©n
Ġjour nal
h eung
v ir
Ġb uj
ol f
Ġw el
Ġf ase
Ġkar Ã©t
Ġsta b
ĠÃ© disi
iw atan
ex t
Ġarab ia
Ġsc and
Ġsamp ling
Ġpaj ajaran
Ġtal aga
Ġlaj eng
Ġperi ode
Ġpanc Ã©n
Ġphysi cal
Ġgab ungan
Ġdisabab keun
Ġpangbadag na
g han
Ġk ir
Ġm usa
Ġd ah
Ġdi asupkeun
Ġng ukur
Ġsak ur
ec tive
Ġkar aton
Ġsa str
Ġgamb aran
Ġprod us
Ġed uc
Ġamp l
Ġgam e
ĠthÃ© ory
Ġuc ing
Ġmunic ip
Ġm Ã©r
Ġd ri
Ġb usi
di on
Ġmah abarata
eut an
Ġged e
Ġsal apan
ver age
Ġpas s
Ġwith in
Ġmod ulasi
gan istan
Ġbah eulana
Ġnor w
Ġgam es
Ġkep ala
Ġpes erta
Ġbant uan
Ġnyat akeun
c an
s ch
eun angan
Ġf ram
Ġpan to
ik o
ĠtÃ©h nologi
ok si
Ġto s
Ġst rat
Ġbe landa
ĠgÃ© ologi
Ġsuk sÃ©s
ide o
Ġwates an
Ġden sity
Ġmec han
Ġlanc euk
l ik
Ġk ent
at ure
ah al
Ġc ast
ti a
ate k
Ġf ab
ir keun
lo s
Ġbeu heung
amb ar
Ġpam akÃ©
Ġam ino
Ġac ak
Ġsh i
Ġsat u
Ġph ot
Ġev ents
ĠmodÃ©r en
Ġngak ibatkeun
Ġrac un
Ġfollow ing
w e
Ù ģ
é ģ
Ã© ong
Ġs ent
Ġd ue
Ġl aun
Ġng ant
Ġg una
ent ly
ter an
Ġpang andaran
Ã©l ing
Ġat t
Ġus es
Ġre si
Ġex ist
ĠmÃ© d
Ġger b
Ġprobab il
Ġne ed
Ġfin landia
Ġdong Ã©ng
e tik
f o
h el
h ana
r ana
v y
Ġt acan
Ġa va
id en
Ã©k at
Ġf ol
Ġf if
ter a
Ġny ar
eg a
Ġdit etepkeun
Ġkon v
man i
Ġse landia
Ġsur ah
Ġfil ipina
Ġpol im
Ġngad ahar
Ġsum eb
Ġvari ous
Ġsik ina
Ġsep ar
eureun keun
Ġmel ak
hy ang
Ġrar angk
Ġlab or
Ġori ginal
Ġdv d
Ġpelesi r
b ar
f e
r Ã©s
Ġdi po
Ġl ed
Ġti mor
Ġf ot
ic o
Ġbe ta
Ġcom b
Ġpil ihan
Ġcoll ege
Ġkamer dika
Ġngaganti keun
Ġwash ington
m ud
o j
u angan
w ah
Ġp apan
ad or
Ġr r
Ġr ang
Ġf low
il d
og p
Ġar ya
Ġex ch
Ġmed iter
Ġle e
wo od
rid ge
Ġmaksud na
Ġspesi es
Ñ Ĥ
Ġp atan
Ġd ak
Ġb anda
or ang
Ġl y
Ġr en
Ġti l
Ġny icingan
end ing
Ġsta dion
Ġz ona
Ġtul ung
Ġngaj abat
Ġsol d
Ġbod y
Ġlat ihan
Ġukuran ana
Ġmot ogp
Ġmek ah
Ġdita mbahan
Ġcount y
Ġsaat os
Ġsquar e
Ġcharac ter
Ġolimpi ade
Ġsalaw asna
Ġbusi ness
w at
Ġt m
Ġm amp
Ġs r
Ġj uga
ak us
en da
Ġc id
Ġh ill
Ġng aku
ul ik
am ah
ed ug
Ġf on
Ġf eb
Ġkal a
Ġcon di
Ġpen j
Ġkh us
Ġsamp urna
unj ul
Ġmik ro
engkep an
Ġwest ern
Ġpangk olot
Ġdiam Ã©ter
Ġmula i
Ġhabit at
o e
Ġs ayang
Ġd p
Ġl Ã©ng
Ġna han
Ġkab in
Ġper p
ist ic
Ġsa Ã©st
Ġcon s
Ġngab Ã©dakeun
ell a
Ġsem i
Ġhid rok
Ġul ang
Ġup amana
oro ng
Ġtari k
bo ok
Ġpartic ular
Ġngari lis
Ġhous e
Ġrepres ent
Ġk rom
Ġt Ã©n
Ġm uk
Ġp un
Ġn Ã©ar
st s
Ġl ad
Ġh eun
Ġti ap
cap an
Ġy aman
Ġpro to
Ġman uf
Ġpas am
Ġab ove
Ġhar ta
Ġad onan
ĠÃ© arth
Ġre f
ĠmakÃ© d
Ġgr Ã©at
Ġmun ara
Ġvari asi
Ġngam ekarkeun
Ġtari an
Ġkant ong
Ġrar aga
Ġdepart emen
ĠsaÃ©st una
e z
an oh
Ġm eureun
Ġs ina
al y
or em
Ġc re
Ġc ipta
Ġl ate
Ġh d
Ġg at
el ah
im um
Ġro ngg
ĠrÃ© volusi
Ġpr ec
if t
unt ungan
Ġsil at
Ġsep erti
Ġsang hyang
Ġsad unya
Ġwo od
romag n
Ġjend eral
Ġrequ ir
Ġmajal engka
Ġdiwanoh keun
Ġava il
k en
Ã §
Ä ±
Ø ©
Ġb akar
Ã©h i
Ġor do
eul is
ih ar
Ġngah ubungkeun
Ġli lana
Ġkur awa
Ġga za
Ġtop Ã©ng
ĠfÃ© der
Ġbata via
ĠlÃ©mp Ã©ng
Ġa sian
Ġd eb
at is
Ġj Ã©nd
en anjung
Ġv is
Ġst re
Ġman ten
Ġkon f
Ġngah aja
Ġsate ll
Ġev ol
Ġdec ember
Ġdisi mp
bur g
Ġchrist ian
Ġdihar tikeun
kaid Åį
Ġquan ti
c el
Ù ĥ
Ġd har
Ġn eu
Ġdi aku
ur n
us aha
el ang
ara si
Ġber t
Ġtemp er
Ġaf ghan
Ġpad ahal
Ġsm ith
Ġmad ura
Ġped aran
ĠÙĬ ÙĨ
Ġkeu sik
esmi keun
Ġrarangk Ã©n
Ġpangkolot na
Ġk resna
Ġa ji
Ġb aw
Ġb usan
al ing
st ein
ak in
ur at
uj uk
Ġal th
Ġkar tu
Ġkap ang
Ġak i
Ġak unt
Ġsaw awa
Ġmod el
Ġdiji eunna
Ġsel at
ert os
Ġmul ti
Ġamer ica
Ġcac ing
Ġpoliti cal
ĠmakÃ©d onia
t es
Ã ®
Ã© da
Ġt ahan
Ġm aka
Ġr ump
Ġng ara
ur g
Ġth er
ari an
Ã©k an
Ġf Ã©n
Ġsar at
Ġman ag
ist iwa
Ġpar Ã©ntah
ĠsÃ© oul
Ġso und
Ġres mina
Ġkara wang
Ġlin tas
Ã©ar ch
Ġtah u
Ġlap angan
Ġperm ukaan
Ġjatin egara
éģ ĵ
g ia
Ġt aw
Ġm isi
Ġm Ã¡
Ġp oko
ro h
Ġj ama
Ġi ron
ad an
ak erta
Ġc iv
Ġh ome
is on
es a
lo k
Ġy ear
Ġpro te
Ġpang j
Ġngal eungitkeun
Ġsat wa
ungg u
Ġpal Ã©st
Ġres Ã©arch
Ġpap anggih
Ġsoci al
Ġkil omÃ©ter
Ġparan tos
Ġmp ec
Ġbudd ha
ĠpalÃ©st ina
g et
h ab
o a
Ã© sa
Ġm euli
er y
Ġw on
Ġw ong
Ġkar na
Ġpam ik
Ġtempat na
Ġpup usna
Ġnam bah
Ġfakul tatif
Ġdipik aresep
Ġlamp u
Ġros ul
Ġkuto jaya
Ġpangal aman
Ġcd ma
Ġperta ma
Ġlod aya
m ed
p e
u sia
w in
Õ ¡
Ġt umb
Ġp euntas
Ġi ra
Ġl ew
Ġan th
ur es
um ent
up uk
Ġin vest
Ã©k en
lo gi
Ġv ideo
aran cang
ia u
bit keun
Ġkar l
Ġac adem
Ġme an
Ġek s
Ġdur yod
arik sa
Ġpopul Ã©r
Ġking dom
Ġrub ak
Ġafric a
Ġnumb ers
ĠjÃ©nd ral
Ġ ë
Ġ ungg
Ġdi lan
st ik
er us
Ġi c
Ġi man
en ch
Ġl isan
Ġh ama
ri m
amb angkeun
uc e
Ġbat ang
ĠÙ Ħ
Ġtangg ung
Ġib nu
Ġrel ations
Ġtep ung
Ġyo ung
uri er
Ġsud ut
Ġnorth ern
Ġsapo Ã©
Ġkolon ial
Ġmom ent
Ġkamerdika an
Ġalth ough
ar m
Ġn Ã©t
ta il
Ġng anggap
ut es
Ġkal sium
Ġas ma
Ġind ram
th ers
Ġus ul
Ġse a
Ġse oul
fi ed
Ġcol or
Ġcik amp
Ġmethod s
krip si
Ġdipind ahkeun
l ian
s ana
Ã© um
Ġk anc
Ġa u
Ġa mal
Ġs is
Ġd os
at as
at aan
Ġn ps
Ġn uluykeun
ent os
Ġpan Ã©n
im ia
ok teran
Ġinter aksi
Ġy k
Ġny ekel
Ġpro k
Ġsab araha
oh id
Ġtr ansi
Ġnag ari
Ġex tr
Ġq at
Ġkor an
Ġbo y
Ġra ff
Ġed ition
Ġmis ah
Ġdes ember
Ġhat ta
Ġhan eut
Ġpos sible
euw ihan
Ġcoc og
Ġkomun is
Ġakib at
Ġdibar engan
Ġnps n
f tar
x im
Ġ Ã©ra
Ġp akÃ©
Ġp ingpinan
Ġd ara
ak m
ak al
Ġh em
Ġw ib
ori es
ir asi
lo h
Ġsal t
Ġleu mp
Ġmas Ã©hi
Ġkom and
Ã©ng ka
Ġngaj alankeun
Ġfr ancis
ric t
Ġbas e
Ġkl ub
Ġkl asik
Ġtah ap
Ġstudi es
Ġnemb ongkeun
Ġcontin u
Ġminton keun
Ġduryod ana
Ġ ency
Ġs till
Ġp itu
Ġp oto
Ġj as
Ġh asan
Ġw aris
Ġged ung
ug u
Ġkat olik
Ġz aman
Ġres p
Ġres ul
Ġco ast
Ġib ing
Ġsik lon
Ġtak e
Ġkamp us
Ġstudi o
Ġjang jang
Ġconsider ed
Ġsawar Ã©h
ĠÃ©ar ly
Ġhistori cal
Ġyah udi
ĠmÃ©ta bol
Ġindram ayu
k l
Ġa sing
Ġs eu
Ġs anj
Ġs os
al o
al am
Ġdi e
on egoro
Ġpang ro
amb at
Ġkap asi
Ġkat Ã©mbong
mp l
Ġwal l
jang jian
Ġmer c
Ġsw iss
Ġmet ro
erb angan
Ġgag anti
Ġvariab les
Ġsign ific
à ¤
ro c
Ġj mpl
ak keun
is ahkeun
Ġku b
og le
Ġper jangjian
ot landia
Ġis a
Ġad ap
ĠÃ© c
Ġngag ad
arak a
Ġsamp eu
Ġfac tor
Ġsabag Ã©an
Ġpamil ihan
Ġsumeb arna
Ġency c
f ul
z ol
Ġm ess
Ġm irip
Ġp ec
Ġn in
or gan
si di
si ve
ad rat
ak tif
Ġl or
uj u
Ġor ay
Ġy u
Ġny usun
Ġpang ajÃ©n
Ġdis eb
Ġbo jong
Ġdr s
Ġrel ated
ĠÙĪ Ø§
Ġmadi nah
r ay
y ong
Ġ Î
Ġk etan
id es
Ġr uksak
Ġan jing
Ġnu d
el aran
ir ut
Ġna ma
Ġteu as
Ġkab i
Ġis su
Ġu ji
Ġdik irim
ungk un
Ġpop ular
Ġfo urier
Ġba u
Ġdasar na
Ġleb ah
Ġdem oc
ĠpÃ©ri odeu
eunt eun
Ã³ n
Ġarsit Ã©ktur
ĠdÃ©n mark
Ġsastr awan
k om
Ġs eungit
Ġdi vision
er keun
Ġi re
Ġc is
Ġg eu
Ġg ang
ol s
ek t
Ġpr ef
Ġum ts
ĠÙ Ĩ
Ġval ues
Ġkarb ohid
Ġcing cin
Ġbra zil
Ġavail able
Ġngagad uhan
m as
Ġk ot
ar akeun
Ġd ana
Ġc euli
ung t
ka i
Ġmar s
and apan
ter i
Ġna w
og ram
Ġinter nal
Ġis o
ist ira
ect ure
Ġmal am
Ġjur nal
if i
Ġmus uh
Ġmus Ã©um
Ġmaj elis
Ġalb eum
Ġlat er
ĠmaÃ©n keun
Ġperc aya
ĠÃ©nd ah
Ġengine ering
Ġfur ther
ĠdÃ©mok rat
Ġkalah iran
Ġkarbohid rat
Ġ eur
Ġk embangan
ar eup
Ġd ahan
Ġb ig
ro v
Ġl angkung
il la
Ġsak it
ac i
ĠÃ©ks p
Ġis k
ist ry
Ġsa f
Ġch ange
ĠÙ ħ
Ġantar tika
Ġgo ogle
Ġdo ve
lin k
Ġsk otlandia
ju araan
Ġleb ih
Ġpaj ang
Ġkn ow
Ġhareup eun
tay ungan
Ġd eter
Ġb bc
al is
Ġi na
Ġc Ã©c
Ġr is
Ġg all
eung keut
adi an
el i
el ih
Ġdip l
Ġpang hargaan
Ġch er
Ġch amp
Ġcon f
Ġcon str
re si
Ġsh ip
Ġda ur
Ġz a
oc ar
li ed
Ġhal f
Ã©mb ran
Ġsy ah
Ġsah am
Ġur usan
Ġpemb angkit
Ġji eunan
ĠÃ©lÃ©kt romagn
dÃ©k a
Ġsej arah
Ġintern Ã©t
Ġhaw ai
Ġnamp a
Ġyud istira
Ġjej er
Ġlibr ary
Ġmediter ran
Ġpangro jong
Ġm s
Ġd eung
Ġb rown
en jar
Ġc ari
Ġc ila
Ġl eul
Ġr aga
ul ungan
Ġf Ã©st
il ik
Ġkal d
Ġhiji an
ec tions
Ġsap ertos
Ġkul iah
Ġma ung
Ġcomp ut
Ġcomm er
ĠtÃ© ater
Ġped rosa
Ġol ahan
Ġemp eror
Ġes p
Ġlul us
Ġbeub eur
Ġakunt ansi
Ġire land
h ai
v asi
y ek
Ø ¹
Ġk Åį
Ġk rÃ©
Ġt aks
Ġn ip
on str
Ġl ut
Ġl Ã©b
Ġr emen
Ġr ange
Ġin fÃ©ksi
Ġf und
Ġkab angsaan
Ġmah mud
Ġastronom i
emb l
Ã©s keun
Ġkat urunan
Ġma il
ith er
Ġwak tos
Ġkara w
Ġnew ton
Ġsuk ar
Ġrec ei
Ġinf lu
Ġphil ip
ĠpÃ©r ak
Ġkaj aba
Ġdv b
Ġkro ya
Ġsara f
l ess
w as
Ä ķ
Ġb ug
id aya
ak il
Ġng us
Ġng asupkeun
ut uhkeun
ol d
el f
Ġf uku
Ġsar upaning
ĠrÃ© siko
Ġmag ister
ib a
Ġkota k
uc ed
Ġmal uku
Ġngar ujuk
vi e
Ġwil angan
Ġq uran
Ġwa jib
Ġfac t
Ġjaj ahan
ĠspÃ©kt rum
Ġtulung agung
z on
Ġt able
Ġb uy
er int
Ġr end
Ġr iw
Ġh it
ur t
Ġth us
eng ahan
cap keun
Ġobj ect
Ġst ory
ver se
Ġkas emp
Ġwal es
Ġngaj elaskeun
Ġkor si
Ġcomp let
Ġmak e
Ġwor d
yan mar
Ġint el
Ġmu ti
ĠØ ¢
Ġkarir na
atori um
Ġgluk osa
Ġpatan i
m ir
Ġt ro
Ġm yanmar
Ġc ep
in ya
ur angan
ek er
Ġmah araja
Ġwith out
Ġbr un
Ġfr an
Ġmer dÃ©ka
Ġfo ot
Ġsus ukan
Ġkut ang
Ġpik iran
Ġcul ture
Ġters ebut
Ġdisimp en
Ġkaraw itan
o x
s et
w ir
y ch
Ã© ro
Ġn olak
Ġj og
Ġl urus
in es
Ġh Ã©m
ate ly
ik u
Ġal a
Ġsh ah
Ġbab araha
Ġngaw akilan
Ġmed alkeun
Ġdir esmikeun
Ġur ban
Ġgal eri
sh Å«
Ġru ang
Ġgro und
Ġent er
Ġdefin ed
Ġdefin ition
Ġanat omi
Ġlou is
y ama
ar ta
Ġm eul
Ġp uc
Ġka untungan
Ġr aw
ul at
Ġg em
Ġg ond
am aan
Ġti tingg
Ġun til
angk ala
Ġbar b
man n
Ġpl as
Ġbr id
Ġpat ung
Ġli ve
Ġsad ar
osi asi
ãĥ¼ ãĥ
Ġpadal arang
Ġocc ur
Ġprinc ip
Ġcamb ridge
Ġws sa
vir us
h u
Ġt Ã©mb
Ġb aran
st on
id o
Ġka z
am e
ag as
Ã©n ta
Ġny ir
Ġdib Ã©dakeun
qu es
Ġsahiji na
Ġsy ari
Ġsy mb
Ġbeur ang
Ġsep ur
Ã©g ia
ĠbÃ©nt Ã©ng
Ġnut upan
Ġmid d
Ġaranj eunna
Ġpamik iran
akm uran
Ġkabi asaan
p ur
Ġt omat
Ġp amb
Ġr ab
Ġw ali
Ġf ed
em ia
Ġinter ac
Ġy uta
ant uan
Ã©s o
Ġdig olongkeun
est a
Ġbas euh
Ġko es
Ġben ang
Ġbel ah
Ġpangg ung
Ġpers Ã©n
Ġrap id
Ġlay ar
ĠtÅį kaidÅį
Ġox ford
Ġappro xim
Ġnganc urkeun
Ġcorpor ation
Ġnorw Ã©gia
b all
g es
Ġ eb
Ã© ad
Ġa sin
Ġp ack
Ġd ram
Ġn eut
Ġdi ab
po g
Ġmar c
Ġmar y
ir d
Ġkar ena
ist ics
Ġpo in
ĠsÃ© a
Ġkon d
Ġcai na
Ġmat eri
Ġpur ah
Ġca ir
Ġbur sa
Ġchar ge
Ġer ror
Ġbeurat na
Ġbub ur
Ġky oto
ĠrÃ©g ulÃ©r
Ġaranj eun
gh t
Ġcikamp Ã©k
s y
Ġ ê
Ġt b
Ġs umb
Ġs ib
Ġl is
Ġan n
ek i
ot s
Ġe y
Ġwa ve
Ġmark et
Ġsour ce
apor keun
Ġprote in
Ġp uy
at Ã©n
Ġdi itung
Ġj ih
er im
ta kan
Ġr ate
Ġng awan
Ġf ra
Ġpri angan
Ġdis adiakeun
Ġbi os
Ġdib ikeun
Ġma ur
Ġsag igireun
Ġting k
Ġen vi
Ġko rona
Ġpeng hargaan
bo ard
Ġcik arang
Ġkont rak
Ġlu x
Ġportug al
ĠfÃ©st ival
j alan
u ala
Ġ Ã©r
Ġk t
Ġk ob
Ġa uth
Ġm Ã©mbran
Ġc ad
Ġr s
Ġh ob
Ġh Ã©l
Ġng eu
el ess
ay asa
ub le
oh keun
Ġit b
ow s
Ġpal est
Ġfil em
fer ence
Ġca us
Ġsing a
Ġdil ayanan
Ġimp l
Ġkamamp uh
Ġtran sist
Ġleump ang
ĠÃ©lÃ©ktromagn Ã©tik
Ġmuti ara
c raft
g ed
t Ã©k
Ġ Ã©mb
Ġt od
Ġa ud
Ġa verage
Ġd uc
at o
Ġr w
Ġh s
il is
Ã©r na
Ġro n
Ġper f
Ġy el
lak eun
Ġsat eu
Ġkidul eun
Ġuk ra
Ġsub st
Ġlal eutik
Ġvari able
Ġut s
Ġsan Ã©s
Ġcal cul
Ġpaj abat
Ġkolot na
ĠrÃ©g ion
Ġcita kan
Ġeff ect
Ġdesig n
Ġtarjam ah
Ġkasemp etan
l eum
Ġk otana
Ġt k
Ġt y
Ġt ump
Ġp w
Ġd eri
Ġdi vid
Ġng as
ur it
iji ng
Ġro d
Ġkaw ates
ih keun
Ġngaj ual
Ġmer ak
Ġbas s
Ġhur uf
Ġoff ice
Ġroh ang
arik atan
ĠmÃ©t odeu
Ġcib atu
Ġdepart ment
Ġins Ã©k
Ġgeg er
Ġindepend ent
ĠlÃ©ng kah
Ġpajang jian
Ġenvi ron
Ġs eukeut
Ġd arah
at ul
Ġdi ting
Ġng itung
ag ang
us ul
is l
Ġf ull
Ġpan ya
Ġtaun an
Ġu ang
Ġsh ould
Ġkom ik
Ġngar ana
Ġmo v
ĠbÃ© dana
Ġpag e
Ã©w ak
Ġsk y
Ġdij ero
Ġjoh ann
Ġelectric al
Ã©br Ã©hkeun
Ġjag ong
Ġsut rad
Ġramb utan
Ġngirim keun
Ġraks asa
Ġmanuf ac
Ġsatell ite
Ġenviron ment
c op
an on
ar s
Ġt eta
Ġs ob
Ġs uw
na s
Ġn ir
Ġdi as
Ġdi atur
Ġr ing
Ġan alisis
Ġg row
ung tik
om en
ek an
Ġap ganistan
Ġpan tai
Ġna ture
Ġkaw engku
Ġdip inton
Ġst ep
Ġkon str
Ġda ftar
Ġtul is
Ġbah rain
Ġgel as
Ġx x
ĠrÃ©k ayasa
Ġpert engahan
Ġfu ji
Ġnob el
Ġlimit ed
Ġdipak Ã©na
Ġcila cap
Ġm d
Ġp c
Ġb uhun
ang tu
Ġdi ukur
Ġc ore
Ġc ij
ap on
Ġnu sa
ri h
Ġmang k
aj at
Ġto w
amb ang
Ġsp ect
Ġpas arikatan
Ġsh ar
Ġbal ar
ond ong
Ġkol eksi
Ġpag elaran
Ġsul ing
Ġangk lung
Ġacc ord
Ġtab el
Ġpari p
Ġbuk it
Ġlu as
Ġsimp angan
Ġrat usan
romag ne
Ġtay alian
Ġexch ange
Ġwaris an
an ta
Ġn ight
ad egan
Ġr ud
Ġr itual
Ġng umpulkeun
Ġti k
Ġw r
ung u
Ġf ig
et e
Ġto row
uy ukeun
Ġag eung
Ġkam eunangan
Ġq uar
Ġdic ampur
Ġmet er
Ġfo sil
Ġsakab Ã©hna
Ġtar uman
Ġblo g
Ġä ¸
Ġphilos ophy
Ġhamb alan
Ġteleph one
Ġnud uhkeun
Ġdipinton keun
Ã© am
Ġk lo
Ġm ati
Ġd od
Ġdi sing
Ġl angg
ti r
Ġg ading
ap h
Ġo st
Ġv en
ec e
Ġpro v
Ġch ic
Ġdib aca
Ġsur face
Ġbab aturan
Ġbud idaya
Ġcomp on
Ġpend uduk
Ġkons Ã©r
Ġtang erang
Ġspec ific
Ġhigh er
Ġvir gin
que z
Ġeconom ics
Ġgad uh
Ġcommun ications
Ġpresi d
Ġvul kan
Ġhung aria
Ġsutrad ara
Ã ±
Ġt aj
Ġka Ã©n
Ġc p
ul in
Ġf all
il t
Ġkal ima
Ġna mb
Ġper h
Ġv ar
Ġv el
ong ton
Ġar th
Ġny ata
uc tor
Ġbab ad
Ġfil sa
Ġnal ungtik
Ġbud i
lam asi
Ġsem enanjung
Ġfr ance
Ġko ordina
Ġdal em
Ġbasi s
jam ahkeun
Ġnut ri
Ġsamb el
Ġtemb ok
Ġlic uala
Ġnyimp en
l Ã©
l us
r d
ä º
Ġk euna
Ġa ero
Ġb angs
Ġl en
ate g
adi a
eng hul
Ġny ebar
Ã©m i
Ġkas ang
tion ary
Ġac tiv
Ġpag er
Ġtim b
Ġdist rict
Ġhandap na
Ġtok o
Ġtyp es
Ġlik elih
Ġnang tung
Ġproblem s
Ġnyer ep
Ġrag rag
Ġtorow ongan
Ġtaruman agara
Ġfilsa fat
m adi
o ff
p ura
Ġt uwuhan
Ġm anjang
Ġr antÃ©
Ġh ig
ri x
ol o
Ġpi er
Ġbeu ti
Ġpri me
ib i
Ġkap ala
Ġsat Ã©
Ġke j
Ġco il
arita keun
Ġbr ah
Ġkulon eun
Ġph ase
Ġdr up
Ġsw t
Ġdo sis
Ġqu est
Ġpem erint
Ġpangaw asa
ĠlÃ© ad
Ġpenc a
ĠsÃ©k Ã©
Ġhen ry
Ġmathemat ical
Ġbuil ding
Ġkhus us
ihar ep
Ġpitu in
Ġdeung eun
Ġlikelih ood
e ign
Ġk int
ar to
Ġt rip
Ġt anding
Ġs angk
Ġn eundeun
Ġr al
in ing
ul um
Ġti ori
Ġpi ring
ek en
im u
Ġper b
Ġdip a
eg aan
Ġmut er
ma il
ĠsÃ© wang
Ġel mu
land s
Ġfr ench
Ġmur ni
Ġgol d
sh ip
Ġir ung
Ġqu een
Ġcik al
Ġalex ander
Ġmala Ã©kat
Ġafghan istan
b aru
h ip
y i
ar o
Ġa po
Ġd ra
Ġc ig
Ġh im
Ġh erb
Ġo tak
ab ad
ic ine
aj uan
Ġper w
Ġsal as
Ġpang ab
Ġsp ort
uhur eun
Ġmo un
Ġbat ik
Ġkh an
Ġkh as
eh i
Ġislam ic
iz ed
Ġsuk una
Ġlum aku
Ġben da
Ġpand u
Ġfl ight
angt uan
Ġmec enghul
eunt euna
Ġemb Ã©
ĠrÃ©b uan
Ġatmos fir
Ġscand ic
e tisi
h al
u sion
z y
Ġk iri
Ġb ond
at ikan
Ġc end
Ġr d
Ġg uy
Ġo w
Ġo li
Ġw rit
Ġf ind
Ã©b askeun
Ġku ba
Ġy un
Ġbeb er
ub a
Ġbis ma
Ġu z
Ġac an
Ġz h
Ġse ti
Ġeu k
Ġpat h
Ġair craft
Ġbah aya
Ġbo x
taran keun
ev ed
Ġprof es
Ġkut ub
Ġet h
Ġkong o
Ġconc ern
Ġphysi cs
ĠarkÃ© ologi
Ġngawan ohkeun
j e
t us
t ara
t ra
u tions
Ġk eun
na k
Ġd amp
Ġdi no
Ġka yu
Ġl g
Ġh end
as ed
Ġmar Ã©ntah
ud ang
ir ah
sa i
amb angkan
Ã©l Ã©r
Ã©m on
Ġpar ti
Ġhar ry
Ġma ul
Ġmimiti an
Ġmo tion
Ġkel enjar
Ġtel ah
ge on
eh atan
Ġlin es
Ġker ta
Ġrep l
Ġmind ahkeun
Ġhi as
Ġdem i
Ġdom in
Ġlib eral
Ġmaot na
rah im
ĠÃ©lÃ©ktron ik
agam aan
ungkin keun
Ġkok i
Ġuj ung
Ġmill ion
Ġdara jat
r up
Ġ ess
Ġn ana
Ġj ember
Ġka si
Ġl ep
Ġl aku
Ġh ul
as ang
Ġo il
ol ong
Ġw ij
Ġf ung
Ġkal ib
Ġna h
Ġkac il
Ġpri ok
Ġdip isahkeun
Ġpang ajaran
Ġam ong
op er
Ġch ris
end ed
Ġat lÃ©t
Ġkon fer
Ġkom posisi
Ġngab agi
Ġpol in
Ġpen erbangan
Ġsen ar
Ġmak ing
Ġdal il
Ġreg i
Ġport al
rog en
Ġbaj ak
Ġgeneral ly
Ġbook s
Ġsuh unan
Õ¡ Õ
Ġbaran ahan
Ġs le
uk is
as akeun
ri g
ut na
ari es
eb ra
ep eng
ac hi
Ġar Ã©as
ia ya
Ġdap ur
Ġobj ek
Ġac co
Ġsum ur
Ġuniver sal
Ġib rahim
Ġsah andap
Ġmis ahkeun
Ġsamp ai
Ġid enti
Ġlumangsung na
Ġtek anan
Ġdom est
Ġpe ople
ĠtÃ©k s
Ġemp ire
Ġtex as
Ġobserv asi
Ġseg er
Ġsant ri
Ġperson il
Ð¾ Ð
Ġencyc lop
m ik
s ari
w angan
Ġb ure
Ġj angka
Ġj ump
Ġh imal
Ġng ungk
ul ur
Ġg anj
Ġo thers
Ġth ori
el le
po sed
Ġar ti
Ġpro ton
Ġind ex
Ġter ms
Ġke h
Ġngag em
Ġda op
Ġag e
Ġit ali
Ġz ero
ast er
Ġbat ak
Ġmod e
ish a
Ġcar pon
Ġx i
Ġlain na
Ġkri sis
Ġtek s
Ġner uskeun
Ġprib umi
Ġhot Ã©l
Ġprem na
Ġgin jal
Ġeduc ation
Ġpuy uh
Ġkacil akaan
b e
c ess
i sion
an ya
Ġs end
Ġd up
Ġdi u
Ġdi ak
Ġka wa
Ġka agamaan
Ġr uk
Ġr encana
eng keun
et o
Ġna d
Ġper si
Ġdap at
Ġe ar
Ġe ither
Ġfor um
Ġdit elasan
ump ul
Ġpat ter
Ġsangg up
Ġsi ap
Ġkah uruan
Ġlan ka
Ġdat ar
Ġdat angna
Ġgre ek
Ġform er
Ġpin anga
Ġproduc t
Ġbub uk
Ġnga ji
Ġjamb u
eukeut an
Ġbol iv
Ġtransport ation
Ġindivid ual
j ad
r ab
Ġt j
na ma
Ġn eul
Ġka juaraan
Ġc Ã©k
Ġr awa
Ġw ed
Ġf ly
Ġku adrat
Ġna tions
ĠrÃ© sp
os an
Ġe ver
amp ah
Ġkon fl
vi ation
Ġpak uan
Ġcomp lex
Ġcar ri
Ġmet ropolitan
Ġmay ar
Ġsah eunteuna
Ġmu ara
Ġfi ve
Ġtamb aga
Ġkulit na
ju angan
Ġhi pot
Ġri ver
fin isi
Ġseri al
Ġadi na
Ġagain st
Ġlek asan
Ġprobabil iti
ĠmÃ¡ r
Ġsateu acan
Ġbalar Ã©a
Ġsalas ahiji
Ġbure au
Ġkonfl ik
w id
ä ¸
Ġm ud
Ġm awar
Ġm uda
Ġr id
Ġw angsa
umb ah
Ġsak a
Ã©nt al
Ġbad ak
Ġpr aj
op ia
una mi
Ġac i
Ġcom et
Ġsh ang
Ġmol d
Ġht m
Ġsay ur
Ġoper ations
Ġditer bitkeun
Ġhot el
Ġdev ices
Ġditut up
Ġafric an
ĠdÃ©mok rasi
Ġchem ical
Ġresour ces
Ġstab il
Ġsahandap eun
b ak
p ak
Ġs emb
Ġp eunteun
Ġd ada
Ġc ross
Ġl Ã©g
Ġh ungkul
ab keun
Ġpi geon
and ak
Ġmang sana
Ġsar ana
Ġpang usaha
Ġpas Ã©n
ati keun
Ġbul g
Ġpol i
Ġel ement
Ġbat uan
Ġpl ac
Ġsub way
Ġkak i
ĠprÃ©si d
Ġdal ang
Ġbel i
Ġkulawar gana
ass ar
Ġrum aja
Ġpers amaan
Ġexp erim
Ġbot ol
Ġstar s
ĠlÃ© ast
Ġcab Ã©
Ġcorr el
ĠtÃ©l Ã©k
Ġchin ese
Ġisk andar
Ġmidd le
Ġpolin Ã©sia
Ġthori q
ĠmÃ¡r quez
p ond
å ±
ç Ķ
Ġa qu
Ġdi til
Ġw atek
Ġmar g
og en
eul ang
Ġtut up
Ġngal a
Ġsh e
Ã©ng sÃ©
Ġop tik
Ġhal im
Ġel ekt
Ġtrans fer
Ġkak on
Ġkak urangan
Ġmed ical
Ġmed icine
Ġmon y
Ġpap er
Ġkl or
Ġrel ati
Ġpasi p
Ġrefer ence
Ġbeung har
Ġdad u
Ġmund ur
Ġrem ain
Ġcer tain
Ã©ntrÃ© keun
Ġfif a
Ã© lakeun
Ġm ung
Ġn m
Ġl ot
uk tikeun
as us
Ġg ib
Ġo v
Ġf iksi
Ġplan t
il ia
Ġmin ang
Ġmar ga
Ġna ta
Ġv and
Ġny angk
itud e
Ġsal ain
Ġch Å«
ero l
Ġres ult
Ġwil hel
Ġfr anc
Ġpag uy
ce ae
Ġdih iji
Ġker is
Ġsamp le
Ã©w arakeun
Ġmad rid
Ġasup an
Ġlar gest
Ġnam es
Ġkany ataan
Ġditand aan
orm atan
abut uh
Ġfram e
o unt
w ara
z an
Ø Ń
Ġt uk
Ġn etepkeun
id i
ak ia
Ġr angka
in ed
as k
Ġng ay
Ġng Ã©brÃ©hkeun
ap ati
Ġf ib
ok sida
ih i
Ġdip im
Ġind ic
Ġst y
Ġat h
ungan ana
euna keun
Ġkom b
Ġngag anggu
Ġmo ro
Ġdik okolakeun
Ġli ana
pr s
Ġalb ania
Ġapp le
Ġdij alankeun
Ġev ent
Ġdem ak
Ġpu tih
Ġpers en
Ġhy po
ism eu
Ġsuc cess
Ġkolon i
Ġditer uskeun
Ġtib atan
Ġpangal usna
Ġpadum ukan
Ġstruc ture
Ġdani el
Ġira q
Ġmoun tain
Ġp ublik
Ġd ebut
st rak
Ġl t
Ġr ungkun
up akan
ent ed
el ing
Ġkab uka
ĠrÃ© al
ok s
Ġob yÃ©k
Ġy e
Ġpang adilan
od y
Ġdis amb
anc angna
th esis
Ġsam a
Ġpol it
Ġwak tuna
Ġngad ukung
Ġangg er
ish i
Ġsing k
Ġdo uble
Ġbin ary
Ġangk asa
Ġrel igi
Ġcor n
Ġpress ure
Ġeurop ean
ĠsÃ©r bia
Ġcu aca
Ġintrod uction
Ġkimi awi
ĠdÃ©mokrat ik
Ġmanufac tur
romagne tic
Ġchic ago
j ol
z h
Ġm aya
Ġm ex
Ġb omb
Ġj emb
on ic
ol ahan
Ġf ok
Ġf ew
ĠÃ©k ologi
Ġper juangan
Ġy our
eg i
Ġmut uskeun
Ġsa up
Ġtr ade
ine a
Ġse qu
tur i
Ġdic iptakeun
Ġkor Ã©an
Ġfr uit
omb ia
Ġbeur it
Ġki arac
Ġid e
Ġukuran na
Ã©st asi
Ġleb et
Ġkri tik
Ġtip eu
Ġngur ilingan
Ġos ok
Ġkeb udayaan
Ġproduc tion
Ġtap ak
Ġkompl Ã©ks
Ġdipas ang
Ġindivid u
Ġnyeb arkeun
Ġbund eran
éīĦ éģĵ
Ġampl itudo
Ġheun teu
ocar pus
Ġkiarac ondong
v ille
Ø ¡
Ġk p
ar ya
Ġt una
or asi
in k
ul er
um ina
Ġti r
ri o
Ġw ira
ab ungkeun
Ġpan ungtung
Ġsak itar
Ġmah al
Ġv a
Ġv od
ch er
Ġpas angg
Ġus a
Ġkad al
Ġdan o
ran i
Ġkahiji na
Ġmul ang
Ġbur uan
Ġsek ret
Ġlog ic
Ġpangl ima
Ġgag ang
Ġrunt ah
Ġent Ã©h
led ge
Ġcommer ci
Ġyel low
Ġukra ina
d ong
l ukan
m un
n r
y id
Ġp Ã©so
Ġb c
Ġn ec
ak sa
Ġc e
Ġh os
Ġg ard
Ġg igir
ur ch
Ġo ur
Ġo wn
ek e
Ġku il
ay angan
Ġna v
Ġny ider
Ġsal ju
Ġe in
Ġcon sist
Ġak u
Ġbi wir
Ġac id
ve y
Ġco un
Ġngaw ujud
tic e
ell ing
Ġsi x
Ġsul uh
Ġgu in
Ġhi ro
nam Ã©n
ush u
Ġturk ey
Ġkeu angan
Ġelectron ic
ici ent
Ġtarjam ahan
Ġtih ang
ĠtÃ©lÃ©k omunikasi
Ġpaguy uban
Ġnyider aan
b es
d eh
y ur
Ġb ush
Ġj um
Ġj ud
er hana
ak tur
Ġl p
Ġng oj
it na
eung g
em e
aw ati
eb o
Ġkaw ung
Ġper sian
Ġper hat
Ġv ert
Ġny amp
Ġdip roduksi
Ġdip idangkeun
Ġobj ects
ub ur
Ġman ehna
Ġpam ust
Ġkat angtuan
Ġwar s
Ġpal aku
Ġsaw angan
Ġmat Ã©m
Ġgun ana
Ġkomp etisi
Ġul ikan
ebon an
ensi ve
ert y
erb ilt
Ġelect romagnetic
Ġot onom
Ġund ak
Ġlaw on
Ġwaw akil
Ġsci entif
Ġcoll ecti
Ġpes awat
Ġlow er
Ġwarta wan
Ġpsik ologi
Ġhawai i
Ġvand erbilt
c y
f ication
Ġ umb
Ġk irang
ar apkeun
Ġt eb
Ġt angan
Ġt Ã©mp
Ġn arik
Ġdi f
Ġi ce
Ġh op
Ġf em
Ġpan ut
Ġpan arima
asi lan
Ġman tan
Ġfor eign
Ġnag a
isi s
Ġu u
ĠsÃ© ri
Ġter j
Ġkom Ã©r
Ġkam ajuan
uta ma
Ġpap as
Ġdat ab
ure a
Ġkand araan
Ġlog o
Ġfungsi na
Ġprof Ã©si
Ġpenting na
tim ologi
Ġkep ada
Ġbed a
Ġyus uf
Ġsirk uit
Ġsold adu
Ġaccord ing
s k
u ana
Ġb iaya
at ujuan
Ġc itra
uk e
ti me
ap ura
om inasi
el keun
Ġf ried
il id
Ġkal ex
lo ka
og Ã©n
Ġab di
Ġso si
Ġmas ehi
Ġre al
rop ah
Ġdic tionary
Ġdic aritakeun
Ġtel kom
Ġib n
Ġcar ana
Ġsol ar
Ġwor ds
Ġmed an
Ġger ing
Ġca ang
Ġunit s
Ġleb ak
Ġkun ti
Ã¡ n
Ġperd agangan
Ġequ ip
ĠmÃ©m Ã©h
Ġanta wis
Ġsv g
Ġmahk ota
Ġnyump onan
Ġsakur iling
Ġsignific ant
ungt ungan
Ġriw ayat
Ġtitingg al
Ã©ngsÃ© keun
r Ã©t
Ġ à¸
Ġt ag
Ġb b
al angan
Ġh ang
as aki
Ġf ajar
Ġf ront
Ġari a
Ġv eg
Ġy ok
Ġmagn Ã©t
Ġdip i
Ġdip an
Ġsal mon
op si
Ġch a
Ġsp Ã©ak
Ġtr ee
Ġsat uan
Ġma ster
li es
Ġber d
Ġber sih
Ġsub sp
Ġsin us
Ġmer api
Ġen ti
Ġput rana
Ġform asi
Ġkons er
Ġmol ec
Ġlemb ur
Ġsud an
Ġkrist al
Ġperc obaan
Ġngahiji keun
Ġcim ahi
Ġkend ang
Ġsalam et
Ġmara ot
Ġsle ep
Ġscientif ic
v or
Ġa q
Ġb ina
Ġj st
uk tor
Ġh r
ag on
el er
Ġmang a
Ġv Ã©ktor
ian s
Ġsp ring
re y
Ġngal ir
Ġbal Ã©
Ġres pon
Ġhas eum
Ġmur ah
sin t
Ġimp erial
ef ul
Ġkont rol
Ġnum er
Ġfa ir
Ġinf ra
Ġtrop en
Ġped ang
Ġsimp le
ĠÃ©fÃ©k tif
Ġdefin isi
Ġpert ahanan
posi tion
Ġpoint s
Ġfam ily
Ġmanag ement
Ġpasangg iri
Ġngoj ay
g ro
h oku
u ah
v o
Ġt em
Ġs op
Ġn d
Ġdi sa
en ang
en ing
Ġc ities
Ġl ock
Ġng olah
Ġg d
Ġg it
it keun
Ġth ird
Ġin put
es keun
Ġpro por
ra fi
Ġch ild
ver ed
Ġkas ap
Ġngal ambangkeun
Ġsaj ero
Ġpat ar
Ġangg eus
eta k
Ġpop ula
ĠØ§ ÙĨ
uta si
ĠsÃ©l Ã©r
Ġmad u
ĠhÃ© ad
Ġmuham madi
Ġot oritas
Ġip omo
Ġhat eup
Ġpatemp atan
Ġkarakter istik
Ġyus wa
Ġstre et
Ġdino sa
Ġpraj urit
Ġmold ova
e ka
w ati
Ġ à¦
al ap
at ic
Ġj ung
Ġl Ã©t
uk keun
ab eth
Ġf as
Ġf est
Ġpi mp
Ġkal ig
and angan
ahan keun
Ġbag i
Ġpri v
Ġdip edalkeun
Ġto wn
Ġman ik
Ġdis pl
Ġch ap
ina tion
Ġpar u
Ġkap ur
Ġtr e
Ġtr ack
Ġat ta
Ġbi ologis
Ġdit u
Ġma en
Ġde wa
Ġde tail
enc ies
ĠÃ© volusi
Ġre sid
Ġngab ah
Ġsam i
Ġdig orÃ©ng
iri g
Ġbab ari
Ġbat ara
Ġgo v
ĠwÃ©tan eun
Ġalb ert
Ġsah ent
Ġrel i
Ġngam ungkinkeun
ahir keun
inc ak
ros kop
Ġhib er
Ġdial ek
Ġgra vi
Ġdeg ung
Ġdangd ut
mus eum
Ġkapasi tas
Ġfuku oka
Ġtod ay
m et
u ch
Ġs b
Ġb ih
Ġl ig
Ġh ai
Ġan no
Ġg im
Ġg uar
um um
it etsu
Ġw ast
Ġin si
ab ility
ud id
Ġper jalan
Ġto b
Ġst or
Ġam ount
Ġngal eupaskeun
Ġter p
Ġkom ite
Ġngab antu
ind er
ind ung
Ġco ok
Ġel iz
Ġsy ria
Ġpak ebonan
Ġmak assar
ric k
Ġcl ub
ov asi
Ġsup p
Ġbel as
Ġpil ot
Ġpasar turi
Ġstand ards
Ġimah na
Ġpot ongan
Ġbuk una
Ġdew an
Ġkos ong
Ġprim ary
Ð° Ð
Ġbara ya
Ġpram uka
Ġevol ution
Ġciv il
Ġgeu ra
Ġtingk atan
Ġipomo ea
j ata
t om
eu sina
ar ki
Ġt ni
Ġm ori
Ġb t
ro sÃ©s
Ġn ed
ad eg
Ġc ry
Ġr angg
Ġh usna
Ġg eulis
Ġw elas
ab lish
og n
ĠrÃ© ak
Ġv ak
Ġpr an
Ġpr ev
Ġpam adegan
Ġu ap
Ġac ross
Ġdit uluykeun
Ġum p
Ġre form
Ġwal ik
Ġpul isi
Ġber h
Ġsum ang
Ġsi ze
omb ong
Ġdir ection
pr Ã©si
Ġsah adat
Ġbel ow
Ġtip i
wang i
Ġkeb umÃ©n
Ġest ablish
Ġrat her
Ġprak tÃ©k
Ġbon Ã©ka
Ġditut urkeun
Ġconst ant
Ġboliv ia
Ġdihiji keun
Ġtropen museum
Ġmuhammadi yah
z en
ç ·
Ġt ungg
Ġa ch
Ġb j
Ġdi olah
Ġj ombang
id ent
ag Ã©
ing kat
Ġro ng
Ġro da
Ġro mb
angk ut
Ġkap am
Ġsat ria
Ġngab el
Ġit ungan
Ġant on
Ġngar uksak
Ġco st
Ġngeuna h
Ġbas kÃ©t
Ġmad agas
Ġmel ambangkan
Ġngam angpaatkeun
Ġbasi c
ĠØ £
Ġbec ome
Ġbac ca
Ġsut ra
Ġprop erti
Ġmong olia
enting an
Ġdiag ram
Ġramat loka
Ġkrom osom
Ġvis ual
Ġsis wa
ĠcÃ©c Ã©p
Ġwrit ten
Ġdamp al
Ġregi onal
Ġsahent euna
z uki
Ø ¬
æ ľ
Ġb ek
Ġn em
id ah
ad ap
Ġc oba
Ġl aks
Ġh ut
Ġh ans
Ġng angkat
el o
il iki
ud in
Ġkar t
Ġch urch
Ġpar tai
Ġngal ahirkeun
usi r
ĠÃ© ropah
Ġbal ai
any e
Ġel ements
Ġmer upakan
Ġgol den
Ġleb aran
Ġmik aresep
Ġindust ry
Ġacc ur
Ġtal e
ush ima
uks akan
Ġdevelop ed
Ġsignal s
sid asi
Ġplay er
Ġalterna tif
Ġalgor ith
Ġprodus er
Ġqat ar
Ġkald Ã©ra
Ġshang hai
c on
r ew
r ated
t Ã©n
u asi
Å Ł
Ġk angk
Ġm iz
Ġs od
Ġn ila
Ġn Ã©g
or is
Ġi j
Ġh et
Ġng or
ul ub
Ġg prs
ari um
Ġthe orem
et on
aj ahan
Ġis mail
Ġkar uksakan
Ġst an
Ġst rong
ob atan
Ġpar ad
Ġak sÃ©s
Ġab adi
ust akaan
Ġhar mon
Ġkom odo
Ġkam ar
Ġsaw unggal
Ġdim ana
Ġcomp an
ey an
Ġut usan
Ġcor res
Ġlamb ar
Ġtin ju
Ġå ¤
Ġmac em
Ġdistrib usi
Ġkong rÃ©s
Ġngembang keun
Ġcag eur
Ġfed eral
ĠinsÃ©k ta
Ġbulg aria
Ġsumang et
Ġbacca urea
Ġcorres pond
g on
n es
Ġt g
Ġa jang
Ġa sih
Ġs j
Ġs anti
Ġn imb
ad Ã©an
en is
Ġr eng
Ġan ci
ul tur
up iter
Ġin iti
Ġin sin
ep atan
Ġal ih
Ġal Ã©rgi
ĠrÃ© st
Ġas y
ub ung
ch em
anc arkeun
Ġsun d
Ġbak ti
Ġmo di
Ġkel uar
Ġtrans mis
Ġsel a
ĠgÃ© orgia
Ġgu inea
Ġmi ara
Ġposi tif
Ġwat ang
Ġbung a
Ġjohn son
Ġtin angtu
Ġunder st
Ġmultip le
ĠrÃ©b u
Ġalf ab
Ġvic tori
Ġkonstr uksi
Ġdatab ase
v ity
Ö Ģ
an ing
Ġk entang
Ġa ik
Ġp ula
Ġi a
ah ara
Ġka sa
Ġl c
um ents
et te
ji ban
Ġro ll
aun an
Ġas osiasi
Ġpang d
Ġpang eusina
od es
Ġdis al
Ġpar na
Ġpo Ã©k
Ġbe ha
Ġz o
Ġtan z
Ġpag es
fi eld
Ġdo ug
iz e
Ġform s
Ġsek ar
Ġpu asa
Ġlamb aran
Ġsouth ern
Ġmant ra
Ġpac ific
Ġef ek
ĠbÃ©r Ã©s
Ġditambah keun
Ġtm nr
embl engna
Ġparip olah
Ġpopula sina
Ġgravi tasi
g y
l ast
m il
x ed
Ġ ern
Ġk od
Ġt ind
Ġm ali
ro ad
Ġdi inum
ad ak
Ġc ical
Ġl ah
as al
Ġng end
Ġng ilu
Ġan a
om ial
el e
Ġf ul
Ġari st
Ġman ch
Ġpam ekaran
Ġdis er
ug e
Ġnep al
Ġsap asang
Ġdit eundeun
Ġde ath
li e
Ġdim uat
ha z
Ġorgan ization
Ġdir Ã©ktur
Ġker am
Ġsig ana
Ġtar ung
Ġpin unjul
Ġnam ed
Ġpers atuan
Ġteg angan
Ġdin yat
Ġtech ni
Ġfield s
osi stem
Ġcut atan
Ġwujud na
Ġtadi na
Ġmong ol
Ġtog ether
Ġpred ic
Ġgalax y
Ġbaluk ar
Ġmoment um
Ġnaw arkeun
Ġkint etsu
Ġperhat ian
Ġcollecti e
Ġgit aris
ç· ļ
Ġsawunggal ih
d on
j ug
m es
Ã© ase
Ġm n
Ġp adi
er ra
Ġi w
Ġi dÃ©n
Ġr t
Ġh our
as at
Ġti t
Ġti was
es sing
Ġmin ister
Ġmar sh
Ġsak ti
ac o
Ġinter face
Ġind ra
Ġsa en
anc ed
Ġak an
Ġbe rop
Ġsh ir
Ġdig entos
Ġpl a
tic s
Ġuniver se
Ġra in
Ġsol id
ãĤ ¤
Ġint en
ous ly
Ġtamb ang
Ġfir e
Ġapp Ã©ar
Ġbec om
Ġsingap ore
Ġmilit ary
Ġlil in
Ġbeta wi
ĠÙĦ Ø§
Ġwilhel m
Ġtanz ania
b our
h atikeun
o ang
u x
å ¸
Ġa long
Ġm ist
Ġm Ã¼
Ġn h
en ta
Ġka uangan
Ġl engk
Ġl ama
Ġh ampang
Ġh ui
un ing
Ġan apon
ul osa
ul loh
ur ai
ab arkeun
ing er
ac ana
ac tion
Ġar ca
Ġny ag
Ġst ra
op her
Ġdis cus
Ġat ah
re st
ĠÃ© j
Ġmal aka
Ġel ae
Ġser ayu
Ġser angga
eunang keun
Ġngaj arkeun
Ġli at
Ġhas eup
Ġul in
Ġmay or
Ġmay oritas
Ġbin ih
Ġsc ale
eutik na
bo ja
Ġsec ara
Ġout put
Ġproduc ed
Ġtingg al
Ġbay es
Ġcell s
Ġjar um
Ġbeg in
Ġrut eu
Ġgalax ies
Ġappl ications
ĠmÃ©d is
Ġinsin yur
b ing
c ano
Ñ ĥ
Ġi ta
en eran
Ġl es
in us
Ġng eureunkeun
Ġg ot
ur al
Ġin sp
Ġin vol
eb es
Ġkal ina
Ġro sidi
Ġkaw at
Ġdeu ih
Ġst op
Ġst ations
Ġkap entingan
Ġak si
Ġhar ris
Ġsh ap
Ġdit Ã©mb
Ġma iden
ĠÃ© d
Ġco unc
Ġngad Ã©ngÃ©
Ġngah ar
Ġgr an
Ġbo ard
mad ya
Ġcol d
Ġpil ipina
Ġta il
Ġposi tive
Ġhuk uman
Ġmark as
Ġkaj uruan
Ġpangh ad
Ġeurop Ã©an
Ġcommon ly
Ġjamb atan
ĠdÃ©m ografi
Ġcommun ication
Ġmoham mad
Ġley ur
Ġtemper ature
Ġdemoc rat
Ġacco unt
Ġcorrel ation
Ġpasip atan
Ġkomb inasi
Ġsaup ama
Ġpimp inan
Ġperjalan an
Ġelae ocarpus
l ut
m inton
p ed
s um
Ã £
å ·
Ġk oh
Ġa bah
Ġm ih
Ġm eri
Ġs umbu
Ġs ih
Ġp n
Ġp Ã©st
Ġd ates
Ġn Ã©ken
Ġn incak
Ġdi a
Ġdi ap
Ġi ris
ad h
en o
Ġl ength
uk um
un us
ur ung
ag ad
Ã©n i
Ġw ri
ari o
Ġdina m
Ã©r Ã©t
and e
Ġpan jal
Ġun ic
Ġv ector
ok imia
Ġdip ang
Ġdip ap
Ġind uk
Ġpam ar
Ġam ir
Ġak ting
Ġpas ang
Ġcom po
Ġngar Ã©ngsÃ©keun
Ġwar ung
rom o
Ġdik onsumsi
Ġpak as
Ġpeng g
Ġbur ma
Ġkand ang
Äģ n
ĠrÃ©k aman
Ġtransform asi
Ġcip ati
Ġsabudeureun ana
Ġwir eless
Ġlak on
Ġdev ice
Ġfam ili
Ġsemp et
Ġrib a
Ġdipib oga
Ġacadem y
Ġmediterran Ã©an
Ġpuc uk
umum keun
Ġeliz abeth
Ġngabel edug
Ġdinyat akeun
c ong
e ting
r Ã©k
Ġk irip
Ġm w
Ġm ungkas
Ġp Ã©p
al ongan
Ġn ara
Ġn ump
Ġj e
Ġg ay
ut ed
ic it
aw atan
and ra
Ġro t
Ġper man
Ã©na k
ec k
ub i
Ġkar us
Ġman c
os ari
op las
ua an
re a
Ġkat arajang
Ġkon ci
Ġmas k
Ġfil ter
Ġno ise
Ġbah am
Ġkan u
Ġlap ang
Ġmi ang
Ġapp lied
Ġdiper kir
Ġloka sina
Ġngadeg na
Ġprak tis
Ġsamb ungan
Ġchann els
Ġnit rogÃ©n
Ġnand akeun
Ġasma ul
ĠmatÃ©m atika
Ġcounc il
Ġkirip ik
ar ag
Ġm aku
Ġs gu
Ġd ate
Ġd pl
Ġb ont
Ġj aga
Ġc ust
Ġr eungit
Ġg es
Ġg ian
Ã©h at
Ġmin i
Ġy en
Ġy ug
Ġpang atikan
Ġam in
Ġdis ney
Ġpar usahaan
Ġpar ty
anc am
Ġtr ue
Ġla os
Ġda Ã©k
Ġbat uk
Ġwil d
ÙĦ Ùĩ
Ġsi eun
la via
Ġlin ks
rÃ© ad
Ġsir eum
Ġtek nik
Ġdilak onan
Ġbec ame
engg ala
Ġdok umÃ©n
Ġbant u
ĠtÅį hoku
Ġkend araan
Ġlit tle
Ġngap ung
Ġappro ach
Ġrasul ullah
Ġpasam akmuran
ĠnÃ©t Ã©lakeun
Ġfest ival
Ġanci ent
i ang
n et
r ama
t at
Ġm aria
Ġp eup
or n
Ġj amp
Ġl ob
Ġg abung
Ġnu cle
ent ah
ol ar
Ġplan ts
ud e
Ġal m
Ġbad uy
Ġman usia
end ar
Ġpar ts
Ġkap ari
Ġsap atu
akar ida
Ġac t
Ġsh ift
Ġdit unjuk
Ġkota madya
Ġter usan
Ã©ng an
ungg ung
Ġkad angkala
Ġber p
Ġkam boja
Ġpen er
Ġbr and
Ġngah akan
Ġph oto
Ġngaj ar
ge lan
Ġdil iwatan
Ġdil engkepan
iz u
Ġlin eker
Ġkan al
Ġsisi na
Ġhad its
Ġhi asan
Ġwad uk
Ġphil ipina
Ġinclud es
omat is
Ġjo e
Ġmic eun
Ġpd f
Ġpek alongan
Ġthough t
Ġjah Ã©
Ġmach ine
Ġditar jamahkeun
Ġbib li
Ġgerb ong
Ġkonv Ã©nsi
Ġlabor atorium
sint Ã©sis
u alan
Ġn ini
Ġn ba
st il
Ġast ina
as mi
Ġg eb
am ar
Ġnu g
Ã©k h
Ġf uk
po se
ud ian
Ġro kÃ©t
Ġna tion
Ã©nsi tas
Ġbad e
Ġmagn et
Ġind ah
ch ed
Ġpr ab
Ġcon ven
Ġngal egaan
ĠsÃ© wangan
ind ungan
Ġbak at
Ġpol ic
Ġngad eukeutan
Ġdim Ã©nsi
Ġkol om
Ġcan n
Ġmed ium
Ġben ua
Ġot onomi
Ġcamp ur
Ġpot ong
Ġpeu j
ebr ata
Ġelectric ity
Ġmor ning
Ġnar uto
ret e
Ġnat rium
Ġfound ation
Ġbor n
Ġmax imum
aksana an
Ġtih eula
Ġcapac it
Ġchang es
ĠÅ Ľ
ĠbÃ©l gia
Ġpolim Ã©r
Ġrr t
ĠfÃ©der al
Ġbrid ge
Ġnyir uan
Ġmony Ã©t
Ġvod ka
Ġcommerci al
Ġguin Ã©a
Ġequip ment
Ġsaen yana
j en
n iv
y ing
Ã ¸
Ġs ew
Ġp uhu
Ġd usun
Ġb ent
ro si
or mat
Ġi ch
on im
Ġka uk
Ġka om
Ġr usi
Ġh Ã©k
Ġh eld
am bah
Ġnu ngg
Ġy akin
Ġpro ses
Ġis landia
Ġpr unus
emp or
Ġbe y
Ġad j
Ġag ric
euh an
Ġex ter
Ġber lin
Ġdic iri
Ġmer ah
Ġdr Ã©st
Ġsu ara
Ġsu ff
Ġist im
Ġsag emblengna
Ġed ward
mb angan
Ġut euk
Ġtum or
Ġta x
atur es
Ã©d ah
ĠØ ¹
Ġfa il
engg ung
ĠmÃ©t ode
Ġtransform er
Ġnap el
Ġmemb ers
Ġprocess es
Ġfit ur
ÃŃ n
Ġmathemat ics
Ġhyd ro
Ġgan as
Ġperp ustakaan
Ġfoot ball
Ġtransist or
Ġencyclop edia
Ġpamust unganana
Ġromb ongan
Ġberop erasi
k h
l en
u ting
Ġk anj
Ġk uku
ar ti
Ġm idangkeun
al em
Ġn anj
er k
ah ayang
ak at
Ġc os
Ġc ard
Ġl Ã©l
Ġr ati
Ġo ng
Ġap al
ik s
Ġna sa
onal d
Ġkaw asa
Ġv Ã¤
Ġto h
ch en
Ġpam uda
Ġsa ud
Ã©t ri
Ġac eh
Ġde st
Ġco ol
Ġmo vie
Ġmil uan
Ã©a u
Ġmat rix
Ġsy d
Ġangg otana
Ġdiji euna
Ġmer t
Ġmer dika
Ġpara sit
Ġcar go
Ġpad agang
Ġhid up
Ġdes ain
Ġqu ality
alung tik
Ġmem iliki
Ġpangb Ã©basan
Ġsej ak
Ġdiro jong
Ġpok Ã©mon
Ġsti e
Ġyam aha
ĠdÃ©w asa
Ġfut ure
Ġvulkan ik
Ġnutri si
ĠprÃ©sid Ã©nt
Ġditil ik
Ġwalik ota
ĠÃ©j ahan
Ġm oto
Ġs idang
Ġp und
Ġn ok
Ġn araka
Ġc engk
Ġl aga
Ġr iau
Ġh app
as y
Ġw ayah
Ġin ci
is ed
ab ang
Ã©k ah
Ġkal obaan
Ġkal akuan
ay ar
Ġro ti
Ġar c
Ġny anyi
Ġdip arÃ©nt
Ġsal uhureun
ib le
una kan
Ġsp Ã©r
Ġkom po
li er
ind ing
Ġber g
uw angi
Ġsen ja
Ġwil son
Ã©a e
Ġsy Ã©kh
ita k
Ġcan ada
Ġsul f
Ġleg al
Ġme lan
Ġlamp ah
Ġtyp ically
omat ik
Ġnut up
Ġobserv ed
Ġnat al
Ġranc angan
Ġbre ed
Ġresul ts
Ġrecei ver
Ġditing ali
Ġpier re
Ġdrup adi
wid th
r ahkeun
Ã »
Î ±
å Ľ
Ġk is
Ġm ikawanoh
Ġs low
ro logi
at ory
Ġn ext
ad ar
Ġl ingg
Ġg ate
ap tar
Ġw ol
us u
is sion
ab i
Ġf ah
Ġf cc
Ġinter pr
Ġar men
ig ur
Ġaw an
mp at
Ġmal abar
iri man
Ġbak o
Ġare a
Ġph en
ĠbÃ© ak
Ġsajarah na
Ġkud Ã©ta
Ġdum uk
Ġsik sa
Ġja zz
Ġtum enggung
Ġlar ger
Ġfak ta
Ġneg ative
ĠtÃ© ma
Ġfre ed
Ġleb u
Ġfl ag
Ġot omatis
Ġver sion
Ġaj eg
Ġmangpa atna
ĠmÃ©an ing
Ã©ks ual
Ġasp Ã©k
Ġpalab uhan
Ġpic tures
Ġbanglad esh
Ġcircuit s
Ġeksp ek
Ġdibeul eum
deka an
Ġneut ron
ĠkomÃ©r sial
Ġproperti es
Ġpanghad Ã©na
Ġdipang aruhan
Ġmaku ta
f isi
u in
å Ń
Ġ Ä
Ġm ight
Ġp aku
na p
Ġn ota
en z
Ġka y
Ġka fir
ur ut
ap s
Ġti g
Ġkal angan
ay aran
im ah
ĠrÃ© d
Ġv l
Ġv in
Ġy p
Ġsal aki
ra f
Ġpam at
ew e
ip an
awan an
Ġngab Ã©warakeun
Ġbal ad
ĠdÃ© ath
ram at
Ġph one
Ġsub j
Ġcar bon
Ġwor ks
Ġsing g
Ġput era
aks an
agu e
Ġbin ti
Ġint ell
Ġlap is
Ġbut uh
Ġrefer red
Ġeng land
Ġsad ulur
Ġkut u
Ġkont in
Ġtab ung
Ġadi pati
Ġequ al
Ġequ ival
Ġdiffer ence
Ġdieu sian
tiv ity
ĠrÃ©ng king
Ġvokal is
Ġinv asi
Ġbaluk arna
Ġatt emp
Ġleul eus
Ġngeu sian
Ġpresid ent
Ġsanti ago
Ã£ o
Ġkapari gelan
Ġpeuj it
n d
s at
an e
Ġb ing
Ġb ani
Ġn Ã©p
Ġn ulungan
er ian
Ġc atur
Ġl ub
Ġh Ã©a
Ġg emp
el uk
il uan
et ah
Ġpi r
eb keun
uj uh
Ã©nt angan
Ġny ak
os hi
Ġcom ets
Ġhar am
to sa
Ġz e
Ġngar ang
Ġmo ving
Ġpl ate
ff y
Ġpa us
Ġlo st
Ġmer deka
Ġcar ol
Ġed ge
Ġseb uah
Ġgar uda
Ġgol Ã©k
Ġme itetsu
Ġnel ah
Ġrak et
Ġden mark
ĠpÃ© ron
Ġcommun ity
Ġlay er
Ġanc ur
Ġlet usan
Ġmax well
Ġarm ada
ĠhÃ©r ang
Ġpadum uk
Ġkadu ana
Ġheur as
Ġalum ni
Ġflor ida
akus umah
Ġkawa jiban
Ġhtm l
Ġdinosa urus
Ġanno unc
Ġvictori a
Ġbeha vi
Ġdoug las
Ġkeram ik
h d
u ji
Ð º
Ð »
Ø µ
Ġt entang
Ġm uc
Ġs ula
Ġs ebut
Ġd s
Ġb k
ang tayungan
or th
Ġj upiter
ta ble
id ay
Ġl b
Ġl awang
Ġr eureuh
Ġh ep
Ġng okolakeun
am el
Ġw ire
ab ah
es el
ji r
Ġkal ium
Ã©r asi
Ġna ek
Ġsak itu
ot an
Ġpang eb
ig o
Ġam at
una k
Ġsp e
Ġbi as
Ġre view
Ġhal odo
Ġngaw asaan
ĠmÃ© ja
Ġgamb ang
ita si
Ġsub sc
Ġsor ana
ni e
Ġleg end
Ġpend Ã©k
Ġsek utu
Ġmand i
Ġcap ital
Ġtab uh
Ġdita mp
Ġngur us
Ġpamak e
Ġnov Ã©l
Ġbik angna
Ġdesc rip
ye ong
Ġpublish ing
Ġsalak ina
ĠmÃ©tabol isme
Ġein stein
deh ida
ĠprofÃ©si onal
udid ayakeun
å¸ Ĥ
Ġpanjal u
Ġagric ul
Ġekspek tasi
c os
h ere
y d
Ġ uh
ar ga
Ġa us
Ġb enggala
Ġn angka
Ġdi di
Ġi z
ad ahan
Ġl ing
Ġl agi
Ġng onsumsi
ul e
ag aan
eung h
ka y
ud an
ek tor
and ungan
Ġku ala
Ġap a
Ġpan ungtungan
tas e
Ġper ad
Ġch it
Ġus ers
Ġde ep
Ġsam ara
Ġse ven
Ġwar agad
Ġex ec
Ġkol Ã©ksi
Ġdiw atesan
Ġdil eupaskeun
Ġx y
Ġup ami
Ġsik lus
Ġsc ott
Ġkatut up
ĠØ ¨
Ġexp ected
Ġtop i
Ġni at
Ġwis at
Ġkem udian
Ġdisi ngg
Ġts unami
ony od
ĠgÃ©n us
Ġngaronj at
Ġbroadcast ing
ĠfÃ©n om
Ġkaz akh
Ġlux ury
Ġral oba
Ġtransmis sion
Ġtind akan
Ġexter nal
r ata
y uh
Ġm ember
Ġs ide
Ġb id
Ġb angun
at ah
en berg
Ġc ek
Ġl ada
Ġr emp
Ġng in
