{"!":0,"\"":1,"#":2,"$":3,"%":4,"&":5,"'":6,"(":7,")":8,"*":9,"+":10,",":11,"-":12,".":13,"/":14,"0":15,"1":16,"2":17,"3":18,"4":19,"5":20,"6":21,"7":22,"8":23,"9":24,":":25,";":26,"<":27,"=":28,">":29,"?":30,"@":31,"A":32,"B":33,"C":34,"D":35,"E":36,"F":37,"G":38,"H":39,"I":40,"J":41,"K":42,"L":43,"M":44,"N":45,"O":46,"P":47,"Q":48,"R":49,"S":50,"T":51,"U":52,"V":53,"W":54,"X":55,"Y":56,"Z":57,"[":58,"\\":59,"]":60,"^":61,"_":62,"`":63,"a":64,"b":65,"c":66,"d":67,"e":68,"f":69,"g":70,"h":71,"i":72,"j":73,"k":74,"l":75,"m":76,"n":77,"o":78,"p":79,"q":80,"r":81,"s":82,"t":83,"u":84,"v":85,"w":86,"x":87,"y":88,"z":89,"{":90,"|":91,"}":92,"~":93,"¡":94,"¢":95,"£":96,"¤":97,"¥":98,"¦":99,"§":100,"¨":101,"©":102,"ª":103,"«":104,"¬":105,"®":106,"¯":107,"°":108,"±":109,"²":110,"³":111,"´":112,"µ":113,"¶":114,"·":115,"¸":116,"¹":117,"º":118,"»":119,"¼":120,"½":121,"¾":122,"¿":123,"À":124,"Á":125,"Â":126,"Ã":127,"Ä":128,"Å":129,"Æ":130,"Ç":131,"È":132,"É":133,"Ê":134,"Ë":135,"Ì":136,"Í":137,"Î":138,"Ï":139,"Ð":140,"Ñ":141,"Ò":142,"Ó":143,"Ô":144,"Õ":145,"Ö":146,"×":147,"Ø":148,"Ù":149,"Ú":150,"Û":151,"Ü":152,"Ý":153,"Þ":154,"ß":155,"à":156,"á":157,"â":158,"ã":159,"ä":160,"å":161,"æ":162,"ç":163,"è":164,"é":165,"ê":166,"ë":167,"ì":168,"í":169,"î":170,"ï":171,"ð":172,"ñ":173,"ò":174,"ó":175,"ô":176,"õ":177,"ö":178,"÷":179,"ø":180,"ù":181,"ú":182,"û":183,"ü":184,"ý":185,"þ":186,"ÿ":187,"Ā":188,"ā":189,"Ă":190,"ă":191,"Ą":192,"ą":193,"Ć":194,"ć":195,"Ĉ":196,"ĉ":197,"Ċ":198,"ċ":199,"Č":200,"č":201,"Ď":202,"ď":203,"Đ":204,"đ":205,"Ē":206,"ē":207,"Ĕ":208,"ĕ":209,"Ė":210,"ė":211,"Ę":212,"ę":213,"Ě":214,"ě":215,"Ĝ":216,"ĝ":217,"Ğ":218,"ğ":219,"Ġ":220,"ġ":221,"Ģ":222,"ģ":223,"Ĥ":224,"ĥ":225,"Ħ":226,"ħ":227,"Ĩ":228,"ĩ":229,"Ī":230,"ī":231,"Ĭ":232,"ĭ":233,"Į":234,"į":235,"İ":236,"ı":237,"Ĳ":238,"ĳ":239,"Ĵ":240,"ĵ":241,"Ķ":242,"ķ":243,"ĸ":244,"Ĺ":245,"ĺ":246,"Ļ":247,"ļ":248,"Ľ":249,"ľ":250,"Ŀ":251,"ŀ":252,"Ł":253,"ł":254,"Ń":255,"an":256,"Ã©":257,"eu":258,"Ġk":259,"ar":260,"Ġt":261,"ng":262,"Ġa":263,"Ġm":264,"Ġs":265,"Ġp":266,"na":267,"Ġd":268,"Ġb":269,"al":270,"ro":271,"at":272,"Ġn":273,"ang":274,"Ġdi":275,"st":276,"or":277,"Ġj":278,"er":279,"Ġi":280,"si":281,"ah":282,"ta":283,"id":284,"Ġast":285,"ad":286,"on":287,"ak":288,"en":289,"roid":290,"eun":291,"Ġka":292,"Ġc":293,"Ã©roid":294,"ĠastÃ©roid":295,"Ġl":296,"uk":297,"Ġr":298,"in":299,"Ġh":300,"un":301,"ti":302,"as":303,"keun":304,"Ġng":305,"Ġan":306,"ul":307,"Ġg":308,"ur":309,"ap":310,"am":311,"um":312,"ag":313,"Ġnu":314,"Ġti":315,"ya":316,"it":317,"Ġo":318,"ri":319,"eung":320,"ate":321,"ut":322,"up":323,"Ã©n":324,"ed":325,"Ġth":326,"ent":327,"Ġjeung":328,"ol":329,"Ġw":330,"Ġieu":331,"ari":332,"Ġin":333,"us":334,"is":335,"Ġanu":336,"Ġthe":337,"lan":338,"ab":339,"adi":340,"ung":341,"om":342,"el":343,"Ã©k":344,"ori":345,"Ġf":346,"Ã©ta":347,"Ġplan":348,"em":349,"ka":350,"ana":351,"es":352,"Ġkate":353,"eng":354,"il":355,"gori":356,"Ġkategori":357,"et":358,"Ġdina":359,"Ġjadi":360,"Ġtina":361,"ji":362,"Ã©h":363,"ara":364,"Ġmin":365,"ic":366,"po":367,"ing":368,"Ġmar":369,"Ġnya":370,"ukan":371,"Ġpi":372,"aw":373,"ud":374,"eb":375,"ir":376,"ĠnyaÃ©ta":377,"ada":378,"Ġkal":379,"mor":380,"Ã©r":381,"cap":382,"ula":383,"ek":384,"lo":385,"Ã©b":386,"iji":387,"and":388,"Ġpikeun":389,"Ġku":390,"Ġari":391,"Ġmang":392,"Ġap":393,"upa":394,"nal":395,"ĠplanÃ©":396,"Ġmarcap":397,"Ġmarcapada":398,"ĠnÃ©b":399,"ĠnÃ©bula":400,"Ġpan":401,"ep":402,"ik":403,"ahan":404,"ter":405,"ay":406,"di":407,"Ġsar":408,"im":409,"ion":410,"Ġhiji":411,"Ġun":412,"asi":413,"Ġof":414,"Ġro":415,"Ġmangr":416,"uj":417,"Ġna":418,"uh":419,"og":420,"ollo":421,"Ġmangrupa":422,"Ġteu":423,"umb":424,"Ġal":425,"ĠtÃ©h":426,"uar":427,"Ġapollo":428,"Ġkab":429,"aj":430,"tar":431,"Ġor":432,"onal":433,"Ġsak":434,"Ġmah":435,"ĠrÃ©":436,"tas":437,"angka":438,"wa":439,"Ġbeu":440,"Ġkaw":441,"ac":442,"ĠÃ©k":443,"Ġper":444,"Ġminangka":445,"Ã©nt":446,"Ã©an":447,"anj":448,"Ġdeu":449,"Ġamor":450,"Ġv":451,"Ġbag":452,"Ġsarta":453,"ron":454,"ok":455,"Ġinter":456,"Ġkac":457,"Ġruj":458,"eul":459,"Ġrujukan":460,"eut":461,"umbu":462,"aun":463,"ih":464,"ot":465,"Ġged":466,"bah":467,"Ġkaluar":468,"Ã©na":469,"ora":470,"aran":471,"mal":472,"Ġtut":473,"Ġsed":474,"ong":475,"angg":476,"asa":477,"ec":478,"Ġpri":479,"Ã©nsi":480,"ĠÃ©ks":481,"Ġbad":482,"Ġob":483,"Ġkawas":484,"tional":485,"entuk":486,"Ġar":487,"ical":488,"Ġsedeng":489,"Ġinterna":490,"keut":491,"Ġmag":492,"ia":493,"Ġy":494,"lak":495,"Ġsedengkeun":496,"sitas":497,"Ġdap":498,"Ġcent":499,"bit":500,"umna":501,"atet":502,"ĠbagÃ©an":503,"Ġdaptar":504,"Ġny":505,"Ġata":506,"Ġpanon":507,"Ġdeukeut":508,"Ġmagn":509,"Ġand":510,"Ġas":511,"Ġinternational":512,"Ġbadag":513,"Ġdip":514,"Ġrobah":515,"eg":516,"Ġobj":517,"poÃ©":518,"ĠrÃ©f":519,"Ġcuk":520,"Ġmut":521,"Ġngora":522,"beul":523,"Ġplanet":524,"Ġatawa":525,"Ġbeb":526,"itud":527,"rek":528,"Ġcukup":529,"Ġorbit":530,"Ġtutumbu":531,"ronom":532,"tisi":533,"Ġastronom":534,"Ġtaun":535,"ĠpanonpoÃ©":536,"Ġunion":537,"Ġcenter":538,"Ġsakumna":539,"Ã©rÃ©nsi":540,"ĠgedÃ©na":541,"ĠrÃ©fÃ©rÃ©nsi":542,"ĠplanÃ©t":543,"Ġkacatet":544,"ĠobjÃ©k":545,"Ġkabentuk":546,"Ġsal":547,"itudo":548,"Ġpro":549,"eroid":550,"Ġminor":551,"Ġnganj":552,"Ġis":553,"entukan":554,"Ã©ntri":555,"Ġasteroid":556,"atan":557,"Ġmutlak":558,"Ġnganjrek":559,"Ġastronomical":560,"dial":561,"Ġmagnitudo":562,"ĠÃ©ksÃ©ntri":563,"ĠÃ©ksÃ©ntrisitas":564,"beulahan":565,"Ġprimor":566,"Ġprimordial":567,"Ġbebentukan":568,"ĠrÃ©fÃ©rÃ©nsina":569,"ĠplanÃ©tisi":570,"Ġbeubeulahan":571,"ĠplanÃ©tisimal":572,"Ġmutlakna":573,"ub":574,"Ġmpo":575,"Ġpang":576,"Ġog":577,"od":578,"Ġto":579,"Ġaya":580,"ib":581,"ĠogÃ©":582,"Ġind":583,"sia":584,"Ġkar":585,"sa":586,"ra":587,"Ġst":588,"ian":589,"Ġbis":590,"aya":591,"angan":592,"Ġsab":593,"eus":594,"Ġman":595,"angk":596,"ist":597,"ig":598,"ch":599,"ma":600,"ob":601,"eur":602,"tik":603,"Ġbisa":604,"os":605,"Ġpr":606,"da":607,"Ġleu":608,"amb":609,"Ġe":610,"Ġpam":611,"ant":612,"oh":613,"Ġam":614,"le":615,"Ã©l":616,"op":617,"ua":618,"Ġdis":619,"Ġjal":620,"ali":621,"ika":622,"Ġsa":623,"ew":624,"emb":625,"akÃ©":626,"Ã©t":627,"ug":628,"ota":629,"arah":630,"Ġch":631,"ip":632,"amp":633,"una":634,"ai":635,"Ã©m":636,"aan":637,"Ġbasa":638,"ation":639,"Ġkana":640,"ina":641,"urang":642,"uan":643,"Ã©s":644,"Ġindon":645,"ver":646,"iti":647,"sion":648,"ebut":649,"end":650,"ĠÃ©ta":651,"Ġleuw":652,"Ġpar":653,"anc":654,"Ġpo":655,"Ġcon":656,"Ġkap":657,"Ġfor":658,"Ġsp":659,"uy":660,"Ġgeus":661,"ata":662,"Ġsta":663,"Ġtr":664,"lah":665,"emp":666,"Ġla":667,"awa":668,"Ġkas":669,"oga":670,"Ġak":671,"Ġpas":672,"engk":673,"Ġnep":674,"Ġsabab":675,"Ġnag":676,"Ġleuwih":677,"angun":678,"Ġsap":679,"Ġat":680,"ati":681,"anda":682,"Ġab":683,"ungan":684,"Ġbi":685,"akar":686,"ly":687,"Ġkul":688,"Ġbar":689,"ust":690,"tion":691,"Ġon":692,"isi":693,"Ġu":694,"re":695,"Ġac":696,"Ġbe":697,"Ġmib":698,"ve":699,"Ġngal":700,"ĠsÃ©":701,"Ġnepi":702,"Ġcom":703,"Ġaw":704,"Ġsun":705,"Ġhar":706,"th":707,"Ġsh":708,"ine":709,"uran":710,"Ã©sia":711,"api":712,"Ġso":713,"Ġdit":714,"Ġkota":715,"Ġkat":716,"Ġkon":717,"Ġter":718,"man":719,"ahiji":720,"Ġstasion":721,"Ġus":722,"ĠindonÃ©sia":723,"akeun":724,"Ã©hna":725,"Ġdib":726,"Ġmas":727,"awan":728,"to":729,"Ġkeur":730,"euna":731,"Ġband":732,"Ġkom":733,"Ġsat":734,"akarta":735,"aku":736,"Ã©ng":737,"usi":738,"Ġma":739,"Ġngaran":740,"ala":741,"ungg":742,"mp":743,"Ġke":744,"Ġkad":745,"Ġde":746,"imiti":747,"enc":748,"Ġad":749,"Ġsaj":750,"Ġum":751,"ĠÃ©":752,"Ã©ri":753,"aman":754,"Ġtur":755,"uc":756,"ngg":757,"tu":758,"Ġngag":759,"ris":760,"ĠdipakÃ©":761,"Ġre":762,"Ġtapi":763,"Ġnagara":764,"olog":765,"Ġda":766,"iw":767,"Ġngab":768,"mi":769,"Ġsam":770,"Ġag":771,"akan":772,"asil":773,"Ġsunda":774,"Ġurang":775,"Ġay":776,"ect":777,"eri":778,"Ġit":779,"Ġwh":780,"Ġant":781,"euh":782,"ama":783,"rop":784,"qu":785,"Ġbal":786,"ans":787,"Ġdisebut":788,"ers":789,"Ġrupa":790,"ow":791,"Ġmal":792,"Ġz":793,"Ġdig":794,"Ġtul":795,"any":796,"ess":797,"Ġngar":798,"Ġdua":799,"oc":800,"usan":801,"araha":802,"li":803,"ith":804,"Ã©si":805,"Ġse":806,"oba":807,"Ġop":808,"for":809,"tur":810,"uhan":811,"Ġsur":812,"ira":813,"und":814,"sional":815,"Ġwar":816,"ting":817,"Ġbul":818,"Ġjakarta":819,"ayan":820,"Ġhal":821,"Ġsalah":822,"est":823,"rom":824,"ind":825,"iri":826,"dia":827,"ast":828,"ero":829,"Ġwal":830,"ga":831,"Ġdun":832,"ard":833,"ĠkarÃ©ta":834,"uhur":835,"onom":836,"Ġpul":837,"Ġpal":838,"Ġres":839,"ĠdÃ©":840,"jÃ©n":841,"Ġsababaraha":842,"Ġbak":843,"vi":844,"Ġex":845,"Ġmimiti":846,"Ġbab":847,"Ġco":848,"Ġwew":849,"lu":850,"Ġjur":851,"engkon":852,"ĠmanÃ©hna":853,"Ġber":854,"Ġmo":855,"Ġtemp":856,"Ġtan":857,"uw":858,"Ġfil":859,"Ġwewengkon":860,"Ġkel":861,"Ġjawa":862,"ĠamÃ©ri":863,"ĠamÃ©rika":864,"Ġdan":865,"ump":866,"esi":867,"Ġby":868,"ĠmakÃ©":869,"ĠyÃ©n":870,"Ġuni":871,"arkeun":872,"kan":873,"Ġpol":874,"Ġkam":875,"Ġkid":876,"Ġloba":877,"Ġsahiji":878,"Ġanj":879,"me":880,"isan":881,"ich":882,"Ġel":883,"ond":884,"Ġingg":885,"Ġuta":886,"asar":887,"arita":888,"Ġsac":889,"Ġinggris":890,"Ġngaw":891,"Ġbandung":892,"Ġpen":893,"Ġbat":894,"irup":895,"itu":896,"uku":897,"ĠpoÃ©":898,"Ġsen":899,"eum":900,"ila":901,"Ġboga":902,"int":903,"Ġwak":904,"ĠsÃ©jÃ©n":905,"Ġkidul":906,"ram":907,"Ġno":908,"aga":909,"Ġdeui":910,"pin":911,"Ġnal":912,"apan":913,"Ġjep":914,"Ã©mb":915,"Ġwil":916,"Ġpl":917,"ity":918,"alna":919,"jang":920,"eunna":921,"Ġjalma":922,"Ġmil":923,"Ġser":924,"Ġbu":925,"Ġare":926,"Ġsacara":927,"Ġjp":928,"Ġtempat":929,"if":930,"Ġngad":931,"Ġmiboga":932,"igh":933,"Ġhent":934,"Ġcai":935,"ort":936,"Ġperang":937,"Ġwith":938,"Ġjepang":939,"Ġeu":940,"Ġthat":941,"Ã©a":942,"erti":943,"Ġhenteu":944,"ĠmÃ©":945,"angs":946,"Ġapi":947,"asan":948,"ere":949,"Ġim":950,"Ġsaw":951,"Ġbr":952,"Ġkalawan":953,"Ġlam":954,"Ġmat":955,"arak":956,"Ġah":957,"aris":958,"Ġngah":959,"eunang":960,"Ġluhur":961,"Ġsy":962,"Ġgun":963,"Ġbud":964,"Ġmod":965,"aja":966,"wan":967,"tor":968,"Ġdik":969,"Ġkira":970,"ologi":971,"asana":972,"ola":973,"Ġpat":974,"Ġkulon":975,"Ġsangg":976,"tip":977,"ates":978,"Ġwangun":979,"Ġjpg":980,"ff":981,"unt":982,"Ġantara":983,"se":984,"jan":985,"Ġgen":986,"asup":987,"Ġgamb":988,"Ġngan":989,"Ġnyi":990,"Ġdim":991,"Ġtumbu":992,"Ġnalika":993,"Ġph":994,"Ġngaj":995,"Ġgr":996,"ja":997,"ukeun":998,"tic":999,"ĠÙ":1000,"Ġuk":1001,"Ġmibanda":1002,"Ġair":1003,"ungsi":1004,"ell":1005,"Ġteng":1006,"ena":1007,"Ġsalaku":1008,"ĠbÃ©":1009,"gan":1010,"onomi":1011,"upat":1012,"ungk":1013,"ita":1014,"Ġmusi":1015,"Ø§":1016,"aka":1017,"Ġha":1018,"Ġangg":1019,"lam":1020,"Ġq":1021,"Ġsum":1022,"Ġsem":1023,"ubl":1024,"Ġdic":1025,"Ġkor":1026,"Ġkara":1027,"Ġuniver":1028,"form":1029,"Ġlamun":1030,"Ġbakal":1031,"Ġjalur":1032,"eup":1033,"Ġdunya":1034,"Ġsanggeus":1035,"pa":1036,"Ġtuluy":1037,"gi":1038,"ĠÃ©l":1039,"Ġluar":1040,"Ġtrans":1041,"Ġbah":1042,"jadi":1043,"der":1044,"Ġcara":1045,"Ġtangg":1046,"kat":1047,"Ġgunung":1048,"Ġjurusan":1049,"Ġkabupat":1050,"Ġbo":1051,"ish":1052,"ÙĦ":1053,"Ġtel":1054,"land":1055,"Ġfr":1056,"Ġkecap":1057,"unan":1058,"ida":1059,"Åį":1060,"Ġsajarah":1061,"Ġsaperti":1062,"rik":1063,"Ġkh":1064,"ge":1065,"arÃ©nt":1066,"empo":1067,"Ġharti":1068,"unc":1069,"Ġkud":1070,"Ġanjeunna":1071,"Ġwaktu":1072,"Ġsi":1073,"Ġkol":1074,"unakeun":1075,"Ġsub":1076,"sit":1077,"Ġge":1078,"Ġlian":1079,"Ġbahan":1080,"Ġpag":1081,"Ġjalan":1082,"aha":1083,"Ġmangsa":1084,"Ġmeunang":1085,"Ġkaasup":1086,"Ġaf":1087,"ral":1088,"Ġfrom":1089,"Ġib":1090,"eh":1091,"Ġtim":1092,"Ġbagian":1093,"ĠpamarÃ©nt":1094,"Ġhirup":1095,"Ġpak":1096,"ki":1097,"jaan":1098,"Ġcomp":1099,"Ġngeuna":1100,"Ġmen":1101,"Ġdiji":1102,"Ġsin":1103,"Ġkalayan":1104,"Ġline":1105,"Ġmasi":1106,"Ġsist":1107,"usna":1108,"rat":1109,"Ġpa":1110,"usa":1111,"Ġsok":1112,"Ġlal":1113,"Ġbiasana":1114,"Ġkah":1115,"arang":1116,"ci":1117,"esia":1118,"Ġsel":1119,"ãĥ":1120,"Ġlaut":1121,"ern":1122,"ĠÃ©konomi":1123,"Ġlo":1124,"Ġmer":1125,"Ġkiw":1126,"engan":1127,"Ġpany":1128,"Ġra":1129,"Ġnew":1130,"alan":1131,"ĠkabupatÃ©n":1132,"fi":1133,"ha":1134,"Ġany":1135,"Ã©tan":1136,"angsung":1137,"Ġpara":1138,"Ġngeunaan":1139,"Ġkiwari":1140,"la":1141,"tis":1142,"jo":1143,"ayaan":1144,"Ġpulo":1145,"Ġmak":1146,"Ġislam":1147,"Ġcan":1148,"Ġmana":1149,"Ġkak":1150,"Ġleutik":1151,"andap":1152,"Ġpur":1153,"ts":1154,"Ġnyieun":1155,"sis":1156,"Ġdr":1157,"Ġantar":1158,"Ġindonesia":1159,"ey":1160,"Ġcar":1161,"Ġsol":1162,"Ġtangk":1163,"Ġsu":1164,"awar":1165,"Ġii":1166,"Ġalatan":1167,"Ã©rÃ©":1168,"umi":1169,"Ġlan":1170,"Ġli":1171,"hi":1172,"anggih":1173,"Ġkarajaan":1174,"embang":1175,"ĠkalÃ©r":1176,"Ġbang":1177,"Ġist":1178,"Ã©rah":1179,"Ġwor":1180,"ric":1181,"Ġdist":1182,"unggal":1183,"rak":1184,"Ġtengah":1185,"ry":1186,"Ġradi":1187,"Ġdiw":1188,"omb":1189,"Ġhasil":1190,"Ġmed":1191,"arna":1192,"Ġtanggal":1193,"ulis":1194,"utan":1195,"Ġpad":1196,"Ġtilu":1197,"ima":1198,"Ġdijieun":1199,"oan":1200,"Ġbulan":1201,"tif":1202,"arakat":1203,"Ġdum":1204,"ĠdaÃ©rah":1205,"ce":1206,"Ġsareng":1207,"Ġgambar":1208,"Ġprod":1209,"ikasi":1210,"Ġorgan":1211,"Ġsag":1212,"fer":1213,"Ġsm":1214,"Ġpus":1215,"Ġhas":1216,"age":1217,"Ġpanjang":1218,"son":1219,"taran":1220,"ev":1221,"agi":1222,"Ġconto":1223,"Ġsarua":1224,"ton":1225,"Ġger":1226,"Ġmaran":1227,"Ġwa":1228,"Ġnor":1229,"atkeun":1230,"Ġsw":1231,"Ġgo":1232,"Ġmungg":1233,"all":1234,"imp":1235,"Ġdir":1236,"min":1237,"Ġyang":1238,"Ġca":1239,"ayang":1240,"Ġutama":1241,"Ġsing":1242,"ach":1243,"Ġmun":1244,"idang":1245,"angkan":1246,"ary":1247,"Ġhid":1248,"Ġting":1249,"aring":1250,"Ġkomp":1251,"tan":1252,"ory":1253,"Ġdil":1254,"Ġcir":1255,"Ġabad":1256,"yan":1257,"bi":1258,"Ġthis":1259,"inan":1260,"Ġstat":1261,"itan":1262,"ĠwÃ©tan":1263,"Ġmunggaran":1264,"Ġmus":1265,"Ġpama":1266,"Ġen":1267,"aki":1268,"ran":1269,"Ġjero":1270,"uni":1271,"Ġawak":1272,"nya":1273,"Ġdo":1274,"Ġkudu":1275,"way":1276,"ukang":1277,"Ġvari":1278,"umber":1279,"ace":1280,"eta":1281,"Ġmaj":1282,"mu":1283,"Ġdaun":1284,"erasi":1285,"iz":1286,"Ġpop":1287,"Ġdih":1288,"Ġbas":1289,"mad":1290,"ril":1291,"Ġmanusa":1292,"Ġsaurang":1293,"Ġko":1294,"Ġdumasar":1295,"Ġwas":1296,"ĠdÃ©sa":1297,"alah":1298,"Ġanggota":1299,"Ġalam":1300,"Ġraja":1301,"ight":1302,"Ġngali":1303,"Ġmasarakat":1304,"anana":1305,"Ġsana":1306,"Ġmon":1307,"ĠgÃ©":1308,"dÃ©n":1309,"Ġul":1310,"umlah":1311,"ĠgedÃ©":1312,"Ġlin":1313,"Ġput":1314,"Ġpup":1315,"udi":1316,"ebon":1317,"lin":1318,"ual":1319,"ence":1320,"sÃ©s":1321,"Ġasalna":1322,"ãĤ":1323,"Ġkm":1324,"Ġumum":1325,"ore":1326,"ura":1327,"Ġcol":1328,"amatan":1329,"anti":1330,"ex":1331,"so":1332,"Ġgel":1333,"ij":1334,"Ġkitu":1335,"Ġhandap":1336,"Ġtempo":1337,"Ġcomm":1338,"Ġok":1339,"ode":1340,"Ġx":1341,"Ġlantaran":1342,"Ġasia":1343,"aks":1344,"pr":1345,"Ġup":1346,"iv":1347,"ack":1348,"Ġsanajan":1349,"Ġpisan":1350,"Ã©mber":1351,"ikan":1352,"ihan":1353,"Ġkan":1354,"eku":1355,"Ġalb":1356,"Ġed":1357,"ĠØ§":1358,"Ġmet":1359,"Ġnasional":1360,"Ġngaliw":1361,"iran":1362,"Ġlain":1363,"ancis":1364,"ensi":1365,"Ġkajadi":1366,"Ġkur":1367,"les":1368,"uta":1369,"ĠbÃ©da":1370,"uwuhan":1371,"Ġjan":1372,"Ġanyar":1373,"ãģ":1374,"ld":1375,"Ġsor":1376,"Ġkajadian":1377,"Ġker":1378,"Ġsik":1379,"Ġanak":1380,"Ġayana":1381,"Ġfo":1382,"Ġmay":1383,"Ġtok":1384,"ingan":1385,"ĠprÃ©si":1386,"Ġcl":1387,"asilkeun":1388,"Ġtukang":1389,"Ġayeuna":1390,"Ġsuk":1391,"ingk":1392,"Ġja":1393,"Ġtangkal":1394,"Ġhartina":1395,"Ġsil":1396,"Ġsig":1397,"Ġpap":1398,"agu":1399,"Ġnot":1400,"rib":1401,"Ġwhich":1402,"ment":1403,"Ġsangkan":1404,"Ġtuj":1405,"Ġstr":1406,"Ġdat":1407,"ome":1408,"han":1409,"Ġsah":1410,"ulan":1411,"ated":1412,"ations":1413,"ongan":1414,"eral":1415,"Ġsul":1416,"Ġbin":1417,"Ġkim":1418,"ĠsamÃ©m":1419,"Ġsit":1420,"tikan":1421,"Ġngagunakeun":1422,"Ġresmi":1423,"Ġlum":1424,"ember":1425,"Ġdiwangun":1426,"ov":1427,"uari":1428,"Ġdal":1429,"mb":1430,"mana":1431,"ni":1432,"Ġil":1433,"ĠsÃ©l":1434,"Ġint":1435,"Ġbeur":1436,"Ġmu":1437,"ublik":1438,"Ġsakab":1439,"Ġrep":1440,"ert":1441,"Ġpropin":1442,"Ġpropinsi":1443,"ous":1444,"Ġarab":1445,"Ġjam":1446,"Ġsc":1447,"Ġur":1448,"Ġcarita":1449,"imb":1450,"Ġkl":1451,"Ġsup":1452,"uli":1453,"era":1454,"Ġben":1455,"ure":1456,"Ġbuah":1457,"ca":1458,"Ġtar":1459,"wanoh":1460,"Ġbel":1461,"stra":1462,"Ġpil":1463,"ĠÃ©n":1464,"ĠkÃ©n":1465,"Ġgal":1466,"Ġangk":1467,"Ġfile":1468,"Ġmis":1469,"Ġsamp":1470,"har":1471,"Ġmusik":1472,"aharan":1473,"Ġprog":1474,"ĠrÃ©p":1475,"su":1476,"Ġtradi":1477,"Ġrel":1478,"Ã©w":1479,"Ġtutuwuhan":1480,"Ġwalanda":1481,"Ġsep":1482,"Ġkapanggih":1483,"Ġba":1484,"oto":1485,"uhu":1486,"str":1487,"Ġleg":1488,"Ġantarana":1489,"Ġdar":1490,"ĠpamaÃ©n":1491,"Ġmur":1492,"Ġkacamatan":1493,"Ġub":1494,"Ġjumlah":1495,"Ġindia":1496,"Ġtaneuh":1497,"Ġarg":1498,"ain":1499,"Ġsisi":1500,"ial":1501,"atif":1502,"ugh":1503,"Ġbabar":1504,"sir":1505,"uka":1506,"Ġmasih":1507,"Ġhus":1508,"isasi":1509,"Ġkahiji":1510,"Ġmad":1511,"ahkeun":1512,"Ġkadaharan":1513,"Ġseb":1514,"awÃ©":1515,"Ġkurang":1516,"Ġbod":1517,"Ġjen":1518,"vel":1519,"atu":1520,"Ã©ar":1521,"Ġdata":1522,"bab":1523,"rÃ©":1524,"Ġunggal":1525,"ona":1526,"Ġsk":1527,"ayah":1528,"Ġpend":1529,"Ġpeng":1530,"Ġasup":1531,"Ġgar":1532,"Ġwarna":1533,"Ġle":1534,"Ġvi":1535,"ium":1536,"andung":1537,"ĠsÃ©jÃ©nna":1538,"Ġuniversitas":1539,"uter":1540,"ingpin":1541,"Ġinc":1542,"yah":1543,"Ġmul":1544,"Ġsari":1545,"ĠÃ©kseku":1546,"Ġlianna":1547,"Ġdid":1548,"Ġgol":1549,"Ġinform":1550,"Ġkarya":1551,"Ġradio":1552,"erb":1553,"ance":1554,"Ġpx":1555,"etan":1556,"ĠprÃ©sidÃ©n":1557,"Ġilah":1558,"Ġgre":1559,"eureun":1560,"Ġki":1561,"Ġboh":1562,"Ġsakola":1563,"Ġlauk":1564,"Ġform":1565,"ahar":1566,"sik":1567,"Ġmel":1568,"Ġamp":1569,"ogra":1570,"Ġgu":1571,"Ġsalila":1572,"Ġngaliwatan":1573,"Ġbur":1574,"Ġsip":1575,"Ġhe":1576,"ĠÃ©ksekutip":1577,"Ġaust":1578,"Ġlat":1579,"Ġsek":1580,"Ġfi":1581,"Ġmuh":1582,"ase":1583,"Ġelect":1584,"ropa":1585,"tung":1586,"Ġid":1587,"ilah":1588,"Ġjaman":1589,"Ġut":1590,"Ġsan":1591,"sh":1592,"Ġtum":1593,"atna":1594,"te":1595,"ĠsakabÃ©h":1596,"Ġend":1597,"eula":1598,"sina":1599,"one":1600,"Ġpasar":1601,"Ġbarang":1602,"ide":1603,"Ġbangsa":1604,"Ġci":1605,"her":1606,"Ã©p":1607,"Ġbarat":1608,"Ġhad":1609,"Ġprogram":1610,"Ġngam":1611,"Ġsistem":1612,"angna":1613,"Ġpin":1614,"aca":1615,"Ġang":1616,"Ġlang":1617,"Ġkulawar":1618,"oro":1619,"til":1620,"Ġsang":1621,"ord":1622,"Ġlist":1623,"Ġrah":1624,"Ġkadua":1625,"Ġlagu":1626,"Ġseni":1627,"Ġta":1628,"ikawanoh":1629,"ther":1630,"Ġkelas":1631,"ingg":1632,"Ġme":1633,"Ġbasi":1634,"Ġlar":1635,"Ġdes":1636,"Ġtah":1637,"Ġcur":1638,"kah":1639,"okal":1640,"Ġutamana":1641,"Ġtak":1642,"Ġday":1643,"egkeun":1644,"Ġkons":1645,"Ġkaayaan":1646,"nis":1647,"ice":1648,"Ġpel":1649,"yo":1650,"Ġngandung":1651,"Ġperancis":1652,"ement":1653,"Ġstand":1654,"sti":1655,"Ġsus":1656,"Ġem":1657,"sing":1658,"Ġsorangan":1659,"Ġkungsi":1660,"Ġlap":1661,"Ġukuran":1662,"Ġkembang":1663,"stem":1664,"Ġfak":1665,"Ġsuku":1666,"Ġneg":1667,"Ġupa":1668,"Ġsas":1669,"Ġmi":1670,"tasi":1671,"Ġvol":1672,"imitian":1673,"onan":1674,"akit":1675,"Ġbeureum":1676,"euk":1677,"Ġunit":1678,"ĠmÃ©rÃ©":1679,"Ġone":1680,"ĠtÃ©":1681,"ill":1682,"apa":1683,"tions":1684,"obana":1685,"no":1686,"Ġkand":1687,"ten":1688,"Ġcm":1689,"sp":1690,"rika":1691,"Ġtamb":1692,"Ġsumber":1693,"atara":1694,"ĠprosÃ©s":1695,"Ġpasi":1696,"Ġrail":1697,"Ġnur":1698,"ĠspÃ©si":1699,"Ġamer":1700,"Ġkulit":1701,"Ġbuku":1702,"Ġkamp":1703,"yal":1704,"Ġcal":1705,"ite":1706,"ulasi":1707,"Ġpasukan":1708,"ĠpamarÃ©ntahan":1709,"Ġimah":1710,"able":1711,"anggap":1712,"ass":1713,"sity":1714,"Ġram":1715,"alia":1716,"Ġrec":1717,"ukna":1718,"ĠrÃ©publik":1719,"Ġallo":1720,"Ġworld":1721,"sin":1722,"Ġlog":1723,"Ġstatist":1724,"Ġdipikawanoh":1725,"anten":1726,"Ġubar":1727,"uman":1728,"Ġcina":1729,"ĠhÃ©":1730,"unj":1731,"uksi":1732,"Ġcont":1733,"our":1734,"utkeun":1735,"nik":1736,"Ġdiri":1737,"Ġbentuk":1738,"Ġru":1739,"Ġistilah":1740,"Ġwilayah":1741,"Ġsawatara":1742,"ĠpamarÃ©ntah":1743,"Ġmesi":1744,"engku":1745,"ork":1746,"Ġimp":1747,"Ġsater":1748,"Ġcirebon":1749,"usah":1750,"atur":1751,"Ġlem":1752,"ck":1753,"hy":1754,"sur":1755,"vid":1756,"Ġtari":1757,"Ġtat":1758,"Ġmol":1759,"Ġbut":1760,"Ġbog":1761,"pok":1762,"Ġfir":1763,"Ġall":1764,"ont":1765,"Ġopat":1766,"tÃ©":1767,"Ġpangg":1768,"Ġkulawarga":1769,"Ġtang":1770,"Ġwidang":1771,"ajar":1772,"Ġlumangsung":1773,"asaan":1774,"Ġahir":1775,"ahir":1776,"Ġapril":1777,"Ġmuham":1778,"ics":1779,"Ġapp":1780,"Ġsch":1781,"Ġdij":1782,"Ġkali":1783,"Ġbumi":1784,"Ġdag":1785,"Ġposi":1786,"enah":1787,"art":1788,"Ġdasar":1789,"Ġcor":1790,"Ġek":1791,"Ġbl":1792,"Ġharita":1793,"Ġkasebut":1794,"Ġrum":1795,"Ġbudaya":1796,"Ġalso":1797,"Ġngahasilkeun":1798,"Ġir":1799,"Ġfre":1800,"Ġsir":1801,"Ġfungsi":1802,"Ġsato":1803,"Ġafrika":1804,"ayu":1805,"Ġsaterusna":1806,"Ġsora":1807,"etw":1808,"Ġrefer":1809,"Ġbatu":1810,"Ġsastra":1811,"ju":1812,"Ġhave":1813,"awang":1814,"Ġinternasional":1815,"Ġbodas":1816,"Ġgur":1817,"ituna":1818,"yp":1819,"va":1820,"iter":1821,"Ġwates":1822,"Ġwangunan":1823,"Ġjenis":1824,"ini":1825,"res":1826,"Ã©d":1827,"Ã©st":1828,"Ġleung":1829,"nah":1830,"etep":1831,"Ġasal":1832,"fÃ©k":1833,"Ġprof":1834,"aksi":1835,"Ġbeulah":1836,"Ġasam":1837,"Ġeng":1838,"Ġleb":1839,"co":1840,"lim":1841,"Ġaz":1842,"Ġjoh":1843,"Ġnom":1844,"Ġkri":1845,"Ġdep":1846,"Ġreg":1847,"Ġumur":1848,"ÙĨ":1849,"Ã©kt":1850,"Ġwik":1851,"Ġpuseur":1852,"Ġpaj":1853,"Ġment":1854,"Ġlol":1855,"ital":1856,"eutik":1857,"uth":1858,"kasi":1859,"tih":1860,"Äģ":1861,"ĠÃ©lmu":1862,"ator":1863,"wo":1864,"Ġqu":1865,"Ġmind":1866,"Ġused":1867,"Ġud":1868,"Ġtek":1869,"Ġpand":1870,"Ġjapan":1871,"Ġhur":1872,"Ġpenting":1873,"angkeun":1874,"usahaan":1875,"ĠrÃ©k":1876,"ft":1877,"Ġhi":1878,"Ġother":1879,"Ġtip":1880,"Ġkag":1881,"Ġtujuan":1882,"ungtung":1883,"Ġsurat":1884,"Ġmik":1885,"Ġsystem":1886,"eran":1887,"ue":1888,"erna":1889,"nana":1890,"mat":1891,"Ġlangsung":1892,"Ġhist":1893,"Ġkapul":1894,"Ġrailway":1895,"Ġkimia":1896,"ef":1897,"Ġsome":1898,"Ġbaris":1899,"wal":1900,"Ġdilak":1901,"uluy":1902,"Ġsajab":1903,"Ġcontona":1904,"ĠkÃ©nÃ©h":1905,"Ġtime":1906,"iwat":1907,"Ġhuk":1908,"Ġali":1909,"Ġits":1910,"Ġhon":1911,"eud":1912,"Ġfl":1913,"antung":1914,"itik":1915,"Ġsitus":1916,"inc":1917,"ografi":1918,"row":1919,"tob":1920,"abaya":1921,"Ġdunia":1922,"ĠspÃ©siÃ©s":1923,"cal":1924,"Ġkari":1925,"Ġsate":1926,"Ġev":1927,"rasi":1928,"Ġwalungan":1929,"Ġpemb":1930,"aluk":1931,"bn":1932,"ech":1933,"ĠkorÃ©a":1934,"ĠawÃ©w":1935,"Ġkun":1936,"Ġot":1937,"de":1938,"Ġmot":1939,"Ġdianggap":1940,"sial":1941,"Ġkapuloan":1942,"ser":1943,"own":1944,"Ġsurabaya":1945,"Ġnas":1946,"ank":1947,"tober":1948,"yak":1949,"Ġdur":1950,"Ġmuhammad":1951,"ĠÃ©ropa":1952,"ba":1953,"alkeun":1954,"rol":1955,"Ġver":1956,"Ġkatut":1957,"nam":1958,"Ġinst":1959,"Ġfisi":1960,"ĠØ§ÙĦ":1961,"Ġik":1962,"ayanan":1963,"Ġngawengku":1964,"Ġfilm":1965,"Ġkituna":1966,"rok":1967,"Ġsaprak":1968,"Ġpurw":1969,"itar":1970,"Ġalbum":1971,"isme":1972,"acan":1973,"Ġagama":1974,"Ġdem":1975,"ongk":1976,"Ġri":1977,"eld":1978,"Ġaks":1979,"ne":1980,"Ġisbn":1981,"out":1982,"por":1983,"uit":1984,"oul":1985,"tak":1986,"Ġunsur":1987,"ular":1988,"ĠawÃ©wÃ©":1989,"een":1990,"Ġval":1991,"istan":1992,"Ġciri":1993,"awi":1994,"Ã©nd":1995,"tikel":1996,"Ġngaranna":1997,"ros":1998,"Ġwat":1999,"Ġmand":2000,"Ġjuni":2001,"Ġpangl":2002,"ongkeun":2003,"Ġbogor":2004,"bo":2005,"Ã©g":2006,"Ġwe":2007,"ĠsamÃ©mÃ©h":2008,"Ġnam":2009,"Ġmek":2010,"Ġnel":2011,"Ġsad":2012,"Ġpt":2013,"Ġpu":2014,"Ġyog":2015,"alung":2016,"Ġkai":2017,"Ġhub":2018,"Ġabd":2019,"ĠmodÃ©l":2020,"Ġpers":2021,"Ġbudak":2022,"Ġcamp":2023,"ĠØ":2024,"Ġrata":2025,"landia":2026,"Ġsarikat":2027,"alukarkeun":2028,"Ġkut":2029,"Ġga":2030,"Ġgrup":2031,"angt":2032,"Ġindust":2033,"Ġtd":2034,"Ġaustral":2035,"Ġbasisir":2036,"Ġkant":2037,"Ġbung":2038,"Ġsec":2039,"Ġcik":2040,"Ġacc":2041,"Ġya":2042,"tain":2043,"Ġjel":2044,"Ġpanas":2045,"Ġdom":2046,"Ġgam":2047,"fin":2048,"Ġcap":2049,"Ġpot":2050,"ungna":2051,"ĠmaranÃ©hna":2052,"wer":2053,"Ġliwat":2054,"emen":2055,"Ġuniversity":2056,"ayakeun":2057,"Ġsistim":2058,"Ã©ter":2059,"Ġlamb":2060,"Ã©rman":2061,"Ġnyebut":2062,"jong":2063,"Ġmeng":2064,"eter":2065,"Ġngawangun":2066,"Ġgum":2067,"ility":2068,"Ġtungtung":2069,"ahna":2070,"Ġexp":2071,"Ġhukum":2072,"askeun":2073,"nologi":2074,"Ġtaman":2075,"ile":2076,"Ġkolot":2077,"Ġpe":2078,"ĠtÃ©k":2079,"enti":2080,"ayat":2081,"Ġbiasa":2082,"Ġhy":2083,"Ġraya":2084,"Ġspec":2085,"Ġkahirup":2086,"ĠjÃ©rman":2087,"unikasi":2088,"Ġthumb":2089,"Ġec":2090,"Ġtop":2091,"ondok":2092,"Ġhusus":2093,"erg":2094,"ban":2095,"sist":2096,"Ġteg":2097,"Ġngabalukarkeun":2098,"Ġport":2099,"Ġkont":2100,"Ġagust":2101,"Ġgetih":2102,"ĠwaÃ©":2103,"Ġkr":2104,"ikeun":2105,"ĠmaranÃ©h":2106,"Ġtab":2107,"Ġnum":2108,"Ġalloh":2109,"Ġpate":2110,"Ġoff":2111,"ies":2112,"Ġalat":2113,"Ġsri":2114,"ents":2115,"Ġawal":2116,"Ġmangg":2117,"ĠÙ±":2118,"Ġset":2119,"Ġusum":2120,"sta":2121,"Ġterus":2122,"tim":2123,"aria":2124,"tive":2125,"Ġnil":2126,"ema":2127,"ĠmaÃ©n":2128,"Ġkahirupan":2129,"Ġukur":2130,"rod":2131,"Ġdita":2132,"Ġgl":2133,"Ġtingkat":2134,"Ġkep":2135,"Ġkayan":2136,"ungkeun":2137,"Ġhigh":2138,"minist":2139,"Ġnon":2140,"rip":2141,"Ġmanuk":2142,"uwuh":2143,"Ġahli":2144,"Ġji":2145,"Ġperenah":2146,"ĠmodÃ©r":2147,"san":2148,"ho":2149,"port":2150,"Ġund":2151,"ohor":2152,"Ġhideung":2153,"ili":2154,"Ġargo":2155,"Ġoperasi":2156,"Ġdiper":2157,"Ġjer":2158,"Ġlahir":2159,"Ġpanyakit":2160,"Ġkayaning":2161,"mÃ©n":2162,"Ġditulis":2163,"Ġlalaki":2164,"ampang":2165,"ano":2166,"ons":2167,"yakarta":2168,"Ġlaw":2169,"Ġagustus":2170,"anjang":2171,"mar":2172,"Ġtal":2173,"anyol":2174,"Ġsinyal":2175,"Ġlolobana":2176,"Ġmangka":2177,"Ġprobab":2178,"Ġngur":2179,"Ġjuli":2180,"Ġsabada":2181,"Ġmindeng":2182,"Ġdec":2183,"Ġyogyakarta":2184,"Ġhak":2185,"Ġgag":2186,"agian":2187,"Ġsalian":2188,"Ġdimimitian":2189,"Ġjanuari":2190,"Ġjohn":2191,"Ġlokal":2192,"Ġpem":2193,"Ġsagala":2194,"entara":2195,"Ġaktor":2196,"Ġumumna":2197,"Ġbeung":2198,"sian":2199,"ei":2200,"Ġtin":2201,"Ġcc":2202,"Ġweb":2203,"Ġdigunakeun":2204,"Ġdengan":2205,"rog":2206,"Ġadminist":2207,"abu":2208,"ea":2209,"ks":2210,"Ġsuch":2211,"Ġroh":2212,"cara":2213,"sig":2214,"ese":2215,"Ġsim":2216,"Ġkapal":2217,"bu":2218,"Ġdatang":2219,"Ġni":2220,"Ġkarb":2221,"okot":2222,"Ġfa":2223,"Ġtep":2224,"Ġnik":2225,"Ġlingk":2226,"lob":2227,"Ġindustri":2228,"Ġperenahna":2229,"Ġing":2230,"ution":2231,"oran":2232,"Ġanal":2233,"Ġkampung":2234,"Ġfirst":2235,"Ġip":2236,"ukur":2237,"uktur":2238,"Ġhay":2239,"ohong":2240,"Ġmaret":2241,"Ġpeu":2242,"ombang":2243,"aringan":2244,"Ġcatet":2245,"olah":2246,"Ġinf":2247,"Ġspanyol":2248,"Ġantukna":2249,"Ã¡":2250,"ann":2251,"Ġmore":2252,"iga":2253,"Ġseri":2254,"Ġdiad":2255,"ens":2256,"Ġwaw":2257,"urkeun":2258,"Ġhubungan":2259,"ster":2260,"ancang":2261,"Ġdari":2262,"Ġos":2263,"Ġinohong":2264,"ipta":2265,"ick":2266,"Ġkalim":2267,"Ġoktober":2268,"rap":2269,"Ġaustralia":2270,"Ġlib":2271,"Ġht":2272,"ebar":2273,"Ġlima":2274,"anyi":2275,"Ġdayeuh":2276,"akas":2277,"ria":2278,"ĠÃ©lÃ©kt":2279,"Ġbari":2280,"ilu":2281,"Ġyo":2282,"Ġtrop":2283,"Ġmem":2284,"Ġpress":2285,"uda":2286,"Ġperd":2287,"ology":2288,"ĠÙ±ÙĦ":2289,"Ġcah":2290,"arima":2291,"Ġover":2292,"Ġbot":2293,"Ġfunc":2294,"Ġendog":2295,"Ġfakul":2296,"za":2297,"Ġå":2298,"Ġkn":2299,"Ġcatetan":2300,"Ġsumat":2301,"Ġaksara":2302,"Ġtot":2303,"Ġhat":2304,"Ġfm":2305,"vol":2306,"erang":2307,"aho":2308,"Ġmalay":2309,"Ġtumuwuh":2310,"Ġlila":2311,"ica":2312,"Ġmac":2313,"Ã©ran":2314,"ĠrÃ©a":2315,"Ġleuweung":2316,"Ġbaheula":2317,"inget":2318,"Ġrob":2319,"Ġass":2320,"ade":2321,"engkep":2322,"ency":2323,"Ġmob":2324,"Ġrak":2325,"ring":2326,"ism":2327,"Ġpondok":2328,"Å«":2329,"Ġdigital":2330,"Ġchar":2331,"uf":2332,"Ġet":2333,"Ġlangu":2334,"ani":2335,"Ġpakakas":2336,"Ġpoh":2337,"Ġblo":2338,"Ġacara":2339,"Ġhonda":2340,"Ġju":2341,"Ġtradisional":2342,"Ġer":2343,"Ġatikan":2344,"Ġsaeutik":2345,"Ġwill":2346,"ĠmaranÃ©hanana":2347,"Ġdipik":2348,"ĠhÃ©jo":2349,"ae":2350,"erah":2351,"Ġwis":2352,"ĠdÃ©s":2353,"ĠmÃ©ter":2354,"Ġpatali":2355,"Ġmark":2356,"wang":2357,"Ġped":2358,"Ġhow":2359,"Ġout":2360,"ute":2361,"Ġminyak":2362,"ted":2363,"Ġbec":2364,"tr":2365,"Ġlaj":2366,"Ġho":2367,"uri":2368,"Ġtambahan":2369,"Ġpep":2370,"Ġgub":2371,"Ġlistrik":2372,"engg":2373,"Ġyunan":2374,"Ġkum":2375,"Ġnabi":2376,"Ġlamp":2377,"Ġoc":2378,"Ġorganisasi":2379,"war":2380,"ebr":2381,"Ġsay":2382,"tp":2383,"ĠbÃ©nt":2384,"ors":2385,"Ġlemb":2386,"Ġstudi":2387,"Ġkasohor":2388,"Ġtheir":2389,"Ġkacida":2390,"Ġatom":2391,"Ġsouth":2392,"Ġilahar":2393,"Ġyunani":2394,"Ġcall":2395,"Ġtwo":2396,"Ġbir":2397,"urna":2398,"udul":2399,"erto":2400,"Ġroman":2401,"Ġindi":2402,"Ġkatelah":2403,"anding":2404,"Ġtimur":2405,"Ġhurup":2406,"wi":2407,"Ġpangb":2408,"Ġpamak":2409,"Ġpubl":2410,"Ġol":2411,"Ġvir":2412,"Ġked":2413,"yat":2414,"Ġpanalung":2415,"Ġdibagi":2416,"lines":2417,"ambarkeun":2418,"Ġdistrib":2419,"anan":2420,"Ġdiff":2421,"Ġibu":2422,"Ġbabarengan":2423,"Ġstruktur":2424,"Ġelectric":2425,"ins":2426,"Ġbri":2427,"Ġbalik":2428,"lat":2429,"Ġne":2430,"Ġpangaw":2431,"minal":2432,"Ġkakaw":2433,"Ġnaskah":2434,"ll":2435,"Ġtv":2436,"Ġsosial":2437,"Ġmh":2438,"Ġartis":2439,"Ġaj":2440,"Ġmost":2441,"yana":2442,"Ġmasing":2443,"Ġsipat":2444,"Ġding":2445,"Ġinformasi":2446,"Ġvan":2447,"Ġtingali":2448,"weuh":2449,"Ġbeurat":2450,"ture":2451,"Ġplus":2452,"Ġnulis":2453,"Ġrar":2454,"Ġhis":2455,"Ġrasa":2456,"Ġret":2457,"Ġpari":2458,"upan":2459,"ards":2460,"ompok":2461,"Ġkeb":2462,"Ġjaringan":2463,"Ġhib":2464,"Ġwest":2465,"eph":2466,"omo":2467,"uarkeun":2468,"Ġsemarang":2469,"Ġjuta":2470,"chi":2471,"Ġsolo":2472,"Ġdistrik":2473,"Ġwad":2474,"etween":2475,"au":2476,"lud":2477,"Ġbetween":2478,"Ã©nder":2479,"Ġmuslim":2480,"Ġden":2481,"Ġhareup":2482,"Ġnelasan":2483,"Ġsud":2484,"Ġpada":2485,"andi":2486,"line":2487,"Ġwere":2488,"Ġalk":2489,"Ġitalia":2490,"Ġmangpa":2491,"Ġprabu":2492,"Ġamb":2493,"ble":2494,"Ġngalak":2495,"ĠÙĪ":2496,"Ġudara":2497,"Ġcount":2498,"Ġupacara":2499,"Ġairlines":2500,"Ġfac":2501,"Ġpausahaan":2502,"ami":2503,"uyu":2504,"Ġdaging":2505,"ven":2506,"ash":2507,"jian":2508,"Ã©br":2509,"Ġphil":2510,"Ã©o":2511,"Ġmalaysia":2512,"Ġbuk":2513,"Ã©ra":2514,"Ġrusia":2515,"Ġpatemp":2516,"Ġpilem":2517,"Ġjin":2518,"Ġstar":2519,"Ġrad":2520,"Ġgaya":2521,"Ġemp":2522,"Ġkec":2523,"Ġsovi":2524,"ino":2525,"aranan":2526,"Ġkarak":2527,"mon":2528,"Ġoper":2529,"Ġlu":2530,"engna":2531,"Ġmangrup":2532,"anjung":2533,"Ġproduc":2534,"Ġpupus":2535,"Ġtetep":2536,"Ġif":2537,"Ġtitik":2538,"Ġampir":2539,"angtukeun":2540,"val":2541,"Ġanti":2542,"Ġgro":2543,"Ġtingg":2544,"angkat":2545,"Ġmor":2546,"araan":2547,"asik":2548,"Ġbahasa":2549,"angga":2550,"ĠpÃ©r":2551,"Ġhan":2552,"Ġjauh":2553,"Ġngadegkeun":2554,"Ã¶":2555,"Ġhol":2556,"Ġarah":2557,"Ġayat":2558,"Ġpab":2559,"Ġpind":2560,"ger":2561,"ĠpÃ©":2562,"ling":2563,"Ġtra":2564,"ves":2565,"Ġreferensi":2566,"ph":2567,"ler":2568,"Ùħ":2569,"ĠkabÃ©h":2570,"Ġbisnis":2571,"Ġkagi":2572,"Ġtokyo":2573,"Ġhistory":2574,"den":2575,"ty":2576,"Ġsimp":2577,"ire":2578,"Ġeuweuh":2579,"aruh":2580,"Ġterminal":2581,"Ġkagiatan":2582,"Ġparah":2583,"Ġlingkungan":2584,"Ġbola":2585,"Ġdin":2586,"ĠlÃ©":2587,"asis":2588,"unjuk":2589,"Ġmesin":2590,"Ġdok":2591,"Ġjangk":2592,"Ġbub":2593,"Ġred":2594,"Ġperi":2595,"Ġselatan":2596,"Ġsiki":2597,"Ġpaling":2598,"jid":2599,"emÃ©n":2600,"Ġkaj":2601,"Ġinto":2602,"impi":2603,"ĠdÃ©sÃ©mber":2604,"lar":2605,"orÃ©ng":2606,"awat":2607,"Ġngalawan":2608,"Ġinclud":2609,"Ã©dia":2610,"Ġning":2611,"idikan":2612,"Ġprasa":2613,"Ġsci":2614,"Ġimage":2615,"Ġjang":2616,"Ġkelir":2617,"Ġkomputer":2618,"Ġadi":2619,"Ġmasalah":2620,"Ġleungeun":2621,"ĠmodÃ©rn":2622,"Ã©hkeun":2623,"ican":2624,"Ġperk":2625,"ĠsamÃ©mÃ©hna":2626,"tos":2627,"Ø±":2628,"uskeun":2629,"ĠkonÃ©ng":2630,"Ġtyp":2631,"Ġdijadi":2632,"els":2633,"Ġlab":2634,"Ġmaot":2635,"ock":2636,"uluyna":2637,"Ġbatan":2638,"Ġusaha":2639,"Ġngaro":2640,"Ġpopulasi":2641,"ean":2642,"Ġori":2643,"Ġequ":2644,"Ġalus":2645,"Ġgenus":2646,"Ġtri":2647,"Ġjanten":2648,"Ġawi":2649,"Ġnormal":2650,"Ġnar":2651,"Ġland":2652,"Ġbareng":2653,"Ġsatuluyna":2654,"Ġposisi":2655,"oko":2656,"Ġartikel":2657,"Ġnorth":2658,"Ġilaharna":2659,"Ġdijadikeun":2660,"Ġgula":2661,"low":2662,"Ġparob":2663,"Ġpower":2664,"Ġzat":2665,"Ġbap":2666,"angpa":2667,"onia":2668,"Ġgampang":2669,"Ġthan":2670,"Ġthey":2671,"ie":2672,"ise":2673,"uary":2674,"Ġabdul":2675,"umpulan":2676,"erta":2677,"Ġkem":2678,"Ġdahar":2679,"edia":2680,"Ġwikip":2681,"Ġpanalungtikan":2682,"Ġdiffer":2683,"Ġprasasti":2684,"pt":2685,"arik":2686,"Ġkuat":2687,"Ġpos":2688,"Ġmimitina":2689,"Ġgelombang":2690,"Ġhttp":2691,"anna":2692,"Ġket":2693,"Ġpusat":2694,"Ġuse":2695,"Ġjaw":2696,"Ġsataun":2697,"Ġsamud":2698,"Ġnop":2699,"Ġyork":2700,"Ġthere":2701,"ilih":2702,"Ġmam":2703,"Ġjaya":2704,"Ġmeunangkeun":2705,"Ġsajabana":2706,"sb":2707,"ĠmÃ©t":2708,"Ġcab":2709,"Ġhor":2710,"Ġloka":2711,"Ġparobahan":2712,"ath":2713,"Ġdisi":2714,"Ġserv":2715,"red":2716,"yu":2717,"Ã©ku":2718,"Ġlim":2719,"Ġgas":2720,"ush":2721,"usun":2722,"Ġrunt":2723,"Ġgancang":2724,"Ġbro":2725,"Ġfin":2726,"Ġnaon":2727,"Ġpangged":2728,"Ġtam":2729,"ection":2730,"Ġpendidikan":2731,"Ġgolongan":2732,"Ġpopul":2733,"ĠsoviÃ©t":2734,"Ġes":2735,"Ġsabud":2736,"Ġcoll":2737,"Ġtangtu":2738,"gara":2739,"osa":2740,"Ġpernah":2741,"eman":2742,"Ġratu":2743,"inta":2744,"Ġthese":2745,"Ġnegeri":2746,"Ġnumutkeun":2747,"per":2748,"teu":2749,"Ġmasjid":2750,"Ġdingaranan":2751,"ĠmÃ©an":2752,"Ġbali":2753,"angsa":2754,"Ġjr":2755,"utat":2756,"Ġmy":2757,"Ġstation":2758,"ĠÃ©fÃ©k":2759,"Ġproduk":2760,"hak":2761,"rah":2762,"Ġkaku":2763,"Ġmawa":2764,"Ġpanc":2765,"jam":2766,"Ġcic":2767,"Ġest":2768,"ĠhadÃ©":2769,"Ġkong":2770,"Ġswa":2771,"Ġcity":2772,"anci":2773,"Ġkelompok":2774,"Ġjudul":2775,"Ġnational":2776,"Ġinformation":2777,"Ġdiadegkeun":2778,"Ġray":2779,"unkeun":2780,"Ġkarakter":2781,"ange":2782,"Ġjarak":2783,"Ġproc":2784,"Ġstandar":2785,"Ġfakultas":2786,"ulkeun":2787,"ĠprÃ©m":2788,"Ġbuleud":2789,"ontal":2790,"Ġgug":2791,"Ġmant":2792,"Ġkamer":2793,"Ġmhz":2794,"fa":2795,"Ġbay":2796,"urus":2797,"ely":2798,"ning":2799,"Ġdial":2800,"Ġlik":2801,"Ġdiajar":2802,"Ġcompany":2803,"Ġcurr":2804,"ury":2805,"Ġanim":2806,"abat":2807,"Ġtransform":2808,"Ġpangh":2809,"Ġsada":2810,"Ġnyamb":2811,"Ġpeny":2812,"Ġmit":2813,"fik":2814,"Ġmm":2815,"Ġpp":2816,"Ġcip":2817,"Ġrada":2818,"lana":2819,"ets":2820,"ative":2821,"Ã¨":2822,"Ġky":2823,"ating":2824,"adem":2825,"uma":2826,"Ġmain":2827,"Ġpulitik":2828,"via":2829,"Ġpangaruh":2830,"Ġabout":2831,"Ġgelar":2832,"Ġkakawasaan":2833,"Ġmangpaat":2834,"enian":2835,"Ġcr":2836,"Ġhayam":2837,"mo":2838,"Ġpes":2839,"Ġbeuki":2840,"que":2841,"Ġdieu":2842,"asna":2843,"Ġvita":2844,"ley":2845,"Ġcianj":2846,"Ġguru":2847,"Ġbener":2848,"ĠprÃ©mium":2849,"din":2850,"Ġcib":2851,"ikat":2852,"Ġshin":2853,"Ġlega":2854,"tika":2855,"Ġwayang":2856,"Ġtong":2857,"ĠkalÃ©nder":2858,"ĠprotÃ©":2859,"Ġent":2860,"Ã©ks":2861,"Ġonly":2862,"Ġtanpa":2863,"Ġngadeg":2864,"Ġutara":2865,"Ġkita":2866,"Ġtech":2867,"Ġnov":2868,"dÃ©k":2869,"las":2870,"lit":2871,"Ġgra":2872,"Ġwhen":2873,"Ġnumber":2874,"Ġdefin":2875,"Ġputra":2876,"serv":2877,"fikasi":2878,"Ġtug":2879,"ajah":2880,"Ġbeen":2881,"Ġunited":2882,"Ġdepart":2883,"Ġiran":2884,"Ġkadang":2885,"idae":2886,"Ġfield":2887,"Ġpatempuran":2888,"Ġtenggara":2889,"Ġrahayat":2890,"Ġbaj":2891,"udak":2892,"Ġpohara":2893,"Ġvitamin":2894,"tina":2895,"ze":2896,"Ġuy":2897,"Ġnga":2898,"Ġdalam":2899,"ker":2900,"ms":2901,"Ġlong":2902,"Ġmany":2903,"Ġngajadi":2904,"Ġras":2905,"Ġeurop":2906,"ĠfrÃ©ku":2907,"Ġkes":2908,"Ġexamp":2909,"Ġamerican":2910,"Ġjelema":2911,"Ġham":2912,"ĠnopÃ©mber":2913,"sÃ©":2914,"Ġjaj":2915,"Ġsoci":2916,"ding":2917,"Ġright":2918,"Ġtokoh":2919,"Ġnyebutkeun":2920,"Ã©at":2921,"Ġeusina":2922,"Ġtol":2923,"Ġins":2924,"ee":2925,"onj":2926,"ĠsenÃ©n":2927,"Ġæ":2928,"Ġdew":2929,"Ġsee":2930,"Ġinstit":2931,"angpaatkeun":2932,"Ġkil":2933,"Ġlond":2934,"Ġolah":2935,"ĠyÃ©ar":2936,"Ġtulisan":2937,"Ġcommon":2938,"rist":2939,"uhkeun":2940,"okerto":2941,"umpang":2942,"Ġiii":2943,"Ġpeuting":2944,"Ġtotal":2945,"elan":2946,"Ġher":2947,"antara":2948,"Ġsultan":2949,"ĠfrÃ©kuÃ©nsi":2950,"Ġdaya":2951,"ĠbÃ©b":2952,"esar":2953,"antan":2954,"Ġswasta":2955,"Ġkaul":2956,"Ġgaris":2957,"ĠbÃ©ntang":2958,"Ġjamb":2959,"egan":2960,"Ġgarut":2961,"dan":2962,"eungit":2963,"Ġbarudak":2964,"Ġlondon":2965,"Ġros":2966,"Ġlatin":2967,"Ġsuc":2968,"Ġpati":2969,"Ġcat":2970,"Ġwanci":2971,"ose":2972,"Ġpupuhu":2973,"Ġmenteri":2974,"Ġnilai":2975,"ania":2976,"Ġtropis":2977,"ns":2978,"enan":2979,"esep":2980,"Ġoge":2981,"Ġkomunikasi":2982,"Ġsemu":2983,"ret":2984,"Ġjat":2985,"its":2986,"elakan":2987,"Ġbritan":2988,"Ġpast":2989,"Ġpunc":2990,"ĠgawÃ©":2991,"ekaran":2992,"Ġadministr":2993,"Ġeconom":2994,"Ġsitu":2995,"use":2996,"Ġfar":2997,"anggo":2998,"ko":2999,"rid":3000,"rong":3001,"ĠsÃ©pt":3002,"ĠtÃ©ori":3003,"ould":3004,"Ġswed":3005,"Ġsiga":3006,"ĠÐ":3007,"ĠtÃ©r":3008,"ulu":3009,"ekul":3010,"Ġtex":3011,"ĠdÃ©m":3012,"Ġpert":3013,"Ġconc":3014,"Ġdicutat":3015,"io":3016,"Ġken":3017,"Ġbik":3018,"Ã©mp":3019,"ner":3020,"Ġparan":3021,"itung":3022,"Ġbandara":3023,"Ġphy":3024,"ĠpanggedÃ©na":3025,"vin":3026,"omat":3027,"Ġatan":3028,"irim":3029,"Ġsamudra":3030,"Ġrand":3031,"uga":3032,"Ġdirina":3033,"Ġpamingpin":3034,"wis":3035,"Ġbac":3036,"Ġproduksi":3037,"Ġinteg":3038,"pl":3039,"Ġtanda":3040,"Ġdam":3041,"Ġdong":3042,"angi":3043,"ujud":3044,"angunan":3045,"ĠpamakÃ©an":3046,"Ġdad":3047,"Ġkandungan":3048,"Ġkatilu":3049,"ĠÙĬ":3050,"ernur":3051,"Ġvariab":3052,"Ġsabudeureun":3053,"Ġbaku":3054,"Ġjo":3055,"sih":3056,"ingga":3057,"ĠdibÃ©rÃ©":3058,"Ġsebaran":3059,"Ġfunction":3060,"Ġkaulinan":3061,"arat":3062,"Ġunder":3063,"velop":3064,"Ġfisika":3065,"Ġperdana":3066,"Ġcianjur":3067,"Ġking":3068,"abung":3069,"Ġmatak":3070,"mbahan":3071,"Ġkarir":3072,"Ġatanapi":3073,"Ġmund":3074,"ĠmÃ©i":3075,"mina":3076,"apkeun":3077,"Ġtegal":3078,"Ġpangk":3079,"vision":3080,"ÙĬ":3081,"Ġts":3082,"Ġpah":3083,"Ġdel":3084,"Ġcac":3085,"Ġhin":3086,"ough":3087,"disi":3088,"ĠtÃ©hnik":3089,"Ġisland":3090,"ear":3091,"Ġjag":3092,"Ġnyabab":3093,"Ġpik":3094,"Ġcurrent":3095,"Ġsej":3096,"Ġsumebar":3097,"Ġgumantung":3098,"Ġmic":3099,"uks":3100,"Ġturun":3101,"Ġmalah":3102,"à¸":3103,"Ġintern":3104,"ungkul":3105,"Ġgerak":3106,"Ġrem":3107,"ĠprotÃ©in":3108,"isa":3109,"Ġbekasi":3110,"Ġmajalah":3111,"abar":3112,"Ġkasus":3113,"Ġaturan":3114,"Ġrumah":3115,"ĠmÃ©n":3116,"Ġpac":3117,"ication":3118,"ĠrÃ©g":3119,"Ġnap":3120,"Ġputri":3121,"org":3122,"Ġchina":3123,"Ġmp":3124,"Ġcok":3125,"Ġlengkep":3126,"ograp":3127,"ĠrÃ©aksi":3128,"Ġngagambarkeun":3129,"ansi":3130,"Ġpet":3131,"Ġwir":3132,"Ġmesir":3133,"ving":3134,"rough":3135,"ony":3136,"Ġcer":3137,"Ġlak":3138,"aijan":3139,"Ġdevelop":3140,"Ġdaerah":3141,"Ġnyababkeun":3142,"do":3143,"Ġprobability":3144,"Ġkos":3145,"Ġner":3146,"Ġcentral":3147,"Ġsapo":3148,"jaya":3149,"Ġte":3150,"Ġrat":3151,"tiv":3152,"ĠrÃ©ng":3153,"rang":3154,"Ġpakar":3155,"ages":3156,"Ġcalled":3157,"Ġpindah":3158,"eukeut":3159,"Ġkus":3160,"Ġrock":3161,"Ġgenep":3162,"Ã©bruari":3163,"Ġngalaman":3164,"Ġazerb":3165,"Ġpurwokerto":3166,"Ġtinggi":3167,"ĠpÃ©ri":3168,"liam":3169,"Ġgeneral":3170,"Ġfrequ":3171,"Ġrom":3172,"iman":3173,"Ġagung":3174,"Ġkakuatan":3175,"zi":3176,"Ġtanah":3177,"Ġlogam":3178,"Ġstate":3179,"Ġstatistik":3180,"Ġcampuran":3181,"Ġmc":3182,"alik":3183,"Ġhuj":3184,"abab":3185,"Ġtujuh":3186,"Ġtahun":3187,"Ġazerbaijan":3188,"engah":3189,"Ġisra":3190,"Ġrohangan":3191,"Ġbangk":3192,"Ġnuk":3193,"Ġabu":3194,"Ġtulang":3195,"ongkok":3196,"Ġportug":3197,"Ġthai":3198,"udayaan":3199,"Ġsalaj":3200,"Ġmobil":3201,"ume":3202,"Ġjuru":3203,"arth":3204,"ĠpangÃ©ran":3205,"Ġkaper":3206,"Ġwisata":3207,"nia":3208,"ene":3209,"Ġtiis":3210,"alitas":3211,"Ġanjeun":3212,"Ġnomer":3213,"ĠnÃ©":3214,"Ġjuara":3215,"Ġpepelakan":3216,"Ġpala":3217,"Ġrap":3218,"Ġhayang":3219,"Ġpart":3220,"Ġngajadikeun":3221,"entar":3222,"Ġnurutkeun":3223,"visi":3224,"Ġhari":3225,"ĠnaÃ©k":3226,"Ġsapanjang":3227,"Ġserangan":3228,"cus":3229,"men":3230,"Ġpenc":3231,"che":3232,"Ġmisalna":3233,"Ġcahaya":3234,"zila":3235,"Ã©tik":3236,"Ġmari":3237,"Ġblu":3238,"epon":3239,"ungkas":3240,"Ġqur":3241,"Ġgerakan":3242,"Ġupazila":3243,"ej":3244,"Ġkuna":3245,"Ġpangw":3246,"Ġdihasilkeun":3247,"Ġgubernur":3248,"ĠsÃ©ptÃ©mber":3249,"uang":3250,"umÃ©n":3251,"Ġpihak":3252,"Ġmolekul":3253,"Ġkrist":3254,"ĠsÃ©s":3255,"ergi":3256,"Ġloc":3257,"Ġlini":3258,"ĠgÃ©n":3259,"pot":3260,"als":3261,"indu":3262,"Ġkop":3263,"urahan":3264,"Ġwo":3265,"sil":3266,"Ġkonst":3267,"ky":3268,"let":3269,"tun":3270,"Ġmich":3271,"tai":3272,"Ġngurangan":3273,"fir":3274,"Ġhadi":3275,"Ã¼":3276,"Ġwhere":3277,"siko":3278,"Ġmotor":3279,"asiswa":3280,"hod":3281,"ĠpÃ©bruari":3282,"Ġrub":3283,"Ġprot":3284,"Ġbabagian":3285,"Ġeusi":3286,"Ġbed":3287,"Ġturki":3288,"Ġbungbu":3289,"Ġaut":3290,"Ġmap":3291,"Ġses":3292,"Ġnunjuk":3293,"Ġjul":3294,"Ġww":3295,"ajaran":3296,"Ġperc":3297,"Ġpres":3298,"Ġnagri":3299,"Ġlaju":3300,"á®":3301,"Ġmec":3302,"uliah":3303,"ui":3304,"Ġjun":3305,"eund":3306,"Ġrich":3307,"Ġgad":3308,"Ġnepika":3309,"Ġkuto":3310,"Ġexample":3311,"hir":3312,"Ã¤":3313,"Ġcil":3314,"ologis":3315,"Ġngaronj":3316,"bl":3317,"eunt":3318,"Ġunt":3319,"Ġnajan":3320,"Ġahirna":3321,"lukeun":3322,"ness":3323,"Ġlayanan":3324,"Ġngaluarkeun":3325,"odeu":3326,"Ġparab":3327,"Ġsignal":3328,"Ġdilakukeun":3329,"ĠÃ©lÃ©ktron":3330,"Ġturunan":3331,"ects":3332,"Ġdistribution":3333,"Ġuyah":3334,"Ġbritania":3335,"Ġiwal":3336,"Ġcy":3337,"Ġnut":3338,"Ġprak":3339,"inasi":3340,"Ġkode":3341,"Ġten":3342,"Ġjad":3343,"Ġlok":3344,"Ã©hatan":3345,"Ġadat":3346,"Ġcommun":3347,"Ġsept":3348,"inggu":3349,"ds":3350,"Ġkumpulan":3351,"Ġthrough":3352,"Ġkatem":3353,"ific":3354,"bur":3355,"sal":3356,"ses":3357,"Ġbol":3358,"Ġbant":3359,"Ġkasenian":3360,"Ġjerman":3361,"Ġbapana":3362,"Ġhujan":3363,"Ġlay":3364,"icial":3365,"Ġsaben":3366,"Ġsingap":3367,"Ġjiwa":3368,"osi":3369,"rit":3370,"Ġlow":3371,"Ġanc":3372,"Ġbalap":3373,"ashi":3374,"Ġsakuliah":3375,"Ã©lÃ©hkeun":3376,"Ġafter":3377,"aru":3378,"Ġtentara":3379,"Ġgul":3380,"Ġgaring":3381,"adiakeun":3382,"Ġdinasti":3383,"uyan":3384,"tural":3385,"Ġbulu":3386,"Ġkarbon":3387,"ĠbÃ©bas":3388,"lish":3389,"euw":3390,"Ġtiongkok":3391,"Ġmarch":3392,"Ġangkutan":3393,"Ġsalajengna":3394,"Ġawakna":3395,"upati":3396,"ople":3397,"ition":3398,"vitas":3399,"Ġpanyanyi":3400,"Ġclo":3401,"Ġngahiji":3402,"ogaan":3403,"ree":3404,"Ġtradisi":3405,"etic":3406,"zo":3407,"unungan":3408,"Ġobserv":3409,"Ġsuper":3410,"Ġfu":3411,"Ġkawentar":3412,"igir":3413,"Ã©sÃ©":3414,"ider":3415,"Ġrus":3416,"Ġkantor":3417,"Ġundang":3418,"Ġlanguage":3419,"Ġpuncak":3420,"Ġkebon":3421,"Ġtanjung":3422,"Ġraj":3423,"inum":3424,"Ġglob":3425,"Ġamerika":3426,"Ġcoklat":3427,"Ġhaw":3428,"Ġole":3429,"ilang":3430,"ety":3431,"anyaho":3432,"Ġemas":3433,"Ġnyambung":3434,"rÃ©n":3435,"Ġkere":3436,"arajang":3437,"posi":3438,"Ġvid":3439,"Ġbadan":3440,"Ġstates":3441,"Ġkuring":3442,"Ġwater":3443,"Ġnat":3444,"Ġchrist":3445,"ĠkasÃ©hatan":3446,"Ġseptember":3447,"Ġtunggal":3448,"ife":3449,"Ġstatus":3450,"Ġhindia":3451,"Ġsabenerna":3452,"rad":3453,"van":3454,"amat":3455,"Ġindit":3456,"ected":3457,"Ġangkatan":3458,"aruhan":3459,"ĠmÃ©k":3460,"esan":3461,"intang":3462,"ny":3463,"Ġcita":3464,"eth":3465,"Ġdilaksan":3466,"Ġkatempo":3467,"ono":3468,"iptakeun":3469,"ĠsÃ©sana":3470,"Ġuntuk":3471,"fat":3472,"Ġsamb":3473,"sid":3474,"Ġcangk":3475,"ago":3476,"Ġvokal":3477,"Ġhab":3478,"embangan":3479,"Ġaktip":3480,"oci":3481,"Ġkolon":3482,"Ġgregori":3483,"Ġjadwal":3484,"bol":3485,"Ġãģ":3486,"Ġheula":3487,"Ġgram":3488,"ĠgorÃ©ng":3489,"Ġsakap":3490,"Ġmaha":3491,"Ġprim":3492,"sud":3493,"Ġmata":3494,"iling":3495,"Ġnyarita":3496,"Ġdimangpaatkeun":3497,"Ġcirc":3498,"etwork":3499,"Ġolahr":3500,"Ġditer":3501,"Ġway":3502,"Ġwarnana":3503,"Ġngajaga":3504,"Ġtelepon":3505,"Ġsecond":3506,"Ġrandom":3507,"rum":3508,"Ġpint":3509,"Ġbank":3510,"Ġmentri":3511,"ved":3512,"euy":3513,"Ġdas":3514,"Ġbawang":3515,"Ġdinya":3516,"Ġvo":3517,"ĠÃ©ach":3518,"Ġmemb":3519,"Ġmust":3520,"Ġsd":3521,"ĠsÃ©k":3522,"Ġpeta":3523,"ĠnÃ©mb":3524,"ices":3525,"Ġmoal":3526,"Ġjames":3527,"Ġlambang":3528,"Ġadministratif":3529,"mit":3530,"Ġtasik":3531,"Ġdv":3532,"Ġnetwork":3533,"Ġprib":3534,"Ġbaru":3535,"Ġngaganti":3536,"Ġwho":3537,"Ġdiganti":3538,"Ġgrand":3539,"Ġsakapeung":3540,"Ġsajak":3541,"Ġngahontal":3542,"Ġknown":3543,"ever":3544,"Ġcim":3545,"Ġhand":3546,"Ġresep":3547,"Ġmilit":3548,"cs":3549,"emat":3550,"Ġstud":3551,"Ġphysi":3552,"Ġnukl":3553,"Ġmadi":3554,"amana":3555,"Ġkaca":3556,"ebutan":3557,"Ġdilaksanakeun":3558,"Ġsl":3559,"Ġthen":3560,"Ġwid":3561,"Ã©han":3562,"Ġhalteu":3563,"Ġcau":3564,"ival":3565,"ps":3566,"Ġmaca":3567,"Ġseg":3568,"uluh":3569,"ugi":3570,"Ġilmu":3571,"Ġgregorian":3572,"uruan":3573,"Ġulah":3574,"gaan":3575,"Ġhel":3576,"Ġhot":3577,"Ġmahasiswa":3578,"Ġbeunang":3579,"Ġngamimitian":3580,"Ġsumatra":3581,"Ġdu":3582,"Ġbanten":3583,"ĠarÃ©a":3584,"Ġbalapan":3585,"Ġsajaba":3586,"Ġolahraga":3587,"odi":3588,"Ð°":3589,"Ġini":3590,"Ġkamekaran":3591,"atesan":3592,"Ġpakistan":3593,"Ġkalapa":3594,"ipina":3595,"Ġlul":3596,"ĠthÃ©":3597,"Ġpasir":3598,"yÃ©k":3599,"Ġtara":3600,"Ġder":3601,"Ġbesar":3602,"ally":3603,"ties":3604,"Ġngimpi":3605,"Ġasp":3606,"Ġsabag":3607,"Ġangin":3608,"Ġpb":3609,"Ġbanj":3610,"oku":3611,"Ġwilliam":3612,"eupan":3613,"Ġpanjangna":3614,"Ġstandard":3615,"pon":3616,"Ã¢":3617,"Ġsuhu":3618,"Ġdang":3619,"Ġjab":3620,"Ġtib":3621,"omi":3622,"ekarkeun":3623,"Ġindung":3624,"ijaya":3625,"unya":3626,"Ġbeungeut":3627,"Ġnginget":3628,"itch":3629,"lex":3630,"Ġchann":3631,"Ġpoint":3632,"Ġgambir":3633,"tin":3634,"Ġbupati":3635,"Ġcul":3636,"Ġpanumpang":3637,"Ġngabogaan":3638,"Ġpaul":3639,"ãĥ¼":3640,"Ġngalakukeun":3641,"lad":3642,"ĠÃ©t":3643,"Ġhindu":3644,"Ġpark":3645,"volusi":3646,"Ġnangtukeun":3647,"Ġpalab":3648,"Ġtepi":3649,"Ġjinis":3650,"ned":3651,"Ġep":3652,"Ġcell":3653,"Ġhawa":3654,"Ġkalurahan":3655,"site":3656,"Ġperiod":3657,"oph":3658,"Ġuc":3659,"Ġkatuhu":3660,"Ġwww":3661,"Ġtasikmal":3662,"anakeun":3663,"eusi":3664,"Ġmeg":3665,"Ġdul":3666,"agara":3667,"yawa":3668,"isat":3669,"oma":3670,"Ġkitab":3671,"Ġkany":3672,"Ġluyu":3673,"uhun":3674,"Ġconn":3675,"Ġmethod":3676,"ĠÃ©nergi":3677,"tikeun":3678,"Ġgand":3679,"ela":3680,"asia":3681,"Ġurut":3682,"Ġmandiri":3683,"Ġtasikmalaya":3684,"yang":3685,"sip":3686,"ading":3687,"Ġprin":3688,"Ġparam":3689,"Ġkereta":3690,"Ġpintonan":3691,"lis":3692,"ĠtÅį":3693,"Ġsma":3694,"Ġsimb":3695,"Ġlemp":3696,"Ġlev":3697,"ukut":3698,"Ġperan":3699,"uanana":3700,"Ġmassa":3701,"oya":3702,"Ġseun":3703,"Ġeast":3704,"Ġmilih":3705,"aceae":3706,"Ġprocess":3707,"Ġcoc":3708,"Ġngak":3709,"irip":3710,"unitas":3711,"Ġfound":3712,"Ġlemak":3713,"ney":3714,"Ġbh":3715,"uki":3716,"Ġbeusi":3717,"ĠperÃ©":3718,"Ġeureun":3719,"Ġkend":3720,"Ġasli":3721,"Ġsasat":3722,"Ġgroup":3723,"Ġnunjukkeun":3724,"ces":3725,"fah":3726,"led":3727,"Ġbor":3728,"Ġbon":3729,"Ġwarga":3730,"Ġlokasi":3731,"car":3732,"Ġsmal":3733,"abumi":3734,"vern":3735,"bia":3736,"luk":3737,"uat":3738,"Ã©rgi":3739,"Ġatau":3740,"ubaran":3741,"oda":3742,"Ġofficial":3743,"ool":3744,"ĠãĤ":3745,"Ġtap":3746,"Ġslo":3747,"Ġsant":3748,"Ġlet":3749,"Ġdicokot":3750,"Ġwork":3751,"ĠngÃ©lÃ©hkeun":3752,"aban":3753,"ĠmÃ©as":3754,"Ġhirupna":3755,"Ġmanggihan":3756,"Ġmid":3757,"Ġsut":3758,"orge":3759,"Ġaliran":3760,"Ġeff":3761,"Ġdev":3762,"Ġluhureun":3763,"Ã©la":3764,"very":3765,"Ġplast":3766,"Ġtid":3767,"Ġnarima":3768,"Ġlobana":3769,"Ġranc":3770,"ĠhÃ©sÃ©":3771,"Ġwah":3772,"arac":3773,"Ġsakum":3774,"ampahan":3775,"Ġclass":3776,"Ġsasatoan":3777,"Ġfam":3778,"Ġallah":3779,"Ġwakil":3780,"go":3781,"Ġheu":3782,"itra":3783,"Ġnamp":3784,"Ġmax":3785,"erial":3786,"Ġkieu":3787,"Ġseries":3788,"Ġassoci":3789,"jal":3790,"Ġtata":3791,"ĠsÃ©r":3792,"jing":3793,"Ġmineral":3794,"Ġmalang":3795,"uhurna":3796,"Ġruntuyan":3797,"Ġthailand":3798,"ke":3799,"sed":3800,"aram":3801,"Ġsupa":3802,"Ġsind":3803,"Ġpiala":3804,"Ġpangant":3805,"Ġsame":3806,"Ġpagunungan":3807,"Ġmekar":3808,"Ġcicing":3809,"Ġtai":3810,"Ġcinta":3811,"okol":3812,"Ġpangal":3813,"Ġakadem":3814,"Ġmiliter":3815,"Ġbuana":3816,"Ġsukabumi":3817,"hat":3818,"Ġãĥ":3819,"Ġwould":3820,"Ġgedong":3821,"Ġprop":3822,"Ġserikat":3823,"gu":3824,"mer":3825,"Ã©as":3826,"Ġgangg":3827,"fl":3828,"ming":3829,"Ġdiro":3830,"ii":3831,"uron":3832,"Ġkanggo":3833,"Ġbil":3834,"erangan":3835,"Ġpagaw":3836,"Ġlalampahan":3837,"Ġsatelit":3838,"Ġkalimantan":3839,"Ġpakarang":3840,"Ġkek":3841,"Ġcak":3842,"Ġfit":3843,"ications":3844,"Ġnyerang":3845,"Ġwarta":3846,"Ġplay":3847,"ĠwikipÃ©dia":3848,"kt":3849,"Ã³":3850,"Ġtatan":3851,"Ġblack":3852,"hol":3853,"tle":3854,"ÃŃ":3855,"Ġpd":3856,"assi":3857,"isar":3858,"Ġoften":3859,"Ġdipingpin":3860,"Ġmusisi":3861,"ĠbaÃ©":3862,"Ġseuneu":3863,"Ġpasawat":3864,"Ġps":3865,"ensis":3866,"amis":3867,"edang":3868,"ĠpartÃ©":3869,"Ġnagoya":3870,"Ġsilih":3871,"Ġvirus":3872,"Ġngarobah":3873,"Ġhun":3874,"Ġkabisat":3875,"Ġpartic":3876,"Ġterm":3877,"Ġdifferent":3878,"Ġorg":3879,"ĠrÃ©l":3880,"Ġcd":3881,"Ġkacang":3882,"Ġpangp":3883,"Ġspace":3884,"by":3885,"oka":3886,"Ùĩ":3887,"Ġnempo":3888,"Ġningg":3889,"Ġdiayakeun":3890,"tivitas":3891,"Ġisuk":3892,"euman":3893,"Ġtaya":3894,"Ġminggu":3895,"alian":3896,"Ġjos":3897,"entang":3898,"omas":3899,"Ġmanaj":3900,"Ġmate":3901,"Ġbaca":3902,"tage":3903,"ingu":3904,"Ġanalog":3905,"Ġhowever":3906,"Ġlembaga":3907,"Ġngayakeun":3908,"ĠarmÃ©n":3909,"Ġpangarang":3910,"odo":3911,"Ġturk":3912,"Ġsince":3913,"Ġgovern":3914,"Ġbroad":3915,"Ġsid":3916,"Ġsom":3917,"omunikasi":3918,"Ġnaha":3919,"euli":3920,"Ġdipel":3921,"Ġkomunitas":3922,"Ġmath":3923,"Ġdesc":3924,"Ġlapisan":3925,"jana":3926,"Ġgiv":3927,"iki":3928,"igawÃ©":3929,"obaan":3930,"Ġsaudi":3931,"asupkeun":3932,"Ġkhal":3933,"Ġdaratan":3934,"Ġoleh":3935,"iah":3936,"Ġjl":3937,"operasi":3938,"Ġdarat":3939,"Ġhususna":3940,"Ġsakumaha":3941,"iy":3942,"jah":3943,"sc":3944,"Ġnemb":3945,"Ġcam":3946,"Ġlanc":3947,"agam":3948,"Ġfebr":3949,"Ġjalu":3950,"ford":3951,"Ġbran":3952,"kar":3953,"Ġé":3954,"Ã©c":3955,"aresep":3956,"Ġnus":3957,"olak":3958,"Ġwell":3959,"Ġwano":3960,"ities":3961,"Ġkey":3962,"Ġpaguron":3963,"Ġpangluhurna":3964,"Ġnikah":3965,"fis":3966,"Ġangka":3967,"Ġlife":3968,"asing":3969,"ollow":3970,"Ġperm":3971,"agai":3972,"Ã©rsi":3973,"Ġsawah":3974,"Ġkompon":3975,"Ġboth":3976,"ÙĪ":3977,"Ġonline":3978,"Ġexpr":3979,"Ġmatemat":3980,"gong":3981,"atangan":3982,"Ġluk":3983,"Ġrac":3984,"Ġkabudayaan":3985,"Ġkasal":3986,"Ġsingle":3987,"Ġhandapeun":3988,"ĠÃ©nd":3989,"Ġkumaha":3990,"Ġwanoja":3991,"Ġmom":3992,"ater":3993,"Ġakar":3994,"Ġwangunna":3995,"lop":3996,"Ġsaukur":3997,"uwan":3998,"ungkin":3999,"Ġliang":4000,"kop":4001,"Ã©wa":4002,"siun":4003,"Ġgab":4004,"ĠparÃ©":4005,"Ġaward":4006,"ually":4007,"ĠarmÃ©nia":4008,"Ġkeu":4009,"Ġkaka":4010,"Ġtor":4011,"ale":4012,"Ġrun":4013,"Ġalg":4014,"Ġparabot":4015,"Ġban":4016,"Ġteuing":4017,"ister":4018,"encana":4019,"Ġdaunna":4020,"Ġfinal":4021,"Ġtipe":4022,"Ġyou":4023,"sida":4024,"Ġwungkul":4025,"ings":4026,"Ġngabentuk":4027,"Ġhaji":4028,"Ġbook":4029,"Ġsulaw":4030,"Ġdokter":4031,"rag":4032,"Ġsand":4033,"Ġbers":4034,"eruh":4035,"Ġfollow":4036,"dika":4037,"Ġteras":4038,"Ã©ngk":4039,"Ġkompl":4040,"eed":4041,"lor":4042,"Ġpic":4043,"Ġganda":4044,"Ġfat":4045,"Ġfer":4046,"Ġgener":4047,"muwan":4048,"Ġemb":4049,"Ġsif":4050,"Ġkami":4051,"ulÃ©r":4052,"umsi":4053,"tish":4054,"Ġpasifik":4055,"Ã©dakeun":4056,"rogÃ©n":4057,"Ġpangwangunan":4058,"arjo":4059,"elas":4060,"jikan":4061,"Ġnyang":4062,"Ġdibanding":4063,"ĠkÃ©nca":4064,"Ġleungit":4065,"mark":4066,"Ġsulawesi":4067,"Ġnang":4068,"otana":4069,"Ġahmad":4070,"Ġsumedang":4071,"Ġbanglad":4072,"Ġjiga":4073,"ĠmanÃ©h":4074,"Ġiklim":4075,"Ġduanana":4076,"Ġbob":4077,"Ġnit":4078,"Ġarsit":4079,"Ġnyeri":4080,"Ġdibuka":4081,"ĠØ§ÙĦØ":4082,"col":4083,"Ġback":4084,"Ġwind":4085,"ekar":4086,"Ġsekolah":4087,"Ġlangit":4088,"Ġnomor":4089,"Ġnand":4090,"Ġditut":4091,"itas":4092,"Ġnan":4093,"Ġyus":4094,"Ġkarang":4095,"Ġtechn":4096,"yn":4097,"untut":4098,"Ġrobert":4099,"ĠisraÃ©l":4100,"Ġpola":4101,"Ġdrama":4102,"Ġcandi":4103,"iss":4104,"Ã©ksi":4105,"Ġaranj":4106,"Ġdipas":4107,"istik":4108,"Ġsapi":4109,"Ġkuda":4110,"awarsa":4111,"Ġbanjar":4112,"ye":4113,"Ġmunc":4114,"Ġpek":4115,"Ġnet":4116,"Ġrek":4117,"Ġindep":4118,"Ġbandar":4119,"Ġhall":4120,"Ġmedia":4121,"Ġglobal":4122,"he":4123,"oid":4124,"Ġping":4125,"Ġrangk":4126,"ito":4127,"eksi":4128,"Ġpasangan":4129,"ences":4130,"Ġdavid":4131,"Ġpoliti":4132,"rilis":4133,"Ġjanuary":4134,"Ġjasa":4135,"omp":4136,"romag":4137,"ĠdÃ©wi":4138,"Ġengine":4139,"Ġmoh":4140,"Ġsoto":4141,"Ġdj":4142,"Ġox":4143,"etsu":4144,"Ġsumatera":4145,"Ġbikang":4146,"Ġaug":4147,"Ġinv":4148,"Ã©ntah":4149,"Ġpanginget":4150,"Ġmaksud":4151,"Ġvolume":4152,"Ġkalimah":4153,"sm":4154,"Ġhong":4155,"Ġibuk":4156,"Ġnews":4157,"Ġservice":4158,"Ġnovember":4159,"sol":4160,"Ġkg":4161,"Ġdirilis":4162,"dina":4163,"Ġgaluh":4164,"Ġschool":4165,"mos":4166,"Ġä":4167,"kaw":4168,"irang":4169,"Ġnak":4170,"Ġarm":4171,"Ġcentury":4172,"Ġnyingk":4173,"Ġsystems":4174,"Ġfrequency":4175,"Ġç":4176,"Ġditi":4177,"Ġgitar":4178,"esh":4179,"Ġpre":4180,"Ġelectron":4181,"ren":4182,"ult":4183,"Ġatlan":4184,"Ġtranspor":4185,"ways":4186,"Ġanakna":4187,"Ġsanyawa":4188,"ĠvidÃ©o":4189,"Ġdasawarsa":4190,"Ġsong":4191,"Ġcing":4192,"Ġalter":4193,"Ġdesig":4194,"Ġoksig":4195,"Ġsusunan":4196,"Ġcontin":4197,"Ġanaly":4198,"ham":4199,"Ġtay":4200,"aturan":4201,"Ġitu":4202,"Ġom":4203,"Ġkawilang":4204,"Ġlarge":4205,"ĠkonsÃ©p":4206,"Ġfisik":4207,"Ġjangkungna":4208,"Ġscience":4209,"Ø¯":4210,"ĠbÃ©h":4211,"atus":4212,"Ġngubaran":4213,"amin":4214,"Ġeropa":4215,"Ġngarasa":4216,"Ġbuahna":4217,"Ġvariabel":4218,"Ġgovernment":4219,"Ġgif":4220,"ayana":4221,"Ġsarupa":4222,"Ġname":4223,"Ġopen":4224,"ĠbÃ©as":4225,"alig":4226,"Ġramb":4227,"Ġthree":4228,"Ġbest":4229,"Ġngalayanan":4230,"Ġdisebutkeun":4231,"esis":4232,"Ġgreen":4233,"ements":4234,"lon":4235,"nan":4236,"Ġsaha":4237,"ultan":4238,"oritas":4239,"Ġsakali":4240,"Ġsunan":4241,"etepkeun":4242,"Ġtali":4243,"Ġbany":4244,"ake":4245,"tian":4246,"Ġkanada":4247,"Ġheubeul":4248,"Ġsupaya":4249,"Ġgangguan":4250,"operasikeun":4251,"Ġdown":4252,"ental":4253,"Ġorang":4254,"Ġsaban":4255,"Ġbatur":4256,"Ġdesa":4257,"ĠpagawÃ©an":4258,"Ġwan":4259,"hargaan":4260,"Ġenglish":4261,"Ġregion":4262,"Ġinternet":4263,"cang":4264,"Ã©y":4265,"Ġreb":4266,"ekel":4267,"Ġalun":4268,"Ġindungna":4269,"Ġdipikanyaho":4270,"ĠpartÃ©y":4271,"zim":4272,"Ġkok":4273,"Ġbos":4274,"Ġjar":4275,"oman":4276,"Ġnambahan":4277,"Ġasak":4278,"Ġkareta":4279,"Ġafric":4280,"Ġpamajikan":4281,"Ġramo":4282,"wn":4283,"Ġsung":4284,"rona":4285,"ull":4286,"uction":4287,"ĠdÃ©wan":4288,"Ġkamamp":4289,"imbang":4290,"Ġsipil":4291,"Ġkandel":4292,"Ġpangaweruh":4293,"Ġdiangkat":4294,"aba":4295,"Ġpamungkas":4296,"Ġsaat":4297,"Ġshow":4298,"Ġtelev":4299,"Ġsateng":4300,"Ġcabang":4301,"jul":4302,"pas":4303,"Ġdiam":4304,"Ġperta":4305,"ically":4306,"uban":4307,"Ġrumus":4308,"Ġplastik":4309,"Ġpust":4310,"Ġduit":4311,"Ġtiasa":4312,"Ġaktif":4313,"Ġusing":4314,"Ġdisebutna":4315,"Ġcurug":4316,"Ġdagang":4317,"ware":4318,"of":4319,"Ġtom":4320,"Ġteh":4321,"Ġati":4322,"Ġmes":4323,"Ġdeg":4324,"Ġkaisar":4325,"Ġhen":4326,"ĠtÃ©knologi":4327,"Ġnusantara":4328,"Ø¨":4329,"Ġbom":4330,"Ġrug":4331,"Ġsaacan":4332,"Ġcontrol":4333,"Ġlemah":4334,"Ġwebsite":4335,"Ġbritish":4336,"Ġtidak":4337,"Ġdipelak":4338,"cl":4339,"cast":4340,"ku":4341,"put":4342,"Ġpon":4343,"Ġjukut":4344,"sider":4345,"euntas":4346,"Ġcut":4347,"Ġhuman":4348,"ries":4349,"ĠfÃ©":4350,"ily":4351,"uha":4352,"undan":4353,"tical":4354,"prÃ©s":4355,"roduksi":4356,"ject":4357,"Ġcuc":4358,"unda":4359,"Ġsaengg":4360,"Ġserat":4361,"omba":4362,"Ġtungtungna":4363,"ĠnÃ©mbongkeun":4364,"Ġjsb":4365,"Ġkaum":4366,"elar":4367,"log":4368,"dium":4369,"Ġpinuh":4370,"Ġtatangk":4371,"isaran":4372,"Ġsalam":4373,"Ġplat":4374,"Ġteluk":4375,"Ġlemes":4376,"Ġumurna":4377,"Ġvery":4378,"uksak":4379,"Ġngaronjatkeun":4380,"Ġgust":4381,"igi":4382,"Ġmilu":4383,"Ġbased":4384,"Ġmade":4385,"Ġsebagai":4386,"Ġkuningan":4387,"Ġvalue":4388,"dÃ©kaan":4389,"ĠtatanÃ©n":4390,"aligus":4391,"Ġgi":4392,"Ġgeg":4393,"Ġfur":4394,"Ġprobl":4395,"ohol":4396,"Ġkhali":4397,"Ġjapanese":4398,"Ġmangrupakeun":4399,"Ġsuci":4400,"Ġmathemat":4401,"nu":4402,"Ġaff":4403,"Ġjend":4404,"Ġiv":4405,"Ġstock":4406,"Ġef":4407,"Ġpartikel":4408,"Ġkasakit":4409,"alankeun":4410,"Ġtelevisi":4411,"ĠÃ©s":4412,"Ġpok":4413,"Ġbra":4414,"Ġjati":4415,"Ġjkt":4416,"adah":4417,"Ġngom":4418,"Ġpamil":4419,"Ġpasundan":4420,"Ġluhurna":4421,"Ġdahareun":4422,"gana":4423,"Ġtawang":4424,"ĠajÃ©n":4425,"Ġlit":4426,"Ġwin":4427,"Ġmurid":4428,"Ġrecord":4429,"Ġrakyat":4430,"Ġmamalia":4431,"Ġromawi":4432,"ĠpangantÃ©n":4433,"Ġtatangkalan":4434,"ĠbÃ©r":4435,"Ġgh":4436,"Ġalex":4437,"ĠdipigawÃ©":4438,"Ġhard":4439,"inton":4440,"Ġnovel":4441,"Ġpapua":4442,"ĠdÃ©mok":4443,"och":4444,"Ġnob":4445,"Ġjust":4446,"Ġngari":4447,"agan":4448,"egara":4449,"ĠprÃ©":4450,"Ġpost":4451,"Ġconsider":4452,"Ġalami":4453,"Ġilmi":4454,"Ġmos":4455,"Ġbet":4456,"utusan":4457,"Ġinstr":4458,"ici":4459,"uhna":4460,"Ġperson":4461,"Ġsign":4462,"Ġfree":4463,"Ġeurope":4464,"Ġcircuit":4465,"Ġalterna":4466,"Ġproblem":4467,"rin":4468,"Ġparis":4469,"Ġadalah":4470,"ungkus":4471,"ĠrÃ©ngsÃ©":4472,"Ġaugust":4473,"Ġsaenggeus":4474,"ber":4475,"Ġsq":4476,"Ġsti":4477,"Ġngirim":4478,"apah":4479,"Ġkualitas":4480,"imal":4481,"Ġnyokot":4482,"jil":4483,"mbah":4484,"pi":4485,"Ġngu":4486,"Ġold":4487,"Ġwujud":4488,"Ġvia":4489,"Ġsawar":4490,"Ġduring":4491,"Ġpalabuan":4492,"lawan":4493,"itori":4494,"Ġtipung":4495,"Ġpustaka":4496,"gin":4497,"Ġjantung":4498,"unaan":4499,"ĠÃ©ar":4500,"ova":4501,"uluykeun":4502,"Ġpuisi":4503,"Ġkrl":4504,"Ġlike":4505,"Ġninggalkeun":4506,"kin":4507,"ss":4508,"zz":4509,"Ġion":4510,"eunan":4511,"Ġhir":4512,"Ġnami":4513,"act":4514,"Ġdipilih":4515,"Ġchi":4516,"aksanakeun":4517,"ĠkamerdÃ©kaan":4518,"Ġpor":4519,"Ġbeg":4520,"Ġbuntut":4521,"ality":4522,"Ġgod":4523,"icingan":4524,"Ġwhat":4525,"Ġkabupaten":4526,"Ġmenengah":4527,"Ġciamis":4528,"Ġportugis":4529,"Ġav":4530,"Ġnujul":4531,"Ġwetan":4532,"Ġinti":4533,"Ġark":4534,"Ġsaluran":4535,"fore":4536,"Ġsolat":4537,"Ġnyanghar":4538,"ause":4539,"bc":4540,"raw":4541,"Ġbapa":4542,"sib":4543,"Ġsakaligus":4544,"Ġpertan":4545,"Ġnyiptakeun":4546,"Ġmunding":4547,"ein":4548,"yt":4549,"ĠmÃ©m":4550,"Ġbeut":4551,"Ġnyal":4552,"Ġnyat":4553,"Ġrequ":4554,"ĠmÃ©asur":4555,"ĠoksigÃ©n":4556,"ward":4557,"Ġasi":4558,"Ġmuka":4559,"Ġlos":4560,"Ġliga":4561,"Ġoh":4562,"Ġdisc":4563,"Ġberk":4564,"Ġgenerasi":4565,"Ġmurag":4566,"Ġgamelan":4567,"Ġdibandingkeun":4568,"caya":4569,"gh":4570,"Ġkacap":4571,"Ġwanda":4572,"Ã©ktur":4573,"eks":4574,"Ġhijina":4575,"Ġconst":4576,"Ġkadar":4577,"Ġsagara":4578,"ĠpÃ©ople":4579,"ĠyÃ©ars":4580,"ĠmilitÃ©r":4581,"Ġchannel":4582,"kÃ©t":4583,"Ã©al":4584,"Ġtw":4585,"Ġdoc":4586,"Ġcas":4587,"Ġanat":4588,"isah":4589,"Ġartic":4590,"Ġmagnetic":4591,"ĠrÃ©fer":4592,"ign":4593,"alikna":4594,"Ġtadi":4595,"Ġngap":4596,"rian":4597,"Ġpita":4598,"Ġkabut":4599,"Ġarch":4600,"Ġsabot":4601,"Ġpresi":4602,"Ġpadal":4603,"Ġdirect":4604,"Ġdihar":4605,"Ġcorr":4606,"Ġwiki":4607,"ĠnÃ©angan":4608,"masi":4609,"pan":4610,"jib":4611,"Ġobat":4612,"Ġprovin":4613,"Ġharga":4614,"Ġairport":4615,"akilan":4616,"Ġtarjam":4617,"Ġbentukna":4618,"Ġsmall":4619,"enal":4620,"Øª":4621,"Ġì":4622,"Ã©on":4623,"Ġbd":4624,"uru":4625,"antu":4626,"Ġmultip":4627,"Ġappro":4628,"Ġexpress":4629,"hul":4630,"ĠtÃ©l":4631,"Ġjay":4632,"rich":4633,"Ġsabalikna":4634,"Ġtran":4635,"Ġakhir":4636,"Ġngagabung":4637,"Ġsamentara":4638,"Ġpuluh":4639,"Ġtanaga":4640,"Ġtangkalna":4641,"Ġswitch":4642,"Ġingon":4643,"Ġlampung":4644,"Ġketua":4645,"Ġlimit":4646,"Ġsociety":4647,"bal":4648,"Ġengk":4649,"ark":4650,"Ġtu":4651,"Ġtest":4652,"Ġsint":4653,"Ġsebutan":4654,"Ġpng":4655,"aton":4656,"Ġdioperasikeun":4657,"Ġcali":4658,"Ġformal":4659,"Ġspesi":4660,"Ġpolitik":4661,"ordan":4662,"Ġfaktor":4663,"Ġningkat":4664,"Ġuj":4665,"Ġcup":4666,"Ġngalaksanakeun":4667,"Ã©sis":4668,"Ġjerona":4669,"Ġincluding":4670,"yangan":4671,"Ġtet":4672,"Ġnarajang":4673,"araja":4674,"Ġngaliwat":4675,"Ġlegana":4676,"ross":4677,"Ġlokomo":4678,"Ġnuklir":4679,"Ġtransportasi":4680,"Ä«":4681,"Ġsuh":4682,"Ġsemp":4683,"eda":4684,"Ġwhile":4685,"Ġngarebut":4686,"Ġtransport":4687,"Ġditambah":4688,"Ġmicha":4689,"ering":4690,"Ġcel":4691,"Ġrib":4692,"edi":4693,"eurkeun":4694,"alikeun":4695,"Ġumat":4696,"aksud":4697,"Ġekonomi":4698,"Ġbeuteung":4699,"Ġmr":4700,"Ġmong":4701,"Ġlight":4702,"ĠrÃ©b":4703,"Ġgaw":4704,"Ġkabagi":4705,"Ġorder":4706,"Ġtour":4707,"Ġdisk":4708,"Ġbeing":4709,"ĠÃ©lmuwan":4710,"Ġeksp":4711,"Ġdevelopment":4712,"Ġkro":4713,"Ġsara":4714,"Ġkaler":4715,"ters":4716,"Ġarj":4717,"Ġupama":4718,"Ġimport":4719,"fÃ©ktur":4720,"Ġdomain":4721,"Ġkakaisaran":4722,"Ġindepend":4723,"Ð¾":4724,"Ġsmp":4725,"Ġdugi":4726,"Ġbre":4727,"ole":4728,"pong":4729,"Ġmalayu":4730,"fornia":4731,"ĠhatÃ©":4732,"Ġpasti":4733,"Ġkhalid":4734,"mis":4735,"Ø³":4736,"Ġcu":4737,"Ġlump":4738,"ulation":4739,"ĠmÃ©dan":4740,"Ġtatar":4741,"Ġlanguages":4742,"Ġocc":4743,"ĠmÃ©nta":4744,"eundeun":4745,"Ġtand":4746,"stan":4747,"akana":4748,"Ġgm":4749,"Ġperlu":4750,"Ġnyer":4751,"Ġdibawa":4752,"itor":4753,"Ġthomas":4754,"kaid":4755,"ibatkeun":4756,"Ġsasak":4757,"Ġpandawa":4758,"Ġmangrupikeun":4759,"Ġbacaan":4760,"wijaya":4761,"ĠÃ©ksprÃ©s":4762,"Ġsaint":4763,"ungguhan":4764,"Ġsinar":4765,"Ġkutoarjo":4766,"ost":4767,"Ġtembang":4768,"Ġbata":4769,"akh":4770,"Ġcri":4771,"ajan":4772,"Ġkawin":4773,"Ġvs":4774,"Ġamis":4775,"opat":4776,"Ġsajumlah":4777,"Ġbuil":4778,"Ġcomputer":4779,"Ġgerman":4780,"ijakan":4781,"Ġbeungkeut":4782,"Ġpublic":4783,"Ġalkohol":4784,"Ġkelirna":4785,"Ġsatengah":4786,"cle":4787,"tv":4788,"yl":4789,"Ġkang":4790,"Ġmend":4791,"adu":4792,"akaan":4793,"apat":4794,"omÃ©ter":4795,"uddin":4796,"ĠvÃ©rsi":4797,"Ġnyadiakeun":4798,"Ġeta":4799,"Ġbiologi":4800,"Ġliar":4801,"Ġorganisme":4802,"Ġpribadi":4803,"Ġbranch":4804,"ound":4805,"Ġtamp":4806,"akon":4807,"eni":4808,"Ġpangeusi":4809,"ists":4810,"Ġparl":4811,"Ġpasant":4812,"amanan":4813,"Ġorganik":4814,"Ġdipercaya":4815,"Ġpublish":4816,"Ġestim":4817,"Ġlengkepna":4818,"Ġfebruary":4819,"ket":4820,"tÃ©ri":4821,"wana":4822,"yar":4823,"Ðµ":4824,"arin":4825,"Ġbus":4826,"Ġcong":4827,"agana":4828,"ender":4829,"Ġcond":4830,"Ġsever":4831,"ĠmÃ©dia":4832,"Ġpurwakarta":4833,"Ġpabrik":4834,"Ġparanti":4835,"Ġgiven":4836,"Ġpertanian":4837,"Ġmg":4838,"Ġpm":4839,"Ġdw":4840,"Ġchem":4841,"Ġgej":4842,"Ġdalapan":4843,"Ġsusu":4844,"ential":4845,"Ġindivid":4846,"Ġphilos":4847,"Ġswedish":4848,"ls":4849,"ĠÃ©m":4850,"Ġpay":4851,"Ġdh":4852,"Ġjak":4853,"olia":4854,"Ġstasiun":4855,"Ġmass":4856,"ehna":4857,"ĠprÃ©fÃ©ktur":4858,"ys":4859,"Ġdki":4860,"enting":4861,"ĠcrÃ©":4862,"Ġlawan":4863,"asari":4864,"Ġkawih":4865,"Ġyam":4866,"Ġditangtukeun":4867,"Ġkomun":4868,"Ġadv":4869,"Ġkanji":4870,"Ġhistori":4871,"Ġspecial":4872,"Ġbecause":4873,"Ġjudulna":4874,"lina":4875,"Ġsug":4876,"tay":4877,"Ġthough":4878,"epan":4879,"Ġlast":4880,"iring":4881,"Ġext":4882,"ĠÃ©nÃ©rgi":4883,"Ġblue":4884,"Ġtaiwan":4885,"Ġgifu":4886,"cayaan":4887,"ÉĻ":4888,"Ġmala":4889,"Ġjack":4890,"Ġjordan":4891,"akuan":4892,"andingan":4893,"Ġbeub":4894,"Ġmataram":4895,"aksana":4896,"Ġprofil":4897,"Ġtype":4898,"face":4899,"Ġdivisi":4900,"sible":4901,"Ġhamb":4902,"Ġtheory":4903,"Ġsarjana":4904,"Ġyud":4905,"Ġmajal":4906,"Ġrepubl":4907,"Ġhuntu":4908,"Ġmula":4909,"Ġsya":4910,"Ġdol":4911,"Ġanta":4912,"itusi":4913,"ungkinan":4914,"Ġjumlahna":4915,"Ġlaporan":4916,"Ġsingapura":4917,"Ġpbb":4918,"Ġaudi":4919,"ĠsÃ©n":4920,"ats":4921,"Ġcop":4922,"ĠhÃ©r":4923,"Ġste":4924,"angkit":4925,"ĠdÃ©wa":4926,"Ġkorea":4927,"Ġgeorge":4928,"Ġlink":4929,"Ġclassi":4930,"Ġmuch":4931,"Ġview":4932,"rown":4933,"Ġsadaya":4934,"Ġmichael":4935,"oy":4936,"à¦":4937,"Ġè":4938,"Ġug":4939,"ĠÅį":4940,"Ġpeter":4941,"Ġduk":4942,"ukaan":4943,"Ġorok":4944,"eder":4945,"ahanan":4946,"Ġbeus":4947,"Ġnyaho":4948,"ĠproyÃ©k":4949,"ĠacÃ©h":4950,"Ġditur":4951,"Ġkating":4952,"Ġhasilna":4953,"ĠgÃ©ografi":4954,"Ġulama":4955,"Ġguide":4956,"Ġtugu":4957,"igireun":4958,"jar":4959,"Ġmingpin":4960,"Ġpsik":4961,"Ã©nkeun":4962,"asih":4963,"Ġperusahaan":4964,"laim":4965,"Ġmajor":4966,"ĠviÃ©t":4967,"Ġdijual":4968,"Ġcharles":4969,"Ġblok":4970,"Ġbukti":4971,"ĠkomponÃ©n":4972,"ÑĢ":4973,"adilan":4974,"Ġatmos":4975,"Ã©mbong":4976,"Ġbudd":4977,"Ġmakam":4978,"ografis":4979,"Ġnurunkeun":4980,"Ġcalon":4981,"Ġhadiah":4982,"eing":4983,"alang":4984,"Ġhous":4985,"Ġod":4986,"edalkeun":4987,"ilingan":4988,"Ġvac":4989,"ubungkeun":4990,"ĠsÃ©j":4991,"Ġumar":4992,"Ġresist":4993,"Ġdikal":4994,"Ġmeny":4995,"lobana":4996,"Ġindian":4997,"Ñģ":4998,"Ã©ja":4999,"Ġkuk":5000,"Ġrp":5001,"Ġhamp":5002,"Ġtih":5003,"ebah":5004,"Ġkalah":5005,"Ġnab":5006,"Ġakt":5007,"ĠmaÃ©han":5008,"Ġberb":5009,"Ġpadang":5010,"Ġreport":5011,"Ġwadah":5012,"Ġmantuan":5013,"ĠkÃ©":5014,"Ġtog":5015,"Ġbidang":5016,"Ġngatur":5017,"Ġistana":5018,"Ġparahyangan":5019,"Ġtonggong":5020,"Ġrichard":5021,"ru":5022,"Ġatas":5023,"Ġjour":5024,"Ġnada":5025,"Ġmahluk":5026,"Ġmasy":5027,"Ġsering":5028,"Ġcahya":5029,"Ġkhalifah":5030,"Ġlokomotip":5031,"tuna":5032,"Ġmasa":5033,"Ġhok":5034,"ulna":5035,"ĠsarÃ©":5036,"Ġmalik":5037,"Ġdimaksud":5038,"Ġmenit":5039,"Ġalamat":5040,"ingpinan":5041,"Ġirlandia":5042,"Ġngarojong":5043,"rÃ©si":5044,"Ġtemb":5045,"Ġpaka":5046,"atik":5047,"ones":5048,"Ġcit":5049,"Ġlahan":5050,"Ġrag":5051,"Ġtilar":5052,"diri":5053,"Ġpanglobana":5054,"Ġkarangan":5055,"antÃ©":5056,"Ġkaputusan":5057,"Ġnepikeun":5058,"Ġditempo":5059,"Ġkomo":5060,"Ġcairan":5061,"Ġjabatan":5062,"Ġakademi":5063,"Ġnyingkahan":5064,"Ġjej":5065,"eria":5066,"Ġrh":5067,"Ġrut":5068,"ington":5069,"Ġalp":5070,"ecti":5071,"Ġarus":5072,"Ġsabagian":5073,"Ġsoekar":5074,"Ġsirah":5075,"Ġteknologi":5076,"Ġhttps":5077,"Ġibukota":5078,"Ġaktris":5079,"sor":5080,"ason":5081,"Ġkawijakan":5082,"Ġyah":5083,"Ġpoland":5084,"Ġkamungkinan":5085,"ights":5086,"Ġmelayu":5087,"ergy":5088,"Ġlibr":5089,"Ġromania":5090,"wisata":5091,"Ġgejala":5092,"rus":5093,"eulana":5094,"ĠtÃ©a":5095,"Ġtatu":5096,"Ġdian":5097,"Ġceuk":5098,"Ġlas":5099,"Ġprinc":5100,"Ġleupas":5101,"ĠsÃ©sa":5102,"Ġkertas":5103,"Ġnegara":5104,"berg":5105,"ras":5106,"Ã©ak":5107,"Ġdna":5108,"Ġdiag":5109,"enna":5110,"Ġhip":5111,"Ġhulu":5112,"iscus":5113,"omet":5114,"Ġageman":5115,"Ġdidahar":5116,"Ġjangkung":5117,"Ġpresent":5118,"Ġbroadcast":5119,"rob":5120,"Ġluc":5121,"Ġkaping":5122,"Ġspam":5123,"Ġsoft":5124,"Ġterb":5125,"Ġintrod":5126,"Ġsangu":5127,"Ġcapac":5128,"zed":5129,"Ġkadi":5130,"Ġjuj":5131,"olongkeun":5132,"Ġpangeran":5133,"Ġcoul":5134,"umpulkeun":5135,"Ġistri":5136,"Ġbasajan":5137,"Ġkimi":5138,"Ġviet":5139,"Ġaustria":5140,"Ġassociation":5141,"Ġsifat":5142,"likasi":5143,"Ġhu":5144,"Ġgala":5145,"Ġminangk":5146,"ampur":5147,"Ġusually":5148,"Ġdef":5149,"Ġpadum":5150,"ĠpotÃ©nsi":5151,"Ġpariwisata":5152,"Ġkonstitusi":5153,"ĠsÃ©jÃ©na":5154,"bon":5155,"Ġbit":5156,"Ġbintang":5157,"Ġlil":5158,"edÃ©":5159,"olik":5160,"isk":5161,"unah":5162,"Ġrest":5163,"ropol":5164,"Ġoperator":5165,"pus":5166,"ĠmÃ©ta":5167,"app":5168,"Ġfal":5169,"Ġpred":5170,"Ġakib":5171,"ĠÃ©ast":5172,"Ġngawih":5173,"Ġtangga":5174,"idangkeun":5175,"Ġeven":5176,"Ġhormon":5177,"Ġpopulation":5178,"Ġrayon":5179,"Ġarjuna":5180,"Ġbara":5181,"Ġbamb":5182,"Ġjah":5183,"Ġthem":5184,"elaskeun":5185,"Ġpasagi":5186,"Ġsahingga":5187,"vely":5188,"Ġpalastra":5189,"holm":5190,"eron":5191,"kir":5192,"Ġton":5193,"Ġmina":5194,"alin":5195,"Ġlip":5196,"Ã©nan":5197,"Ġinj":5198,"Ġmangaruhan":5199,"Ġpanulis":5200,"Ġnyeb":5201,"Ġindo":5202,"antum":5203,"Ġpoly":5204,"Ġboeing":5205,"Ġkakara":5206,"till":5207,"Ġsirk":5208,"Ġyay":5209,"Ġtext":5210,"Ġkapercayaan":5211,"Ġdirobah":5212,"Ġilmiah":5213,"Ġax":5214,"Ġlic":5215,"Ġhanj":5216,"Ġgap":5217,"olot":5218,"angkung":5219,"Ġmalahan":5220,"Ġsurya":5221,"Ġrepres":5222,"Ġkuno":5223,"Ġngalakonan":5224,"Ġstudy":5225,"ĠpasantrÃ©n":5226,"Ġmenc":5227,"Ġded":5228,"Ġlod":5229,"Ġfos":5230,"Ġkalungguhan":5231,"other":5232,"ants":5233,"Ġconver":5234,"Ġpalebah":5235,"Ġotot":5236,"Ġwikipedia":5237,"Ġislands":5238,"Ġbangkong":5239,"Ġhabit":5240,"Ġpit":5241,"Ġpeg":5242,"Ġpena":5243,"Ġdz":5244,"rot":5245,"umah":5246,"okan":5247,"Ġchang":5248,"Ġenergy":5249,"Ġpajeg":5250,"Ġkagunaan":5251,"Ġgusti":5252,"Ġkacapi":5253,"ĠrÃ©ferÃ©nsi":5254,"jat":5255,"Ġtub":5256,"Ġbitu":5257,"Ġcase":5258,"anggu":5259,"Ġsaluyu":5260,"Ġadam":5261,"ansen":5262,"Ġsyn":5263,"Ġvietnam":5264,"ĠÅ":5265,"agung":5266,"Ġnatural":5267,"ophy":5268,"ampak":5269,"Ġaktivitas":5270,"ĠswÃ©dia":5271,"Ġgood":5272,"Ġtekenan":5273,"Ġraden":5274,"ultanan":5275,"Ġsquar":5276,"Ġkabutuhan":5277,"Ġsv":5278,"Ġpid":5279,"atori":5280,"Ġngarah":5281,"Ġfish":5282,"Ġmartin":5283,"Ġalf":5284,"Ġaman":5285,"Ġcho":5286,"view":5287,"Ġanjeuna":5288,"ginal":5289,"Ġfrank":5290,"Ġfour":5291,"Ġjava":5292,"Ġskala":5293,"Ġjawara":5294,"Ġinstitut":5295,"ĠviÃ©tnam":5296,"gen":5297,"Ġenc":5298,"Ġpse":5299,"Ġbutan":5300,"Ġdiaj":5301,"Ġdibeul":5302,"sium":5303,"ulang":5304,"umul":5305,"Ġawards":5306,"Ġdibentuk":5307,"Ġmilik":5308,"Ġallow":5309,"Ġcalifornia":5310,"Ġdon":5311,"Ġdet":5312,"Ġnginum":5313,"ept":5314,"Ġvoc":5315,"Ġcontain":5316,"Ã©ngÃ©":5317,"Ġkadu":5318,"Ġmill":5319,"Ġtelek":5320,"Ġlove":5321,"Ġsite":5322,"Ġvoltage":5323,"Ġhyd":5324,"Ġpahlawan":5325,"Ġprinsip":5326,"Ġpakait":5327,"dom":5328,"Ġeg":5329,"Ġmeta":5330,"atuan":5331,"elasan":5332,"Ġmarad":5333,"ĠbaktÃ©ri":5334,"Ġkamus":5335,"ichi":5336,"Ġaccess":5337,"Ġadministrasi":5338,"Ġhibiscus":5339,"Ġseveral":5340,"cul":5341,"sus":5342,"Ġmach":5343,"Ġpra":5344,"ander":5345,"ront":5346,"choc":5347,"iwangi":5348,"Ġmenjadi":5349,"Ġleft":5350,"Ġajaran":5351,"Ġanalysis":5352,"zu":5353,"ĠÕ":5354,"Ġbima":5355,"Ġhil":5356,"umen":5357,"Ġkawasan":5358,"Ġsour":5359,"Ġvarian":5360,"Ġstruc":5361,"ĠpÃ©rsia":5362,"Ġintegral":5363,"ĠbangladÃ©s":5364,"ĠrangkÃ©an":5365,"Ġmaradona":5366,"bs":5367,"cin":5368,"uti":5369,"adag":5370,"tingg":5371,"Ġgsm":5372,"oli":5373,"Ã©basan":5374,"Ġroyal":5375,"Ġdisabab":5376,"Ġspir":5377,"tual":5378,"tures":5379,"Ġtimes":5380,"Ġgumelar":5381,"Ġkecamatan":5382,"Ġmasyarakat":5383,"af":5384,"air":5385,"Ġbun":5386,"rosa":5387,"Ġnic":5388,"Ġrin":5389,"landa":5390,"iksi":5391,"rain":5392,"Ġprem":5393,"Ġkapilih":5394,"Ġkasultanan":5395,"Ġsapuluh":5396,"Ġshort":5397,"Ġaddi":5398,"ĠÃ©st":5399,"ector":5400,"Ġmusic":5401,"izi":5402,"Ġill":5403,"Ġspecies":5404,"posisi":5405,"Ġngembang":5406,"Ġgil":5407,"etkeun":5408,"lot":5409,"Ġunik":5410,"Ġvic":5411,"itis":5412,"Ġdani":5413,"Ġmetal":5414,"Ġpenyanyi":5415,"okolakeun":5416,"ress":5417,"Ġkemb":5418,"Ġbell":5419,"Ġflo":5420,"arai":5421,"Ġpip":5422,"asifikasi":5423,"Ġtoy":5424,"sions":5425,"Ġbijil":5426,"Ġadd":5427,"asilitas":5428,"sonan":5429,"Ġsoekarno":5430,"my":5431,"sen":5432,"Ġbend":5433,"Ġditar":5434,"ahi":5435,"Ġdipak":5436,"ĠdigawÃ©":5437,"lav":5438,"Ġdewi":5439,"Ġbungbuahan":5440,"Ġnyaritakeun":5441,"Ġgalax":5442,"Ġtelekomunikasi":5443,"Ġkill":5444,"Ġpaw":5445,"Ġbill":5446,"Ġget":5447,"uhuran":5448,"Ġditand":5449,"ĠÃ©p":5450,"ĠpagawÃ©":5451,"Ġlou":5452,"Ġdataran":5453,"Ġsweden":5454,"Ġaudio":5455,"Ġdikaluarkeun":5456,"arana":5457,"Ġmim":5458,"Ġson":5459,"Ġpy":5460,"Ġls":5461,"Ġganti":5462,"Ġwi":5463,"Ġpig":5464,"tarus":5465,"ote":5466,"Ġradiasi":5467,"Ġsiliwangi":5468,"Ġmischoc":5469,"ĠÙĪÙĨ":5470,"Ġinstitute":5471,"Ġmischocyt":5472,"br":5473,"luan":5474,"Åĭ":5475,"Ġdikaw":5476,"Ġkonsonan":5477,"Ġdikenal":5478,"Ġkorban":5479,"Ġjeruk":5480,"Ġcountry":5481,"Ġmatematika":5482,"Ġditurunkeun":5483,"Ġmischocyttarus":5484,"dy":5485,"ove":5486,"eub":5487,"are":5488,"Ġmig":5489,"Ġsans":5490,"ado":5491,"Ġheur":5492,"uto":5493,"Ġminton":5494,"long":5495,"eureuh":5496,"Ġkasar":5497,"Ġkondisi":5498,"Ġngawasa":5499,"Ġsiaran":5500,"Ġsampel":5501,"Ġformula":5502,"Ġsimbol":5503,"Ġrepublic":5504,"lÃ©t":5505,"Ġbund":5506,"ror":5507,"Ġnumb":5508,"Ġnow":5509,"tag":5510,"Ġhom":5511,"Ġnganc":5512,"Ġanother":5513,"ullah":5514,"Ġguha":5515,"agangan":5516,"Ġnyeg":5517,"Ġkarasa":5518,"Ġdisco":5519,"vest":5520,"Ġprovinsi":5521,"az":5522,"eti":5523,"ping":5524,"Ġdy":5525,"alu":5526,"Ġirak":5527,"akna":5528,"Ġkaamanan":5529,"rial":5530,"Ġmahk":5531,"Ġash":5532,"raft":5533,"Ġbiola":5534,"uck":5535,"ĠdÃ©w":5536,"Ġplace":5537,"Ġmaterial":5538,"ograph":5539,"Ġjuly":5540,"Ġjoseph":5541,"Ġminangkab":5542,"zil":5543,"Ġml":5544,"anga":5545,"Ġrc":5546,"Ġrasi":5547,"Ġrasana":5548,"Ġkaterangan":5549,"ãģ®":5550,"ĠargÃ©n":5551,"Ġlaras":5552,"Ġcountries":5553,"Ġdulur":5554,"wu":5555,"Ġkata":5556,"atih":5557,"Ġraks":5558,"Ġvon":5559,"oth":5560,"ott":5561,"Ġprovid":5562,"Ġbrasil":5563,"Ġcorpor":5564,"Ġdangd":5565,"Ġmoham":5566,"Ġtes":5567,"Ġdpr":5568,"Ġgajah":5569,"apor":5570,"Ġnutur":5571,"elis":5572,"Ġpanj":5573,"Ġperl":5574,"Ġpangan":5575,"esian":5576,"Ġmedal":5577,"Ġklasifikasi":5578,"Ġsamping":5579,"ilitas":5580,"Ġsimil":5581,"Ġwawacan":5582,"Ġbaju":5583,"Ġstockholm":5584,"Ġimportant":5585,"ĠargÃ©ntina":5586,"gest":5587,"ues":5588,"Ġmakan":5589,"Ġbeng":5590,"Ġliter":5591,"Ġrute":5592,"ried":5593,"Ġalum":5594,"Ġalesan":5595,"Ġaslina":5596,"oso":5597,"Ġprancis":5598,"imbangan":5599,"Ġhiburan":5600,"Ġgugur":5601,"Ġrasul":5602,"Ġeconomic":5603,"Ġkristen":5604,"Ġmadiun":5605,"lang":5606,"orm":5607,"sim":5608,"Ġcag":5609,"Ã©ka":5610,"pos":5611,"Ġart":5612,"alisis":5613,"Ġmusim":5614,"Ġtele":5615,"eungitkeun":5616,"Ġmicro":5617,"ĠsapopoÃ©":5618,"Ġminangkabau":5619,"ĠdÃ©n":5620,"entif":5621,"Ġrul":5622,"urunan":5623,"Ġflu":5624,"ille":5625,"Ġbaluk":5626,"Ġimam":5627,"Ġdikur":5628,"eupaskeun":5629,"Ġfood":5630,"Ġmei":5631,"Ġwawatesan":5632,"Ġkusabab":5633,"ĠmÃ©kan":5634,"Ġnuturkeun":5635,"oo":5636,"par":5637,"uum":5638,"uel":5639,"Ġdaw":5640,"Ġhij":5641,"ether":5642,"Ġkaluhuran":5643,"Ġkaryana":5644,"Ġprac":5645,"Ġsupport":5646,"Ġjelas":5647,"Ġdiperlukeun":5648,"ĠmÃ©ans":5649,"Ġdescrib":5650,"Ġatlantik":5651,"Ġyayasan":5652,"king":5653,"krip":5654,"Ġfasilitas":5655,"Ġinterval":5656,"Ġspeed":5657,"ational":5658,"Ġwhite":5659,"itual":5660,"Ġdimekarkeun":5661,"Ġmerlukeun":5662,"ĠincrÃ©":5663,"Ġlukisan":5664,"Ġmuncul":5665,"ropolitan":5666,"com":5667,"ood":5668,"Ã¥":5669,"ĠmÃ©h":5670,"Ġpungsi":5671,"Ġcode":5672,"Ġran":5673,"Ġgan":5674,"Ġfe":5675,"esmi":5676,"ajÃ©n":5677,"Ġvul":5678,"Ġforce":5679,"Ġditemp":5680,"Ġditarima":5681,"ĠpaÃ©h":5682,"Ġgreat":5683,"onsumsi":5684,"Ġtinimbang":5685,"Ġperkara":5686,"Ġanimasi":5687,"Ġlempeng":5688,"Ġlevel":5689,"Ð¸":5690,"Ġada":5691,"Ġig":5692,"adat":5693,"oni":5694,"Ġcin":5695,"Ġless":5696,"ĠlÃ©mp":5697,"Ġnyaeta":5698,"Ġnyump":5699,"Ġcharac":5700,"Ġmusieum":5701,"ization":5702,"Ġsipatna":5703,"Ġappl":5704,"times":5705,"Ġparahu":5706,"ĠtÃ©ritori":5707,"Ġkopi":5708,"Ġtechnology":5709,"cc":5710,"ĠbÃ©l":5711,"rof":5712,"tab":5713,"Ġgizi":5714,"Ġaround":5715,"ege":5716,"Ġpram":5717,"Ġlalakon":5718,"Ġmaju":5719,"Ġmont":5720,"Ġrepublik":5721,"Ġsometimes":5722,"Ġversi":5723,"ĠradÃ©n":5724,"Ġkw":5725,"Ġdek":5726,"Ġjac":5727,"enth":5728,"Ġpantun":5729,"Ġkabar":5730,"Ġevery":5731,"Ġibadah":5732,"ĠpakÃ©an":5733,"Ġkembangna":5734,"Ġabdullah":5735,"ography":5736,"Ġngomong":5737,"vis":5738,"Ġmemp":5739,"side":5740,"Ġcable":5741,"Ġgir":5742,"Ġtiong":5743,"utu":5744,"Ġthose":5745,"Ġkabel":5746,"Ġkawah":5747,"acy":5748,"egoro":5749,"Ġkaruhun":5750,"ĠspÃ©kt":5751,"ester":5752,"Ġkanker":5753,"Ġgubeng":5754,"Ġsoftware":5755,"Ġtelevision":5756,"day":5757,"zation":5758,"Ġnig":5759,"ordina":5760,"Ġlon":5761,"Ġley":5762,"Ġhum":5763,"ujuan":5764,"Ġproject":5765,"anto":5766,"Ġkatakana":5767,"ĠdÃ©pok":5768,"Ġexc":5769,"Ġbabak":5770,"Ġtransmit":5771,"ãĥ³":5772,"Ġdihandap":5773,"Ġwash":5774,"ĠÃ©nzim":5775,"Ġstatistical":5776,"Ġbiru":5777,"orgia":5778,"iwa":5779,"lung":5780,"Ġkin":5781,"Ġsn":5782,"Ġbib":5783,"Ġcenah":5784,"osh":5785,"Ġdibar":5786,"Ġagain":5787,"Ġmuatan":5788,"Ġgurat":5789,"Ġfunctions":5790,"arch":5791,"ĠtÃ©t":5792,"ahoan":5793,"Ġhung":5794,"Ġgp":5795,"Ġwang":5796,"Ġinuman":5797,"ength":5798,"uduk":5799,"Ġdipind":5800,"Ġters":5801,"ĠbandÃ©ra":5802,"Ġdrum":5803,"Ġsmk":5804,"Ġformat":5805,"deka":5806,"Ġolimpi":5807,"ou":5808,"well":5809,"Ġjarang":5810,"Ġkaopat":5811,"yaan":5812,"abut":5813,"Ġkawangun":5814,"Ã©ntrÃ©":5815,"Ġvisi":5816,"ohan":5817,"Ġairways":5818,"Ġtransl":5819,"Ġsubang":5820,"Ġpadet":5821,"Ġcommuter":5822,"ĠtÃ©knik":5823,"Ġipis":5824,"Ġshink":5825,"gar":5826,"opo":5827,"tatif":5828,"Ġsump":5829,"Ġbp":5830,"Ġcamb":5831,"Ġlag":5832,"Ã©ktor":5833,"epkeun":5834,"Ġflor":5835,"hoa":5836,"Ġsayuran":5837,"upaning":5838,"Ġservices":5839,"gs":5840,"ilan":5841,"tori":5842,"Ð½":5843,"Ġmara":5844,"Ġdc":5845,"ĠdÃ©k":5846,"Ġcand":5847,"Ġgin":5848,"Ġws":5849,"ances":5850,"Ġdetik":5851,"ological":5852,"Ġseniman":5853,"Ġmodern":5854,"Ġpupuh":5855,"Ġsriwijaya":5856,"Ġtransformers":5857,"ĠpÃ©riode":5858,"Ġhiragana":5859,"Ġarticle":5860,"Ġsimilar":5861,"mus":5862,"Ġá®":5863,"īĦ":5864,"Ġmungkin":5865,"ales":5866,"Ġdirek":5867,"uruh":5868,"engka":5869,"ĠkuÃ©h":5870,"Ġperform":5871,"Ġchin":5872,"Ġdigambarkeun":5873,"eror":5874,"ĠÃ©lÃ©h":5875,"Ġstatistics":5876,"Ġkaribia":5877,"Ġmanggarai":5878,"Ġtumuwuhna":5879,"Ġinclude":5880,"Ġtugas":5881,"Ġjatin":5882,"dana":5883,"ukung":5884,"Ġnung":5885,"ions":5886,"Ġpamanggih":5887,"vers":5888,"Ġquan":5889,"Ġkahayang":5890,"Ġningali":5891,"angsaan":5892,"Ġrugbi":5893,"Ġgmr":5894,"Ġmere":5895,"Ġss":5896,"Ġpunah":5897,"Ġlek":5898,"Ġgor":5899,"Ġprix":5900,"Ġnyimp":5901,"Ġdipib":5902,"Ġbiografi":5903,"Ġqs":5904,"Ġtraditional":5905,"Ġpelesi":5906,"Ġblitar":5907,"Ġmobile":5908,"Ġtravel":5909,"Ġkaperluan":5910,"Ġjune":5911,"Ġningkatkeun":5912,"dam":5913,"gr":5914,"euj":5915,"Ġmir":5916,"Ġdomba":5917,"Ġnemp":5918,"Ġcn":5919,"Ġlangka":5920,"Ġgy":5921,"itz":5922,"Ġroma":5923,"Ġsalak":5924,"ips":5925,"Ġawalna":5926,"Ġbuuk":5927,"Ġteleph":5928,"Ġmuseum":5929,"Ġdoes":5930,"Ġmajapah":5931,"Ġcolumb":5932,"Ġgluk":5933,"Ġjawab":5934,"Ġpolandia":5935,"Ġmajapahit":5936,"ration":5937,"wak":5938,"ÙĤ":5939,"éīĦ":5940,"atika":5941,"ids":5942,"Ġlingu":5943,"andar":5944,"Ġabb":5945,"Ġbefore":5946,"erita":5947,"resna":5948,"ĠÃ©tnis":5949,"Ġkanyahoan":5950,"Ġmanajemen":5951,"Ġkasalahan":5952,"Ġcould":5953,"Ġnyegah":5954,"iar":5955,"yod":5956,"Ġara":5957,"Ġkip":5958,"Ġnick":5959,"Ġdiuk":5960,"orna":5961,"Ġrup":5962,"uss":5963,"Ġfut":5964,"andaran":5965,"Ġaplikasi":5966,"Ġsalaw":5967,"Ġsaid":5968,"ends":5969,"Ġresear":5970,"ĠgÃ©ografis":5971,"ĠgarÃ©ja":5972,"Ġramat":5973,"Ġstatistika":5974,"Ġgagal":5975,"Ġoctober":5976,"Ġgugus":5977,"Ġlocal":5978,"ĠmÃ©ksiko":5979,"ĠparamÃ©ter":5980,"Ġnyanghareupan":5981,"Ġtionghoa":5982,"Ġshinkansen":5983,"mah":5984,"Ã©di":5985,"Ġtun":5986,"Ġsiti":5987,"Ġdog":5988,"alth":5989,"Ġjim":5990,"Ġry":5991,"ulung":5992,"Ġnuju":5993,"rium":5994,"icus":5995,"osom":5996,"Ġearth":5997,"Ġresour":5998,"Ġsubur":5999,"Ġmunic":6000,"ĠhidrogÃ©n":6001,"Ġprogramming":6002,"fÃ©ksi":6003,"Ġosaka":6004,"Ġpatalina":6005,"Ġwaditra":6006,"abarata":6007,"Ġalgor":6008,"ĠarkÃ©":6009,"Ġkatingali":6010,"Ġvacuum":6011,"Ġresearch":6012,"eff":6013,"kal":6014,"pati":6015,"Ġtas":6016,"Ġdiwanoh":6017,"Ġcod":6018,"uruk":6019,"eles":6020,"Ġfoto":6021,"ektur":6022,"Ġdisusun":6023,"Ġbalong":6024,"Ġtahta":6025,"Ġpandan":6026,"Ġpangbadag":6027,"ĠdepartemÃ©n":6028,"ĠsabagÃ©":6029,"ĠparlemÃ©n":6030,"Ġjournal":6031,"heung":6032,"vir":6033,"Ġbuj":6034,"olf":6035,"Ġwel":6036,"Ġfase":6037,"ĠkarÃ©t":6038,"Ġstab":6039,"ĠÃ©disi":6040,"iwatan":6041,"ext":6042,"Ġarabia":6043,"Ġscand":6044,"Ġsampling":6045,"Ġpajajaran":6046,"Ġtalaga":6047,"Ġlajeng":6048,"Ġperiode":6049,"ĠpancÃ©n":6050,"Ġphysical":6051,"Ġgabungan":6052,"Ġdisababkeun":6053,"Ġpangbadagna":6054,"ghan":6055,"Ġkir":6056,"Ġmusa":6057,"Ġdah":6058,"Ġdiasupkeun":6059,"Ġngukur":6060,"Ġsakur":6061,"ective":6062,"Ġkaraton":6063,"Ġsastr":6064,"Ġgambaran":6065,"Ġprodus":6066,"Ġeduc":6067,"Ġampl":6068,"Ġgame":6069,"ĠthÃ©ory":6070,"Ġucing":6071,"Ġmunicip":6072,"ĠmÃ©r":6073,"Ġdri":6074,"Ġbusi":6075,"dion":6076,"Ġmahabarata":6077,"eutan":6078,"Ġgede":6079,"Ġsalapan":6080,"verage":6081,"Ġpass":6082,"Ġwithin":6083,"Ġmodulasi":6084,"ganistan":6085,"Ġbaheulana":6086,"Ġnorw":6087,"Ġgames":6088,"Ġkepala":6089,"Ġpeserta":6090,"Ġbantuan":6091,"Ġnyatakeun":6092,"can":6093,"sch":6094,"eunangan":6095,"Ġfram":6096,"Ġpanto":6097,"iko":6098,"ĠtÃ©hnologi":6099,"oksi":6100,"Ġtos":6101,"Ġstrat":6102,"Ġbelanda":6103,"ĠgÃ©ologi":6104,"ĠsuksÃ©s":6105,"ideo":6106,"Ġwatesan":6107,"Ġdensity":6108,"Ġmechan":6109,"Ġlanceuk":6110,"lik":6111,"Ġkent":6112,"ature":6113,"ahal":6114,"Ġcast":6115,"tia":6116,"atek":6117,"Ġfab":6118,"irkeun":6119,"los":6120,"Ġbeuheung":6121,"ambar":6122,"ĠpamakÃ©":6123,"Ġamino":6124,"Ġacak":6125,"Ġshi":6126,"Ġsatu":6127,"Ġphot":6128,"Ġevents":6129,"ĠmodÃ©ren":6130,"Ġngakibatkeun":6131,"Ġracun":6132,"Ġfollowing":6133,"we":6134,"Ùģ":6135,"éģ":6136,"Ã©ong":6137,"Ġsent":6138,"Ġdue":6139,"Ġlaun":6140,"Ġngant":6141,"Ġguna":6142,"ently":6143,"teran":6144,"Ġpangandaran":6145,"Ã©ling":6146,"Ġatt":6147,"Ġuses":6148,"Ġresi":6149,"Ġexist":6150,"ĠmÃ©d":6151,"Ġgerb":6152,"Ġprobabil":6153,"Ġneed":6154,"Ġfinlandia":6155,"ĠdongÃ©ng":6156,"etik":6157,"fo":6158,"hel":6159,"hana":6160,"rana":6161,"vy":6162,"Ġtacan":6163,"Ġava":6164,"iden":6165,"Ã©kat":6166,"Ġfol":6167,"Ġfif":6168,"tera":6169,"Ġnyar":6170,"ega":6171,"Ġditetepkeun":6172,"Ġkonv":6173,"mani":6174,"Ġselandia":6175,"Ġsurah":6176,"Ġfilipina":6177,"Ġpolim":6178,"Ġngadahar":6179,"Ġsumeb":6180,"Ġvarious":6181,"Ġsikina":6182,"Ġsepar":6183,"eureunkeun":6184,"Ġmelak":6185,"hyang":6186,"Ġrarangk":6187,"Ġlabor":6188,"Ġoriginal":6189,"Ġdvd":6190,"Ġpelesir":6191,"bar":6192,"fe":6193,"rÃ©s":6194,"Ġdipo":6195,"Ġled":6196,"Ġtimor":6197,"Ġfot":6198,"ico":6199,"Ġbeta":6200,"Ġcomb":6201,"Ġpilihan":6202,"Ġcollege":6203,"Ġkamerdika":6204,"Ġngagantikeun":6205,"Ġwashington":6206,"mud":6207,"oj":6208,"uangan":6209,"wah":6210,"Ġpapan":6211,"ador":6212,"Ġrr":6213,"Ġrang":6214,"Ġflow":6215,"ild":6216,"ogp":6217,"Ġarya":6218,"Ġexch":6219,"Ġmediter":6220,"Ġlee":6221,"wood":6222,"ridge":6223,"Ġmaksudna":6224,"Ġspesies":6225,"ÑĤ":6226,"Ġpatan":6227,"Ġdak":6228,"Ġbanda":6229,"orang":6230,"Ġly":6231,"Ġren":6232,"Ġtil":6233,"Ġnyicingan":6234,"ending":6235,"Ġstadion":6236,"Ġzona":6237,"Ġtulung":6238,"Ġngajabat":6239,"Ġsold":6240,"Ġbody":6241,"Ġlatihan":6242,"Ġukuranana":6243,"Ġmotogp":6244,"Ġmekah":6245,"Ġditambahan":6246,"Ġcounty":6247,"Ġsaatos":6248,"Ġsquare":6249,"Ġcharacter":6250,"Ġolimpiade":6251,"Ġsalawasna":6252,"Ġbusiness":6253,"wat":6254,"Ġtm":6255,"Ġmamp":6256,"Ġsr":6257,"Ġjuga":6258,"akus":6259,"enda":6260,"Ġcid":6261,"Ġhill":6262,"Ġngaku":6263,"ulik":6264,"amah":6265,"edug":6266,"Ġfon":6267,"Ġfeb":6268,"Ġkala":6269,"Ġcondi":6270,"Ġpenj":6271,"Ġkhus":6272,"Ġsampurna":6273,"unjul":6274,"Ġmikro":6275,"engkepan":6276,"Ġwestern":6277,"Ġpangkolot":6278,"ĠdiamÃ©ter":6279,"Ġmulai":6280,"Ġhabitat":6281,"oe":6282,"Ġsayang":6283,"Ġdp":6284,"ĠlÃ©ng":6285,"Ġnahan":6286,"Ġkabin":6287,"Ġperp":6288,"istic":6289,"ĠsaÃ©st":6290,"Ġcons":6291,"ĠngabÃ©dakeun":6292,"ella":6293,"Ġsemi":6294,"Ġhidrok":6295,"Ġulang":6296,"Ġupamana":6297,"orong":6298,"Ġtarik":6299,"book":6300,"Ġparticular":6301,"Ġngarilis":6302,"Ġhouse":6303,"Ġrepresent":6304,"Ġkrom":6305,"ĠtÃ©n":6306,"Ġmuk":6307,"Ġpun":6308,"ĠnÃ©ar":6309,"sts":6310,"Ġlad":6311,"Ġheun":6312,"Ġtiap":6313,"capan":6314,"Ġyaman":6315,"Ġproto":6316,"Ġmanuf":6317,"Ġpasam":6318,"Ġabove":6319,"Ġharta":6320,"Ġadonan":6321,"ĠÃ©arth":6322,"Ġref":6323,"ĠmakÃ©d":6324,"ĠgrÃ©at":6325,"Ġmunara":6326,"Ġvariasi":6327,"Ġngamekarkeun":6328,"Ġtarian":6329,"Ġkantong":6330,"Ġraraga":6331,"Ġdepartemen":6332,"ĠsaÃ©stuna":6333,"ez":6334,"anoh":6335,"Ġmeureun":6336,"Ġsina":6337,"aly":6338,"orem":6339,"Ġcre":6340,"Ġcipta":6341,"Ġlate":6342,"Ġhd":6343,"Ġgat":6344,"elah":6345,"imum":6346,"Ġrongg":6347,"ĠrÃ©volusi":6348,"Ġprec":6349,"ift":6350,"untungan":6351,"Ġsilat":6352,"Ġseperti":6353,"Ġsanghyang":6354,"Ġsadunya":6355,"Ġwood":6356,"romagn":6357,"Ġjenderal":6358,"Ġrequir":6359,"Ġmajalengka":6360,"Ġdiwanohkeun":6361,"Ġavail":6362,"ken":6363,"Ã§":6364,"Ä±":6365,"Ø©":6366,"Ġbakar":6367,"Ã©hi":6368,"Ġordo":6369,"eulis":6370,"ihar":6371,"Ġngahubungkeun":6372,"Ġlilana":6373,"Ġkurawa":6374,"Ġgaza":6375,"ĠtopÃ©ng":6376,"ĠfÃ©der":6377,"Ġbatavia":6378,"ĠlÃ©mpÃ©ng":6379,"Ġasian":6380,"Ġdeb":6381,"atis":6382,"ĠjÃ©nd":6383,"enanjung":6384,"Ġvis":6385,"Ġstre":6386,"Ġmanten":6387,"Ġkonf":6388,"Ġngahaja":6389,"Ġsatell":6390,"Ġevol":6391,"Ġdecember":6392,"Ġdisimp":6393,"burg":6394,"Ġchristian":6395,"Ġdihartikeun":6396,"kaidÅį":6397,"Ġquanti":6398,"cel":6399,"Ùĥ":6400,"Ġdhar":6401,"Ġneu":6402,"Ġdiaku":6403,"urn":6404,"usaha":6405,"elang":6406,"arasi":6407,"Ġbert":6408,"Ġtemper":6409,"Ġafghan":6410,"Ġpadahal":6411,"Ġsmith":6412,"Ġmadura":6413,"Ġpedaran":6414,"ĠÙĬÙĨ":6415,"Ġkeusik":6416,"esmikeun":6417,"ĠrarangkÃ©n":6418,"Ġpangkolotna":6419,"Ġkresna":6420,"Ġaji":6421,"Ġbaw":6422,"Ġbusan":6423,"aling":6424,"stein":6425,"akin":6426,"urat":6427,"ujuk":6428,"Ġalth":6429,"Ġkartu":6430,"Ġkapang":6431,"Ġaki":6432,"Ġakunt":6433,"Ġsawawa":6434,"Ġmodel":6435,"Ġdijieunna":6436,"Ġselat":6437,"ertos":6438,"Ġmulti":6439,"Ġamerica":6440,"Ġcacing":6441,"Ġpolitical":6442,"ĠmakÃ©donia":6443,"tes":6444,"Ã®":6445,"Ã©da":6446,"Ġtahan":6447,"Ġmaka":6448,"Ġrump":6449,"Ġngara":6450,"urg":6451,"Ġther":6452,"arian":6453,"Ã©kan":6454,"ĠfÃ©n":6455,"Ġsarat":6456,"Ġmanag":6457,"istiwa":6458,"ĠparÃ©ntah":6459,"ĠsÃ©oul":6460,"Ġsound":6461,"Ġresmina":6462,"Ġkarawang":6463,"Ġlintas":6464,"Ã©arch":6465,"Ġtahu":6466,"Ġlapangan":6467,"Ġpermukaan":6468,"Ġjatinegara":6469,"éģĵ":6470,"gia":6471,"Ġtaw":6472,"Ġmisi":6473,"ĠmÃ¡":6474,"Ġpoko":6475,"roh":6476,"Ġjama":6477,"Ġiron":6478,"adan":6479,"akerta":6480,"Ġciv":6481,"Ġhome":6482,"ison":6483,"esa":6484,"lok":6485,"Ġyear":6486,"Ġprote":6487,"Ġpangj":6488,"Ġngaleungitkeun":6489,"Ġsatwa":6490,"unggu":6491,"ĠpalÃ©st":6492,"ĠresÃ©arch":6493,"Ġpapanggih":6494,"Ġsocial":6495,"ĠkilomÃ©ter":6496,"Ġparantos":6497,"Ġmpec":6498,"Ġbuddha":6499,"ĠpalÃ©stina":6500,"get":6501,"hab":6502,"oa":6503,"Ã©sa":6504,"Ġmeuli":6505,"ery":6506,"Ġwon":6507,"Ġwong":6508,"Ġkarna":6509,"Ġpamik":6510,"Ġtempatna":6511,"Ġpupusna":6512,"Ġnambah":6513,"Ġfakultatif":6514,"Ġdipikaresep":6515,"Ġlampu":6516,"Ġrosul":6517,"Ġkutojaya":6518,"Ġpangalaman":6519,"Ġcdma":6520,"Ġpertama":6521,"Ġlodaya":6522,"med":6523,"pe":6524,"usia":6525,"win":6526,"Õ¡":6527,"Ġtumb":6528,"Ġpeuntas":6529,"Ġira":6530,"Ġlew":6531,"Ġanth":6532,"ures":6533,"ument":6534,"upuk":6535,"Ġinvest":6536,"Ã©ken":6537,"logi":6538,"Ġvideo":6539,"arancang":6540,"iau":6541,"bitkeun":6542,"Ġkarl":6543,"Ġacadem":6544,"Ġmean":6545,"Ġeks":6546,"Ġduryod":6547,"ariksa":6548,"ĠpopulÃ©r":6549,"Ġkingdom":6550,"Ġrubak":6551,"Ġafrica":6552,"Ġnumbers":6553,"ĠjÃ©ndral":6554,"Ġë":6555,"Ġungg":6556,"Ġdilan":6557,"stik":6558,"erus":6559,"Ġic":6560,"Ġiman":6561,"ench":6562,"Ġlisan":6563,"Ġhama":6564,"rim":6565,"ambangkeun":6566,"uce":6567,"Ġbatang":6568,"ĠÙĦ":6569,"Ġtanggung":6570,"Ġibnu":6571,"Ġrelations":6572,"Ġtepung":6573,"Ġyoung":6574,"urier":6575,"Ġsudut":6576,"Ġnorthern":6577,"ĠsapoÃ©":6578,"Ġkolonial":6579,"Ġmoment":6580,"Ġkamerdikaan":6581,"Ġalthough":6582,"arm":6583,"ĠnÃ©t":6584,"tail":6585,"Ġnganggap":6586,"utes":6587,"Ġkalsium":6588,"Ġasma":6589,"Ġindram":6590,"thers":6591,"Ġusul":6592,"Ġsea":6593,"Ġseoul":6594,"fied":6595,"Ġcolor":6596,"Ġcikamp":6597,"Ġmethods":6598,"kripsi":6599,"Ġdipindahkeun":6600,"lian":6601,"sana":6602,"Ã©um":6603,"Ġkanc":6604,"Ġau":6605,"Ġamal":6606,"Ġsis":6607,"Ġdos":6608,"atas":6609,"ataan":6610,"Ġnps":6611,"Ġnuluykeun":6612,"entos":6613,"ĠpanÃ©n":6614,"imia":6615,"okteran":6616,"Ġinteraksi":6617,"Ġyk":6618,"Ġnyekel":6619,"Ġprok":6620,"Ġsabaraha":6621,"ohid":6622,"Ġtransi":6623,"Ġnagari":6624,"Ġextr":6625,"Ġqat":6626,"Ġkoran":6627,"Ġboy":6628,"Ġraff":6629,"Ġedition":6630,"Ġmisah":6631,"Ġdesember":6632,"Ġhatta":6633,"Ġhaneut":6634,"Ġpossible":6635,"euwihan":6636,"Ġcocog":6637,"Ġkomunis":6638,"Ġakibat":6639,"Ġdibarengan":6640,"Ġnpsn":6641,"ftar":6642,"xim":6643,"ĠÃ©ra":6644,"ĠpakÃ©":6645,"Ġpingpinan":6646,"Ġdara":6647,"akm":6648,"akal":6649,"Ġhem":6650,"Ġwib":6651,"ories":6652,"irasi":6653,"loh":6654,"Ġsalt":6655,"Ġleump":6656,"ĠmasÃ©hi":6657,"Ġkomand":6658,"Ã©ngka":6659,"Ġngajalankeun":6660,"Ġfrancis":6661,"rict":6662,"Ġbase":6663,"Ġklub":6664,"Ġklasik":6665,"Ġtahap":6666,"Ġstudies":6667,"Ġnembongkeun":6668,"Ġcontinu":6669,"Ġmintonkeun":6670,"Ġduryodana":6671,"Ġency":6672,"Ġstill":6673,"Ġpitu":6674,"Ġpoto":6675,"Ġjas":6676,"Ġhasan":6677,"Ġwaris":6678,"Ġgedung":6679,"ugu":6680,"Ġkatolik":6681,"Ġzaman":6682,"Ġresp":6683,"Ġresul":6684,"Ġcoast":6685,"Ġibing":6686,"Ġsiklon":6687,"Ġtake":6688,"Ġkampus":6689,"Ġstudio":6690,"Ġjangjang":6691,"Ġconsidered":6692,"ĠsawarÃ©h":6693,"ĠÃ©arly":6694,"Ġhistorical":6695,"Ġyahudi":6696,"ĠmÃ©tabol":6697,"Ġindramayu":6698,"kl":6699,"Ġasing":6700,"Ġseu":6701,"Ġsanj":6702,"Ġsos":6703,"alo":6704,"alam":6705,"Ġdie":6706,"onegoro":6707,"Ġpangro":6708,"ambat":6709,"Ġkapasi":6710,"ĠkatÃ©mbong":6711,"mpl":6712,"Ġwall":6713,"jangjian":6714,"Ġmerc":6715,"Ġswiss":6716,"Ġmetro":6717,"erbangan":6718,"Ġgaganti":6719,"Ġvariables":6720,"Ġsignific":6721,"à¤":6722,"roc":6723,"Ġjmpl":6724,"akkeun":6725,"isahkeun":6726,"Ġkub":6727,"ogle":6728,"Ġperjangjian":6729,"otlandia":6730,"Ġisa":6731,"Ġadap":6732,"ĠÃ©c":6733,"Ġngagad":6734,"araka":6735,"Ġsampeu":6736,"Ġfactor":6737,"ĠsabagÃ©an":6738,"Ġpamilihan":6739,"Ġsumebarna":6740,"Ġencyc":6741,"ful":6742,"zol":6743,"Ġmess":6744,"Ġmirip":6745,"Ġpec":6746,"Ġnin":6747,"organ":6748,"sidi":6749,"sive":6750,"adrat":6751,"aktif":6752,"Ġlor":6753,"uju":6754,"Ġoray":6755,"Ġyu":6756,"Ġnyusun":6757,"ĠpangajÃ©n":6758,"Ġdiseb":6759,"Ġbojong":6760,"Ġdrs":6761,"Ġrelated":6762,"ĠÙĪØ§":6763,"Ġmadinah":6764,"ray":6765,"yong":6766,"ĠÎ":6767,"Ġketan":6768,"ides":6769,"Ġruksak":6770,"Ġanjing":6771,"Ġnud":6772,"elaran":6773,"irut":6774,"Ġnama":6775,"Ġteuas":6776,"Ġkabi":6777,"Ġissu":6778,"Ġuji":6779,"Ġdikirim":6780,"ungkun":6781,"Ġpopular":6782,"Ġfourier":6783,"Ġbau":6784,"Ġdasarna":6785,"Ġlebah":6786,"Ġdemoc":6787,"ĠpÃ©riodeu":6788,"eunteun":6789,"Ã³n":6790,"ĠarsitÃ©ktur":6791,"ĠdÃ©nmark":6792,"Ġsastrawan":6793,"kom":6794,"Ġseungit":6795,"Ġdivision":6796,"erkeun":6797,"Ġire":6798,"Ġcis":6799,"Ġgeu":6800,"Ġgang":6801,"ols":6802,"ekt":6803,"Ġpref":6804,"Ġumts":6805,"ĠÙĨ":6806,"Ġvalues":6807,"Ġkarbohid":6808,"Ġcingcin":6809,"Ġbrazil":6810,"Ġavailable":6811,"Ġngagaduhan":6812,"mas":6813,"Ġkot":6814,"arakeun":6815,"Ġdana":6816,"Ġceuli":6817,"ungt":6818,"kai":6819,"Ġmars":6820,"andapan":6821,"teri":6822,"Ġnaw":6823,"ogram":6824,"Ġinternal":6825,"Ġiso":6826,"istira":6827,"ecture":6828,"Ġmalam":6829,"Ġjurnal":6830,"ifi":6831,"Ġmusuh":6832,"ĠmusÃ©um":6833,"Ġmajelis":6834,"Ġalbeum":6835,"Ġlater":6836,"ĠmaÃ©nkeun":6837,"Ġpercaya":6838,"ĠÃ©ndah":6839,"Ġengineering":6840,"Ġfurther":6841,"ĠdÃ©mokrat":6842,"Ġkalahiran":6843,"Ġkarbohidrat":6844,"Ġeur":6845,"Ġkembangan":6846,"areup":6847,"Ġdahan":6848,"Ġbig":6849,"rov":6850,"Ġlangkung":6851,"illa":6852,"Ġsakit":6853,"aci":6854,"ĠÃ©ksp":6855,"Ġisk":6856,"istry":6857,"Ġsaf":6858,"Ġchange":6859,"ĠÙħ":6860,"Ġantartika":6861,"Ġgoogle":6862,"Ġdove":6863,"link":6864,"Ġskotlandia":6865,"juaraan":6866,"Ġlebih":6867,"Ġpajang":6868,"Ġknow":6869,"Ġhareupeun":6870,"tayungan":6871,"Ġdeter":6872,"Ġbbc":6873,"alis":6874,"Ġina":6875,"ĠcÃ©c":6876,"Ġris":6877,"Ġgall":6878,"eungkeut":6879,"adian":6880,"eli":6881,"elih":6882,"Ġdipl":6883,"Ġpanghargaan":6884,"Ġcher":6885,"Ġchamp":6886,"Ġconf":6887,"Ġconstr":6888,"resi":6889,"Ġship":6890,"Ġdaur":6891,"Ġza":6892,"ocar":6893,"lied":6894,"Ġhalf":6895,"Ã©mbran":6896,"Ġsyah":6897,"Ġsaham":6898,"Ġurusan":6899,"Ġpembangkit":6900,"Ġjieunan":6901,"ĠÃ©lÃ©ktromagn":6902,"dÃ©ka":6903,"Ġsejarah":6904,"ĠinternÃ©t":6905,"Ġhawai":6906,"Ġnampa":6907,"Ġyudistira":6908,"Ġjejer":6909,"Ġlibrary":6910,"Ġmediterran":6911,"Ġpangrojong":6912,"Ġms":6913,"Ġdeung":6914,"Ġbrown":6915,"enjar":6916,"Ġcari":6917,"Ġcila":6918,"Ġleul":6919,"Ġraga":6920,"ulungan":6921,"ĠfÃ©st":6922,"ilik":6923,"Ġkald":6924,"Ġhijian":6925,"ections":6926,"Ġsapertos":6927,"Ġkuliah":6928,"Ġmaung":6929,"Ġcomput":6930,"Ġcommer":6931,"ĠtÃ©ater":6932,"Ġpedrosa":6933,"Ġolahan":6934,"Ġemperor":6935,"Ġesp":6936,"Ġlulus":6937,"Ġbeubeur":6938,"Ġakuntansi":6939,"Ġireland":6940,"hai":6941,"vasi":6942,"yek":6943,"Ø¹":6944,"ĠkÅį":6945,"ĠkrÃ©":6946,"Ġtaks":6947,"Ġnip":6948,"onstr":6949,"Ġlut":6950,"ĠlÃ©b":6951,"Ġremen":6952,"Ġrange":6953,"ĠinfÃ©ksi":6954,"Ġfund":6955,"Ġkabangsaan":6956,"Ġmahmud":6957,"Ġastronomi":6958,"embl":6959,"Ã©skeun":6960,"Ġkaturunan":6961,"Ġmail":6962,"ither":6963,"Ġwaktos":6964,"Ġkaraw":6965,"Ġnewton":6966,"Ġsukar":6967,"Ġrecei":6968,"Ġinflu":6969,"Ġphilip":6970,"ĠpÃ©rak":6971,"Ġkajaba":6972,"Ġdvb":6973,"Ġkroya":6974,"Ġsaraf":6975,"less":6976,"was":6977,"Äķ":6978,"Ġbug":6979,"idaya":6980,"akil":6981,"Ġngus":6982,"Ġngasupkeun":6983,"utuhkeun":6984,"old":6985,"elf":6986,"Ġfuku":6987,"Ġsarupaning":6988,"ĠrÃ©siko":6989,"Ġmagister":6990,"iba":6991,"Ġkotak":6992,"uced":6993,"Ġmaluku":6994,"Ġngarujuk":6995,"vie":6996,"Ġwilangan":6997,"Ġquran":6998,"Ġwajib":6999,"Ġfact":7000,"Ġjajahan":7001,"ĠspÃ©ktrum":7002,"Ġtulungagung":7003,"zon":7004,"Ġtable":7005,"Ġbuy":7006,"erint":7007,"Ġrend":7008,"Ġriw":7009,"Ġhit":7010,"urt":7011,"Ġthus":7012,"engahan":7013,"capkeun":7014,"Ġobject":7015,"Ġstory":7016,"verse":7017,"Ġkasemp":7018,"Ġwales":7019,"Ġngajelaskeun":7020,"Ġkorsi":7021,"Ġcomplet":7022,"Ġmake":7023,"Ġword":7024,"yanmar":7025,"Ġintel":7026,"Ġmuti":7027,"ĠØ¢":7028,"Ġkarirna":7029,"atorium":7030,"Ġglukosa":7031,"Ġpatani":7032,"mir":7033,"Ġtro":7034,"Ġmyanmar":7035,"Ġcep":7036,"inya":7037,"urangan":7038,"eker":7039,"Ġmaharaja":7040,"Ġwithout":7041,"Ġbrun":7042,"Ġfran":7043,"ĠmerdÃ©ka":7044,"Ġfoot":7045,"Ġsusukan":7046,"Ġkutang":7047,"Ġpikiran":7048,"Ġculture":7049,"Ġtersebut":7050,"Ġdisimpen":7051,"Ġkarawitan":7052,"ox":7053,"set":7054,"wir":7055,"ych":7056,"Ã©ro":7057,"Ġnolak":7058,"Ġjog":7059,"Ġlurus":7060,"ines":7061,"ĠhÃ©m":7062,"ately":7063,"iku":7064,"Ġala":7065,"Ġshah":7066,"Ġbabaraha":7067,"Ġngawakilan":7068,"Ġmedalkeun":7069,"Ġdiresmikeun":7070,"Ġurban":7071,"Ġgaleri":7072,"shÅ«":7073,"Ġruang":7074,"Ġground":7075,"Ġenter":7076,"Ġdefined":7077,"Ġdefinition":7078,"Ġanatomi":7079,"Ġlouis":7080,"yama":7081,"arta":7082,"Ġmeul":7083,"Ġpuc":7084,"Ġkauntungan":7085,"Ġraw":7086,"ulat":7087,"Ġgem":7088,"Ġgond":7089,"amaan":7090,"Ġtitingg":7091,"Ġuntil":7092,"angkala":7093,"Ġbarb":7094,"mann":7095,"Ġplas":7096,"Ġbrid":7097,"Ġpatung":7098,"Ġlive":7099,"Ġsadar":7100,"osiasi":7101,"ãĥ¼ãĥ":7102,"Ġpadalarang":7103,"Ġoccur":7104,"Ġprincip":7105,"Ġcambridge":7106,"Ġwssa":7107,"virus":7108,"hu":7109,"ĠtÃ©mb":7110,"Ġbaran":7111,"ston":7112,"ido":7113,"Ġkaz":7114,"ame":7115,"agas":7116,"Ã©nta":7117,"Ġnyir":7118,"ĠdibÃ©dakeun":7119,"ques":7120,"Ġsahijina":7121,"Ġsyari":7122,"Ġsymb":7123,"Ġbeurang":7124,"Ġsepur":7125,"Ã©gia":7126,"ĠbÃ©ntÃ©ng":7127,"Ġnutupan":7128,"Ġmidd":7129,"Ġaranjeunna":7130,"Ġpamikiran":7131,"akmuran":7132,"Ġkabiasaan":7133,"pur":7134,"Ġtomat":7135,"Ġpamb":7136,"Ġrab":7137,"Ġwali":7138,"Ġfed":7139,"emia":7140,"Ġinterac":7141,"Ġyuta":7142,"antuan":7143,"Ã©so":7144,"Ġdigolongkeun":7145,"esta":7146,"Ġbaseuh":7147,"Ġkoes":7148,"Ġbenang":7149,"Ġbelah":7150,"Ġpanggung":7151,"ĠpersÃ©n":7152,"Ġrapid":7153,"Ġlayar":7154,"ĠtÅįkaidÅį":7155,"Ġoxford":7156,"Ġapproxim":7157,"Ġngancurkeun":7158,"Ġcorporation":7159,"ĠnorwÃ©gia":7160,"ball":7161,"ges":7162,"Ġeb":7163,"Ã©ad":7164,"Ġasin":7165,"Ġpack":7166,"Ġdram":7167,"Ġneut":7168,"Ġdiab":7169,"pog":7170,"Ġmarc":7171,"Ġmary":7172,"ird":7173,"Ġkarena":7174,"istics":7175,"Ġpoin":7176,"ĠsÃ©a":7177,"Ġkond":7178,"Ġcaina":7179,"Ġmateri":7180,"Ġpurah":7181,"Ġcair":7182,"Ġbursa":7183,"Ġcharge":7184,"Ġerror":7185,"Ġbeuratna":7186,"Ġbubur":7187,"Ġkyoto":7188,"ĠrÃ©gulÃ©r":7189,"Ġaranjeun":7190,"ght":7191,"ĠcikampÃ©k":7192,"sy":7193,"Ġê":7194,"Ġtb":7195,"Ġsumb":7196,"Ġsib":7197,"Ġlis":7198,"Ġann":7199,"eki":7200,"ots":7201,"Ġey":7202,"Ġwave":7203,"Ġmarket":7204,"Ġsource":7205,"aporkeun":7206,"Ġprotein":7207,"Ġpuy":7208,"atÃ©n":7209,"Ġdiitung":7210,"Ġjih":7211,"erim":7212,"takan":7213,"Ġrate":7214,"Ġngawan":7215,"Ġfra":7216,"Ġpriangan":7217,"Ġdisadiakeun":7218,"Ġbios":7219,"Ġdibikeun":7220,"Ġmaur":7221,"Ġsagigireun":7222,"Ġtingk":7223,"Ġenvi":7224,"Ġkorona":7225,"Ġpenghargaan":7226,"board":7227,"Ġcikarang":7228,"Ġkontrak":7229,"Ġlux":7230,"Ġportugal":7231,"ĠfÃ©stival":7232,"jalan":7233,"uala":7234,"ĠÃ©r":7235,"Ġkt":7236,"Ġkob":7237,"Ġauth":7238,"ĠmÃ©mbran":7239,"Ġcad":7240,"Ġrs":7241,"Ġhob":7242,"ĠhÃ©l":7243,"Ġngeu":7244,"eless":7245,"ayasa":7246,"uble":7247,"ohkeun":7248,"Ġitb":7249,"ows":7250,"Ġpalest":7251,"Ġfilem":7252,"ference":7253,"Ġcaus":7254,"Ġsinga":7255,"Ġdilayanan":7256,"Ġimpl":7257,"Ġkamampuh":7258,"Ġtransist":7259,"Ġleumpang":7260,"ĠÃ©lÃ©ktromagnÃ©tik":7261,"Ġmutiara":7262,"craft":7263,"ged":7264,"tÃ©k":7265,"ĠÃ©mb":7266,"Ġtod":7267,"Ġaud":7268,"Ġaverage":7269,"Ġduc":7270,"ato":7271,"Ġrw":7272,"Ġhs":7273,"ilis":7274,"Ã©rna":7275,"Ġron":7276,"Ġperf":7277,"Ġyel":7278,"lakeun":7279,"Ġsateu":7280,"Ġkiduleun":7281,"Ġukra":7282,"Ġsubst":7283,"Ġlaleutik":7284,"Ġvariable":7285,"Ġuts":7286,"ĠsanÃ©s":7287,"Ġcalcul":7288,"Ġpajabat":7289,"Ġkolotna":7290,"ĠrÃ©gion":7291,"Ġcitakan":7292,"Ġeffect":7293,"Ġdesign":7294,"Ġtarjamah":7295,"Ġkasempetan":7296,"leum":7297,"Ġkotana":7298,"Ġtk":7299,"Ġty":7300,"Ġtump":7301,"Ġpw":7302,"Ġderi":7303,"Ġdivid":7304,"Ġngas":7305,"urit":7306,"ijing":7307,"Ġrod":7308,"Ġkawates":7309,"ihkeun":7310,"Ġngajual":7311,"Ġmerak":7312,"Ġbass":7313,"Ġhuruf":7314,"Ġoffice":7315,"Ġrohang":7316,"arikatan":7317,"ĠmÃ©todeu":7318,"Ġcibatu":7319,"Ġdepartment":7320,"ĠinsÃ©k":7321,"Ġgeger":7322,"Ġindependent":7323,"ĠlÃ©ngkah":7324,"Ġpajangjian":7325,"Ġenviron":7326,"Ġseukeut":7327,"Ġdarah":7328,"atul":7329,"Ġditing":7330,"Ġngitung":7331,"agang":7332,"usul":7333,"isl":7334,"Ġfull":7335,"Ġpanya":7336,"Ġtaunan":7337,"Ġuang":7338,"Ġshould":7339,"Ġkomik":7340,"Ġngarana":7341,"Ġmov":7342,"ĠbÃ©dana":7343,"Ġpage":7344,"Ã©wak":7345,"Ġsky":7346,"Ġdijero":7347,"Ġjohann":7348,"Ġelectrical":7349,"Ã©brÃ©hkeun":7350,"Ġjagong":7351,"Ġsutrad":7352,"Ġrambutan":7353,"Ġngirimkeun":7354,"Ġraksasa":7355,"Ġmanufac":7356,"Ġsatellite":7357,"Ġenvironment":7358,"cop":7359,"anon":7360,"ars":7361,"Ġteta":7362,"Ġsob":7363,"Ġsuw":7364,"nas":7365,"Ġnir":7366,"Ġdias":7367,"Ġdiatur":7368,"Ġring":7369,"Ġanalisis":7370,"Ġgrow":7371,"ungtik":7372,"omen":7373,"ekan":7374,"Ġapganistan":7375,"Ġpantai":7376,"Ġnature":7377,"Ġkawengku":7378,"Ġdipinton":7379,"Ġstep":7380,"Ġkonstr":7381,"Ġdaftar":7382,"Ġtulis":7383,"Ġbahrain":7384,"Ġgelas":7385,"Ġxx":7386,"ĠrÃ©kayasa":7387,"Ġpertengahan":7388,"Ġfuji":7389,"Ġnobel":7390,"Ġlimited":7391,"ĠdipakÃ©na":7392,"Ġcilacap":7393,"Ġmd":7394,"Ġpc":7395,"Ġbuhun":7396,"angtu":7397,"Ġdiukur":7398,"Ġcore":7399,"Ġcij":7400,"apon":7401,"Ġnusa":7402,"rih":7403,"Ġmangk":7404,"ajat":7405,"Ġtow":7406,"ambang":7407,"Ġspect":7408,"Ġpasarikatan":7409,"Ġshar":7410,"Ġbalar":7411,"ondong":7412,"Ġkoleksi":7413,"Ġpagelaran":7414,"Ġsuling":7415,"Ġangklung":7416,"Ġaccord":7417,"Ġtabel":7418,"Ġparip":7419,"Ġbukit":7420,"Ġluas":7421,"Ġsimpangan":7422,"Ġratusan":7423,"romagne":7424,"Ġtayalian":7425,"Ġexchange":7426,"Ġwarisan":7427,"anta":7428,"Ġnight":7429,"adegan":7430,"Ġrud":7431,"Ġritual":7432,"Ġngumpulkeun":7433,"Ġtik":7434,"Ġwr":7435,"ungu":7436,"Ġfig":7437,"ete":7438,"Ġtorow":7439,"uyukeun":7440,"Ġageung":7441,"Ġkameunangan":7442,"Ġquar":7443,"Ġdicampur":7444,"Ġmeter":7445,"Ġfosil":7446,"ĠsakabÃ©hna":7447,"Ġtaruman":7448,"Ġblog":7449,"Ġä¸":7450,"Ġphilosophy":7451,"Ġhambalan":7452,"Ġtelephone":7453,"Ġnuduhkeun":7454,"Ġdipintonkeun":7455,"Ã©am":7456,"Ġklo":7457,"Ġmati":7458,"Ġdod":7459,"Ġdising":7460,"Ġlangg":7461,"tir":7462,"Ġgading":7463,"aph":7464,"Ġost":7465,"Ġven":7466,"ece":7467,"Ġprov":7468,"Ġchic":7469,"Ġdibaca":7470,"Ġsurface":7471,"Ġbabaturan":7472,"Ġbudidaya":7473,"Ġcompon":7474,"Ġpenduduk":7475,"ĠkonsÃ©r":7476,"Ġtangerang":7477,"Ġspecific":7478,"Ġhigher":7479,"Ġvirgin":7480,"quez":7481,"Ġeconomics":7482,"Ġgaduh":7483,"Ġcommunications":7484,"Ġpresid":7485,"Ġvulkan":7486,"Ġhungaria":7487,"Ġsutradara":7488,"Ã±":7489,"Ġtaj":7490,"ĠkaÃ©n":7491,"Ġcp":7492,"ulin":7493,"Ġfall":7494,"ilt":7495,"Ġkalima":7496,"Ġnamb":7497,"Ġperh":7498,"Ġvar":7499,"Ġvel":7500,"ongton":7501,"Ġarth":7502,"Ġnyata":7503,"uctor":7504,"Ġbabad":7505,"Ġfilsa":7506,"Ġnalungtik":7507,"Ġbudi":7508,"lamasi":7509,"Ġsemenanjung":7510,"Ġfrance":7511,"Ġkoordina":7512,"Ġdalem":7513,"Ġbasis":7514,"jamahkeun":7515,"Ġnutri":7516,"Ġsambel":7517,"Ġtembok":7518,"Ġlicuala":7519,"Ġnyimpen":7520,"lÃ©":7521,"lus":7522,"rd":7523,"äº":7524,"Ġkeuna":7525,"Ġaero":7526,"Ġbangs":7527,"Ġlen":7528,"ateg":7529,"adia":7530,"enghul":7531,"Ġnyebar":7532,"Ã©mi":7533,"Ġkasang":7534,"tionary":7535,"Ġactiv":7536,"Ġpager":7537,"Ġtimb":7538,"Ġdistrict":7539,"Ġhandapna":7540,"Ġtoko":7541,"Ġtypes":7542,"Ġlikelih":7543,"Ġnangtung":7544,"Ġproblems":7545,"Ġnyerep":7546,"Ġragrag":7547,"Ġtorowongan":7548,"Ġtarumanagara":7549,"Ġfilsafat":7550,"madi":7551,"off":7552,"pura":7553,"Ġtuwuhan":7554,"Ġmanjang":7555,"ĠrantÃ©":7556,"Ġhig":7557,"rix":7558,"olo":7559,"Ġpier":7560,"Ġbeuti":7561,"Ġprime":7562,"ibi":7563,"Ġkapala":7564,"ĠsatÃ©":7565,"Ġkej":7566,"Ġcoil":7567,"aritakeun":7568,"Ġbrah":7569,"Ġkuloneun":7570,"Ġphase":7571,"Ġdrup":7572,"Ġswt":7573,"Ġdosis":7574,"Ġquest":7575,"Ġpemerint":7576,"Ġpangawasa":7577,"ĠlÃ©ad":7578,"Ġpenca":7579,"ĠsÃ©kÃ©":7580,"Ġhenry":7581,"Ġmathematical":7582,"Ġbuilding":7583,"Ġkhusus":7584,"iharep":7585,"Ġpituin":7586,"Ġdeungeun":7587,"Ġlikelihood":7588,"eign":7589,"Ġkint":7590,"arto":7591,"Ġtrip":7592,"Ġtanding":7593,"Ġsangk":7594,"Ġneundeun":7595,"Ġral":7596,"ining":7597,"ulum":7598,"Ġtiori":7599,"Ġpiring":7600,"eken":7601,"imu":7602,"Ġperb":7603,"Ġdipa":7604,"egaan":7605,"Ġmuter":7606,"mail":7607,"ĠsÃ©wang":7608,"Ġelmu":7609,"lands":7610,"Ġfrench":7611,"Ġmurni":7612,"Ġgold":7613,"ship":7614,"Ġirung":7615,"Ġqueen":7616,"Ġcikal":7617,"Ġalexander":7618,"ĠmalaÃ©kat":7619,"Ġafghanistan":7620,"baru":7621,"hip":7622,"yi":7623,"aro":7624,"Ġapo":7625,"Ġdra":7626,"Ġcig":7627,"Ġhim":7628,"Ġherb":7629,"Ġotak":7630,"abad":7631,"icine":7632,"ajuan":7633,"Ġperw":7634,"Ġsalas":7635,"Ġpangab":7636,"Ġsport":7637,"uhureun":7638,"Ġmoun":7639,"Ġbatik":7640,"Ġkhan":7641,"Ġkhas":7642,"ehi":7643,"Ġislamic":7644,"ized":7645,"Ġsukuna":7646,"Ġlumaku":7647,"Ġbenda":7648,"Ġpandu":7649,"Ġflight":7650,"angtuan":7651,"Ġmecenghul":7652,"eunteuna":7653,"ĠembÃ©":7654,"ĠrÃ©buan":7655,"Ġatmosfir":7656,"Ġscandic":7657,"etisi":7658,"hal":7659,"usion":7660,"zy":7661,"Ġkiri":7662,"Ġbond":7663,"atikan":7664,"Ġcend":7665,"Ġrd":7666,"Ġguy":7667,"Ġow":7668,"Ġoli":7669,"Ġwrit":7670,"Ġfind":7671,"Ã©baskeun":7672,"Ġkuba":7673,"Ġyun":7674,"Ġbeber":7675,"uba":7676,"Ġbisma":7677,"Ġuz":7678,"Ġacan":7679,"Ġzh":7680,"Ġseti":7681,"Ġeuk":7682,"Ġpath":7683,"Ġaircraft":7684,"Ġbahaya":7685,"Ġbox":7686,"tarankeun":7687,"eved":7688,"Ġprofes":7689,"Ġkutub":7690,"Ġeth":7691,"Ġkongo":7692,"Ġconcern":7693,"Ġphysics":7694,"ĠarkÃ©ologi":7695,"Ġngawanohkeun":7696,"je":7697,"tus":7698,"tara":7699,"tra":7700,"utions":7701,"Ġkeun":7702,"nak":7703,"Ġdamp":7704,"Ġdino":7705,"Ġkayu":7706,"Ġlg":7707,"Ġhend":7708,"ased":7709,"ĠmarÃ©ntah":7710,"udang":7711,"irah":7712,"sai":7713,"ambangkan":7714,"Ã©lÃ©r":7715,"Ã©mon":7716,"Ġparti":7717,"Ġharry":7718,"Ġmaul":7719,"Ġmimitian":7720,"Ġmotion":7721,"Ġkelenjar":7722,"Ġtelah":7723,"geon":7724,"ehatan":7725,"Ġlines":7726,"Ġkerta":7727,"Ġrepl":7728,"Ġmindahkeun":7729,"Ġhias":7730,"Ġdemi":7731,"Ġdomin":7732,"Ġliberal":7733,"Ġmaotna":7734,"rahim":7735,"ĠÃ©lÃ©ktronik":7736,"agamaan":7737,"ungkinkeun":7738,"Ġkoki":7739,"Ġujung":7740,"Ġmillion":7741,"Ġdarajat":7742,"rup":7743,"Ġess":7744,"Ġnana":7745,"Ġjember":7746,"Ġkasi":7747,"Ġlep":7748,"Ġlaku":7749,"Ġhul":7750,"asang":7751,"Ġoil":7752,"olong":7753,"Ġwij":7754,"Ġfung":7755,"Ġkalib":7756,"Ġnah":7757,"Ġkacil":7758,"Ġpriok":7759,"Ġdipisahkeun":7760,"Ġpangajaran":7761,"Ġamong":7762,"oper":7763,"Ġchris":7764,"ended":7765,"ĠatlÃ©t":7766,"Ġkonfer":7767,"Ġkomposisi":7768,"Ġngabagi":7769,"Ġpolin":7770,"Ġpenerbangan":7771,"Ġsenar":7772,"Ġmaking":7773,"Ġdalil":7774,"Ġregi":7775,"Ġportal":7776,"rogen":7777,"Ġbajak":7778,"Ġgenerally":7779,"Ġbooks":7780,"Ġsuhunan":7781,"Õ¡Õ":7782,"Ġbaranahan":7783,"Ġsle":7784,"ukis":7785,"asakeun":7786,"rig":7787,"utna":7788,"aries":7789,"ebra":7790,"epeng":7791,"achi":7792,"ĠarÃ©as":7793,"iaya":7794,"Ġdapur":7795,"Ġobjek":7796,"Ġacco":7797,"Ġsumur":7798,"Ġuniversal":7799,"Ġibrahim":7800,"Ġsahandap":7801,"Ġmisahkeun":7802,"Ġsampai":7803,"Ġidenti":7804,"Ġlumangsungna":7805,"Ġtekanan":7806,"Ġdomest":7807,"Ġpeople":7808,"ĠtÃ©ks":7809,"Ġempire":7810,"Ġtexas":7811,"Ġobservasi":7812,"Ġseger":7813,"Ġsantri":7814,"Ġpersonil":7815,"Ð¾Ð":7816,"Ġencyclop":7817,"mik":7818,"sari":7819,"wangan":7820,"Ġbure":7821,"Ġjangka":7822,"Ġjump":7823,"Ġhimal":7824,"Ġngungk":7825,"ulur":7826,"Ġganj":7827,"Ġothers":7828,"Ġthori":7829,"elle":7830,"posed":7831,"Ġarti":7832,"Ġproton":7833,"Ġindex":7834,"Ġterms":7835,"Ġkeh":7836,"Ġngagem":7837,"Ġdaop":7838,"Ġage":7839,"Ġitali":7840,"Ġzero":7841,"aster":7842,"Ġbatak":7843,"Ġmode":7844,"isha":7845,"Ġcarpon":7846,"Ġxi":7847,"Ġlainna":7848,"Ġkrisis":7849,"Ġteks":7850,"Ġneruskeun":7851,"Ġpribumi":7852,"ĠhotÃ©l":7853,"Ġpremna":7854,"Ġginjal":7855,"Ġeducation":7856,"Ġpuyuh":7857,"Ġkacilakaan":7858,"be":7859,"cess":7860,"ision":7861,"anya":7862,"Ġsend":7863,"Ġdup":7864,"Ġdiu":7865,"Ġdiak":7866,"Ġkawa":7867,"Ġkaagamaan":7868,"Ġruk":7869,"Ġrencana":7870,"engkeun":7871,"eto":7872,"Ġnad":7873,"Ġpersi":7874,"Ġdapat":7875,"Ġear":7876,"Ġeither":7877,"Ġforum":7878,"Ġditelasan":7879,"umpul":7880,"Ġpatter":7881,"Ġsanggup":7882,"Ġsiap":7883,"Ġkahuruan":7884,"Ġlanka":7885,"Ġdatar":7886,"Ġdatangna":7887,"Ġgreek":7888,"Ġformer":7889,"Ġpinanga":7890,"Ġproduct":7891,"Ġbubuk":7892,"Ġngaji":7893,"Ġjambu":7894,"eukeutan":7895,"Ġboliv":7896,"Ġtransportation":7897,"Ġindividual":7898,"jad":7899,"rab":7900,"Ġtj":7901,"nama":7902,"Ġneul":7903,"Ġkajuaraan":7904,"ĠcÃ©k":7905,"Ġrawa":7906,"Ġwed":7907,"Ġfly":7908,"Ġkuadrat":7909,"Ġnations":7910,"ĠrÃ©sp":7911,"osan":7912,"Ġever":7913,"ampah":7914,"Ġkonfl":7915,"viation":7916,"Ġpakuan":7917,"Ġcomplex":7918,"Ġcarri":7919,"Ġmetropolitan":7920,"Ġmayar":7921,"Ġsaheunteuna":7922,"Ġmuara":7923,"Ġfive":7924,"Ġtambaga":7925,"Ġkulitna":7926,"juangan":7927,"Ġhipot":7928,"Ġriver":7929,"finisi":7930,"Ġserial":7931,"Ġadina":7932,"Ġagainst":7933,"Ġlekasan":7934,"Ġprobabiliti":7935,"ĠmÃ¡r":7936,"Ġsateuacan":7937,"ĠbalarÃ©a":7938,"Ġsalasahiji":7939,"Ġbureau":7940,"Ġkonflik":7941,"wid":7942,"ä¸":7943,"Ġmud":7944,"Ġmawar":7945,"Ġmuda":7946,"Ġrid":7947,"Ġwangsa":7948,"umbah":7949,"Ġsaka":7950,"Ã©ntal":7951,"Ġbadak":7952,"Ġpraj":7953,"opia":7954,"unami":7955,"Ġaci":7956,"Ġcomet":7957,"Ġshang":7958,"Ġmold":7959,"Ġhtm":7960,"Ġsayur":7961,"Ġoperations":7962,"Ġditerbitkeun":7963,"Ġhotel":7964,"Ġdevices":7965,"Ġditutup":7966,"Ġafrican":7967,"ĠdÃ©mokrasi":7968,"Ġchemical":7969,"Ġresources":7970,"Ġstabil":7971,"Ġsahandapeun":7972,"bak":7973,"pak":7974,"Ġsemb":7975,"Ġpeunteun":7976,"Ġdada":7977,"Ġcross":7978,"ĠlÃ©g":7979,"Ġhungkul":7980,"abkeun":7981,"Ġpigeon":7982,"andak":7983,"Ġmangsana":7984,"Ġsarana":7985,"Ġpangusaha":7986,"ĠpasÃ©n":7987,"atikeun":7988,"Ġbulg":7989,"Ġpoli":7990,"Ġelement":7991,"Ġbatuan":7992,"Ġplac":7993,"Ġsubway":7994,"Ġkaki":7995,"ĠprÃ©sid":7996,"Ġdalang":7997,"Ġbeli":7998,"Ġkulawargana":7999,"assar":8000,"Ġrumaja":8001,"Ġpersamaan":8002,"Ġexperim":8003,"Ġbotol":8004,"Ġstars":8005,"ĠlÃ©ast":8006,"ĠcabÃ©":8007,"Ġcorrel":8008,"ĠtÃ©lÃ©k":8009,"Ġchinese":8010,"Ġiskandar":8011,"Ġmiddle":8012,"ĠpolinÃ©sia":8013,"Ġthoriq":8014,"ĠmÃ¡rquez":8015,"pond":8016,"å±":8017,"çĶ":8018,"Ġaqu":8019,"Ġditil":8020,"Ġwatek":8021,"Ġmarg":8022,"ogen":8023,"eulang":8024,"Ġtutup":8025,"Ġngala":8026,"Ġshe":8027,"Ã©ngsÃ©":8028,"Ġoptik":8029,"Ġhalim":8030,"Ġelekt":8031,"Ġtransfer":8032,"Ġkakon":8033,"Ġkakurangan":8034,"Ġmedical":8035,"Ġmedicine":8036,"Ġmony":8037,"Ġpaper":8038,"Ġklor":8039,"Ġrelati":8040,"Ġpasip":8041,"Ġreference":8042,"Ġbeunghar":8043,"Ġdadu":8044,"Ġmundur":8045,"Ġremain":8046,"Ġcertain":8047,"Ã©ntrÃ©keun":8048,"Ġfifa":8049,"Ã©lakeun":8050,"Ġmung":8051,"Ġnm":8052,"Ġlot":8053,"uktikeun":8054,"asus":8055,"Ġgib":8056,"Ġov":8057,"Ġfiksi":8058,"Ġplant":8059,"ilia":8060,"Ġminang":8061,"Ġmarga":8062,"Ġnata":8063,"Ġvand":8064,"Ġnyangk":8065,"itude":8066,"Ġsalain":8067,"ĠchÅ«":8068,"erol":8069,"Ġresult":8070,"Ġwilhel":8071,"Ġfranc":8072,"Ġpaguy":8073,"ceae":8074,"Ġdihiji":8075,"Ġkeris":8076,"Ġsample":8077,"Ã©warakeun":8078,"Ġmadrid":8079,"Ġasupan":8080,"Ġlargest":8081,"Ġnames":8082,"Ġkanyataan":8083,"Ġditandaan":8084,"ormatan":8085,"abutuh":8086,"Ġframe":8087,"ount":8088,"wara":8089,"zan":8090,"ØŃ":8091,"Ġtuk":8092,"Ġnetepkeun":8093,"idi":8094,"akia":8095,"Ġrangka":8096,"ined":8097,"ask":8098,"Ġngay":8099,"ĠngÃ©brÃ©hkeun":8100,"apati":8101,"Ġfib":8102,"oksida":8103,"ihi":8104,"Ġdipim":8105,"Ġindic":8106,"Ġsty":8107,"Ġath":8108,"unganana":8109,"eunakeun":8110,"Ġkomb":8111,"Ġngaganggu":8112,"Ġmoro":8113,"Ġdikokolakeun":8114,"Ġliana":8115,"prs":8116,"Ġalbania":8117,"Ġapple":8118,"Ġdijalankeun":8119,"Ġevent":8120,"Ġdemak":8121,"Ġputih":8122,"Ġpersen":8123,"Ġhypo":8124,"ismeu":8125,"Ġsuccess":8126,"Ġkoloni":8127,"Ġditeruskeun":8128,"Ġtibatan":8129,"Ġpangalusna":8130,"Ġpadumukan":8131,"Ġstructure":8132,"Ġdaniel":8133,"Ġiraq":8134,"Ġmountain":8135,"Ġpublik":8136,"Ġdebut":8137,"strak":8138,"Ġlt":8139,"Ġrungkun":8140,"upakan":8141,"ented":8142,"eling":8143,"Ġkabuka":8144,"ĠrÃ©al":8145,"oks":8146,"ĠobyÃ©k":8147,"Ġye":8148,"Ġpangadilan":8149,"ody":8150,"Ġdisamb":8151,"ancangna":8152,"thesis":8153,"Ġsama":8154,"Ġpolit":8155,"Ġwaktuna":8156,"Ġngadukung":8157,"Ġangger":8158,"ishi":8159,"Ġsingk":8160,"Ġdouble":8161,"Ġbinary":8162,"Ġangkasa":8163,"Ġreligi":8164,"Ġcorn":8165,"Ġpressure":8166,"Ġeuropean":8167,"ĠsÃ©rbia":8168,"Ġcuaca":8169,"Ġintroduction":8170,"Ġkimiawi":8171,"ĠdÃ©mokratik":8172,"Ġmanufactur":8173,"romagnetic":8174,"Ġchicago":8175,"jol":8176,"zh":8177,"Ġmaya":8178,"Ġmex":8179,"Ġbomb":8180,"Ġjemb":8181,"onic":8182,"olahan":8183,"Ġfok":8184,"Ġfew":8185,"ĠÃ©kologi":8186,"Ġperjuangan":8187,"Ġyour":8188,"egi":8189,"Ġmutuskeun":8190,"Ġsaup":8191,"Ġtrade":8192,"inea":8193,"Ġsequ":8194,"turi":8195,"Ġdiciptakeun":8196,"ĠkorÃ©an":8197,"Ġfruit":8198,"ombia":8199,"Ġbeurit":8200,"Ġkiarac":8201,"Ġide":8202,"Ġukuranna":8203,"Ã©stasi":8204,"Ġlebet":8205,"Ġkritik":8206,"Ġtipeu":8207,"Ġngurilingan":8208,"Ġosok":8209,"Ġkebudayaan":8210,"Ġproduction":8211,"Ġtapak":8212,"ĠkomplÃ©ks":8213,"Ġdipasang":8214,"Ġindividu":8215,"Ġnyebarkeun":8216,"Ġbunderan":8217,"éīĦéģĵ":8218,"Ġamplitudo":8219,"Ġheunteu":8220,"ocarpus":8221,"Ġkiaracondong":8222,"ville":8223,"Ø¡":8224,"Ġkp":8225,"arya":8226,"Ġtuna":8227,"orasi":8228,"ink":8229,"uler":8230,"umina":8231,"Ġtir":8232,"rio":8233,"Ġwira":8234,"abungkeun":8235,"Ġpanungtung":8236,"Ġsakitar":8237,"Ġmahal":8238,"Ġva":8239,"Ġvod":8240,"cher":8241,"Ġpasangg":8242,"Ġusa":8243,"Ġkadal":8244,"Ġdano":8245,"rani":8246,"Ġkahijina":8247,"Ġmulang":8248,"Ġburuan":8249,"Ġsekret":8250,"Ġlogic":8251,"Ġpanglima":8252,"Ġgagang":8253,"Ġruntah":8254,"ĠentÃ©h":8255,"ledge":8256,"Ġcommerci":8257,"Ġyellow":8258,"Ġukraina":8259,"dong":8260,"lukan":8261,"mun":8262,"nr":8263,"yid":8264,"ĠpÃ©so":8265,"Ġbc":8266,"Ġnec":8267,"aksa":8268,"Ġce":8269,"Ġhos":8270,"Ġgard":8271,"Ġgigir":8272,"urch":8273,"Ġour":8274,"Ġown":8275,"eke":8276,"Ġkuil":8277,"ayangan":8278,"Ġnav":8279,"Ġnyider":8280,"Ġsalju":8281,"Ġein":8282,"Ġconsist":8283,"Ġaku":8284,"Ġbiwir":8285,"Ġacid":8286,"vey":8287,"Ġcoun":8288,"Ġngawujud":8289,"tice":8290,"elling":8291,"Ġsix":8292,"Ġsuluh":8293,"Ġguin":8294,"Ġhiro":8295,"namÃ©n":8296,"ushu":8297,"Ġturkey":8298,"Ġkeuangan":8299,"Ġelectronic":8300,"icient":8301,"Ġtarjamahan":8302,"Ġtihang":8303,"ĠtÃ©lÃ©komunikasi":8304,"Ġpaguyuban":8305,"Ġnyideraan":8306,"bes":8307,"deh":8308,"yur":8309,"Ġbush":8310,"Ġjum":8311,"Ġjud":8312,"erhana":8313,"aktur":8314,"Ġlp":8315,"Ġngoj":8316,"itna":8317,"eungg":8318,"eme":8319,"awati":8320,"ebo":8321,"Ġkawung":8322,"Ġpersian":8323,"Ġperhat":8324,"Ġvert":8325,"Ġnyamp":8326,"Ġdiproduksi":8327,"Ġdipidangkeun":8328,"Ġobjects":8329,"ubur":8330,"Ġmanehna":8331,"Ġpamust":8332,"Ġkatangtuan":8333,"Ġwars":8334,"Ġpalaku":8335,"Ġsawangan":8336,"ĠmatÃ©m":8337,"Ġgunana":8338,"Ġkompetisi":8339,"Ġulikan":8340,"ebonan":8341,"ensive":8342,"erty":8343,"erbilt":8344,"Ġelectromagnetic":8345,"Ġotonom":8346,"Ġundak":8347,"Ġlawon":8348,"Ġwawakil":8349,"Ġscientif":8350,"Ġcollecti":8351,"Ġpesawat":8352,"Ġlower":8353,"Ġwartawan":8354,"Ġpsikologi":8355,"Ġhawaii":8356,"Ġvanderbilt":8357,"cy":8358,"fication":8359,"Ġumb":8360,"Ġkirang":8361,"arapkeun":8362,"Ġteb":8363,"Ġtangan":8364,"ĠtÃ©mp":8365,"Ġnarik":8366,"Ġdif":8367,"Ġice":8368,"Ġhop":8369,"Ġfem":8370,"Ġpanut":8371,"Ġpanarima":8372,"asilan":8373,"Ġmantan":8374,"Ġforeign":8375,"Ġnaga":8376,"isis":8377,"Ġuu":8378,"ĠsÃ©ri":8379,"Ġterj":8380,"ĠkomÃ©r":8381,"Ġkamajuan":8382,"utama":8383,"Ġpapas":8384,"Ġdatab":8385,"urea":8386,"Ġkandaraan":8387,"Ġlogo":8388,"Ġfungsina":8389,"ĠprofÃ©si":8390,"Ġpentingna":8391,"timologi":8392,"Ġkepada":8393,"Ġbeda":8394,"Ġyusuf":8395,"Ġsirkuit":8396,"Ġsoldadu":8397,"Ġaccording":8398,"sk":8399,"uana":8400,"Ġbiaya":8401,"atujuan":8402,"Ġcitra":8403,"uke":8404,"time":8405,"apura":8406,"ominasi":8407,"elkeun":8408,"Ġfried":8409,"ilid":8410,"Ġkalex":8411,"loka":8412,"ogÃ©n":8413,"Ġabdi":8414,"Ġsosi":8415,"Ġmasehi":8416,"Ġreal":8417,"ropah":8418,"Ġdictionary":8419,"Ġdicaritakeun":8420,"Ġtelkom":8421,"Ġibn":8422,"Ġcarana":8423,"Ġsolar":8424,"Ġwords":8425,"Ġmedan":8426,"Ġgering":8427,"Ġcaang":8428,"Ġunits":8429,"Ġlebak":8430,"Ġkunti":8431,"Ã¡n":8432,"Ġperdagangan":8433,"Ġequip":8434,"ĠmÃ©mÃ©h":8435,"Ġantawis":8436,"Ġsvg":8437,"Ġmahkota":8438,"Ġnyumponan":8439,"Ġsakuriling":8440,"Ġsignificant":8441,"ungtungan":8442,"Ġriwayat":8443,"Ġtitinggal":8444,"Ã©ngsÃ©keun":8445,"rÃ©t":8446,"Ġà¸":8447,"Ġtag":8448,"Ġbb":8449,"alangan":8450,"Ġhang":8451,"asaki":8452,"Ġfajar":8453,"Ġfront":8454,"Ġaria":8455,"Ġveg":8456,"Ġyok":8457,"ĠmagnÃ©t":8458,"Ġdipi":8459,"Ġdipan":8460,"Ġsalmon":8461,"opsi":8462,"Ġcha":8463,"ĠspÃ©ak":8464,"Ġtree":8465,"Ġsatuan":8466,"Ġmaster":8467,"lies":8468,"Ġberd":8469,"Ġbersih":8470,"Ġsubsp":8471,"Ġsinus":8472,"Ġmerapi":8473,"Ġenti":8474,"Ġputrana":8475,"Ġformasi":8476,"Ġkonser":8477,"Ġmolec":8478,"Ġlembur":8479,"Ġsudan":8480,"Ġkristal":8481,"Ġpercobaan":8482,"Ġngahijikeun":8483,"Ġcimahi":8484,"Ġkendang":8485,"Ġsalamet":8486,"Ġmaraot":8487,"Ġsleep":8488,"Ġscientific":8489,"vor":8490,"Ġaq":8491,"Ġbina":8492,"Ġjst":8493,"uktor":8494,"Ġhr":8495,"agon":8496,"eler":8497,"Ġmanga":8498,"ĠvÃ©ktor":8499,"ians":8500,"Ġspring":8501,"rey":8502,"Ġngalir":8503,"ĠbalÃ©":8504,"Ġrespon":8505,"Ġhaseum":8506,"Ġmurah":8507,"sint":8508,"Ġimperial":8509,"eful":8510,"Ġkontrol":8511,"Ġnumer":8512,"Ġfair":8513,"Ġinfra":8514,"Ġtropen":8515,"Ġpedang":8516,"Ġsimple":8517,"ĠÃ©fÃ©ktif":8518,"Ġdefinisi":8519,"Ġpertahanan":8520,"position":8521,"Ġpoints":8522,"Ġfamily":8523,"Ġmanagement":8524,"Ġpasanggiri":8525,"Ġngojay":8526,"gro":8527,"hoku":8528,"uah":8529,"vo":8530,"Ġtem":8531,"Ġsop":8532,"Ġnd":8533,"Ġdisa":8534,"enang":8535,"ening":8536,"Ġcities":8537,"Ġlock":8538,"Ġngolah":8539,"Ġgd":8540,"Ġgit":8541,"itkeun":8542,"Ġthird":8543,"Ġinput":8544,"eskeun":8545,"Ġpropor":8546,"rafi":8547,"Ġchild":8548,"vered":8549,"Ġkasap":8550,"Ġngalambangkeun":8551,"Ġsajero":8552,"Ġpatar":8553,"Ġanggeus":8554,"etak":8555,"Ġpopula":8556,"ĠØ§ÙĨ":8557,"utasi":8558,"ĠsÃ©lÃ©r":8559,"Ġmadu":8560,"ĠhÃ©ad":8561,"Ġmuhammadi":8562,"Ġotoritas":8563,"Ġipomo":8564,"Ġhateup":8565,"Ġpatempatan":8566,"Ġkarakteristik":8567,"Ġyuswa":8568,"Ġstreet":8569,"Ġdinosa":8570,"Ġprajurit":8571,"Ġmoldova":8572,"eka":8573,"wati":8574,"Ġà¦":8575,"alap":8576,"atic":8577,"Ġjung":8578,"ĠlÃ©t":8579,"ukkeun":8580,"abeth":8581,"Ġfas":8582,"Ġfest":8583,"Ġpimp":8584,"Ġkalig":8585,"andangan":8586,"ahankeun":8587,"Ġbagi":8588,"Ġpriv":8589,"Ġdipedalkeun":8590,"Ġtown":8591,"Ġmanik":8592,"Ġdispl":8593,"Ġchap":8594,"ination":8595,"Ġparu":8596,"Ġkapur":8597,"Ġtre":8598,"Ġtrack":8599,"Ġatta":8600,"Ġbiologis":8601,"Ġditu":8602,"Ġmaen":8603,"Ġdewa":8604,"Ġdetail":8605,"encies":8606,"ĠÃ©volusi":8607,"Ġresid":8608,"Ġngabah":8609,"Ġsami":8610,"ĠdigorÃ©ng":8611,"irig":8612,"Ġbabari":8613,"Ġbatara":8614,"Ġgov":8615,"ĠwÃ©taneun":8616,"Ġalbert":8617,"Ġsahent":8618,"Ġreli":8619,"Ġngamungkinkeun":8620,"ahirkeun":8621,"incak":8622,"roskop":8623,"Ġhiber":8624,"Ġdialek":8625,"Ġgravi":8626,"Ġdegung":8627,"Ġdangdut":8628,"museum":8629,"Ġkapasitas":8630,"Ġfukuoka":8631,"Ġtoday":8632,"met":8633,"uch":8634,"Ġsb":8635,"Ġbih":8636,"Ġlig":8637,"Ġhai":8638,"Ġanno":8639,"Ġgim":8640,"Ġguar":8641,"umum":8642,"itetsu":8643,"Ġwast":8644,"Ġinsi":8645,"ability":8646,"udid":8647,"Ġperjalan":8648,"Ġtob":8649,"Ġstor":8650,"Ġamount":8651,"Ġngaleupaskeun":8652,"Ġterp":8653,"Ġkomite":8654,"Ġngabantu":8655,"inder":8656,"indung":8657,"Ġcook":8658,"Ġeliz":8659,"Ġsyria":8660,"Ġpakebonan":8661,"Ġmakassar":8662,"rick":8663,"Ġclub":8664,"ovasi":8665,"Ġsupp":8666,"Ġbelas":8667,"Ġpilot":8668,"Ġpasarturi":8669,"Ġstandards":8670,"Ġimahna":8671,"Ġpotongan":8672,"Ġbukuna":8673,"Ġdewan":8674,"Ġkosong":8675,"Ġprimary":8676,"Ð°Ð":8677,"Ġbaraya":8678,"Ġpramuka":8679,"Ġevolution":8680,"Ġcivil":8681,"Ġgeura":8682,"Ġtingkatan":8683,"Ġipomoea":8684,"jata":8685,"tom":8686,"eusina":8687,"arki":8688,"Ġtni":8689,"Ġmori":8690,"Ġbt":8691,"rosÃ©s":8692,"Ġned":8693,"adeg":8694,"Ġcry":8695,"Ġrangg":8696,"Ġhusna":8697,"Ġgeulis":8698,"Ġwelas":8699,"ablish":8700,"ogn":8701,"ĠrÃ©ak":8702,"Ġvak":8703,"Ġpran":8704,"Ġprev":8705,"Ġpamadegan":8706,"Ġuap":8707,"Ġacross":8708,"Ġdituluykeun":8709,"Ġump":8710,"Ġreform":8711,"Ġwalik":8712,"Ġpulisi":8713,"Ġberh":8714,"Ġsumang":8715,"Ġsize":8716,"ombong":8717,"Ġdirection":8718,"prÃ©si":8719,"Ġsahadat":8720,"Ġbelow":8721,"Ġtipi":8722,"wangi":8723,"ĠkebumÃ©n":8724,"Ġestablish":8725,"Ġrather":8726,"ĠpraktÃ©k":8727,"ĠbonÃ©ka":8728,"Ġdituturkeun":8729,"Ġconstant":8730,"Ġbolivia":8731,"Ġdihijikeun":8732,"Ġtropenmuseum":8733,"Ġmuhammadiyah":8734,"zen":8735,"ç·":8736,"Ġtungg":8737,"Ġach":8738,"Ġbj":8739,"Ġdiolah":8740,"Ġjombang":8741,"ident":8742,"agÃ©":8743,"ingkat":8744,"Ġrong":8745,"Ġroda":8746,"Ġromb":8747,"angkut":8748,"Ġkapam":8749,"Ġsatria":8750,"Ġngabel":8751,"Ġitungan":8752,"Ġanton":8753,"Ġngaruksak":8754,"Ġcost":8755,"Ġngeunah":8756,"ĠbaskÃ©t":8757,"Ġmadagas":8758,"Ġmelambangkan":8759,"Ġngamangpaatkeun":8760,"Ġbasic":8761,"ĠØ£":8762,"Ġbecome":8763,"Ġbacca":8764,"Ġsutra":8765,"Ġproperti":8766,"Ġmongolia":8767,"entingan":8768,"Ġdiagram":8769,"Ġramatloka":8770,"Ġkromosom":8771,"Ġvisual":8772,"Ġsiswa":8773,"ĠcÃ©cÃ©p":8774,"Ġwritten":8775,"Ġdampal":8776,"Ġregional":8777,"Ġsahenteuna":8778,"zuki":8779,"Ø¬":8780,"æľ":8781,"Ġbek":8782,"Ġnem":8783,"idah":8784,"adap":8785,"Ġcoba":8786,"Ġlaks":8787,"Ġhut":8788,"Ġhans":8789,"Ġngangkat":8790,"elo":8791,"iliki":8792,"udin":8793,"Ġkart":8794,"Ġchurch":8795,"Ġpartai":8796,"Ġngalahirkeun":8797,"usir":8798,"ĠÃ©ropah":8799,"Ġbalai":8800,"anye":8801,"Ġelements":8802,"Ġmerupakan":8803,"Ġgolden":8804,"Ġlebaran":8805,"Ġmikaresep":8806,"Ġindustry":8807,"Ġaccur":8808,"Ġtale":8809,"ushima":8810,"uksakan":8811,"Ġdeveloped":8812,"Ġsignals":8813,"sidasi":8814,"Ġplayer":8815,"Ġalternatif":8816,"Ġalgorith":8817,"Ġproduser":8818,"Ġqatar":8819,"ĠkaldÃ©ra":8820,"Ġshanghai":8821,"con":8822,"rew":8823,"rated":8824,"tÃ©n":8825,"uasi":8826,"ÅŁ":8827,"Ġkangk":8828,"Ġmiz":8829,"Ġsod":8830,"Ġnila":8831,"ĠnÃ©g":8832,"oris":8833,"Ġij":8834,"Ġhet":8835,"Ġngor":8836,"ulub":8837,"Ġgprs":8838,"arium":8839,"Ġtheorem":8840,"eton":8841,"ajahan":8842,"Ġismail":8843,"Ġkaruksakan":8844,"Ġstan":8845,"Ġstrong":8846,"obatan":8847,"Ġparad":8848,"ĠaksÃ©s":8849,"Ġabadi":8850,"ustakaan":8851,"Ġharmon":8852,"Ġkomodo":8853,"Ġkamar":8854,"Ġsawunggal":8855,"Ġdimana":8856,"Ġcompan":8857,"eyan":8858,"Ġutusan":8859,"Ġcorres":8860,"Ġlambar":8861,"Ġtinju":8862,"Ġå¤":8863,"Ġmacem":8864,"Ġdistribusi":8865,"ĠkongrÃ©s":8866,"Ġngembangkeun":8867,"Ġcageur":8868,"Ġfederal":8869,"ĠinsÃ©kta":8870,"Ġbulgaria":8871,"Ġsumanget":8872,"Ġbaccaurea":8873,"Ġcorrespond":8874,"gon":8875,"nes":8876,"Ġtg":8877,"Ġajang":8878,"Ġasih":8879,"Ġsj":8880,"Ġsanti":8881,"Ġnimb":8882,"adÃ©an":8883,"enis":8884,"Ġreng":8885,"Ġanci":8886,"ultur":8887,"upiter":8888,"Ġiniti":8889,"Ġinsin":8890,"epatan":8891,"Ġalih":8892,"ĠalÃ©rgi":8893,"ĠrÃ©st":8894,"Ġasy":8895,"ubung":8896,"chem":8897,"ancarkeun":8898,"Ġsund":8899,"Ġbakti":8900,"Ġmodi":8901,"Ġkeluar":8902,"Ġtransmis":8903,"Ġsela":8904,"ĠgÃ©orgia":8905,"Ġguinea":8906,"Ġmiara":8907,"Ġpositif":8908,"Ġwatang":8909,"Ġbunga":8910,"Ġjohnson":8911,"Ġtinangtu":8912,"Ġunderst":8913,"Ġmultiple":8914,"ĠrÃ©bu":8915,"Ġalfab":8916,"Ġvictori":8917,"Ġkonstruksi":8918,"Ġdatabase":8919,"vity":8920,"ÖĢ":8921,"aning":8922,"Ġkentang":8923,"Ġaik":8924,"Ġpula":8925,"Ġia":8926,"ahara":8927,"Ġkasa":8928,"Ġlc":8929,"uments":8930,"ette":8931,"jiban":8932,"Ġroll":8933,"aunan":8934,"Ġasosiasi":8935,"Ġpangd":8936,"Ġpangeusina":8937,"odes":8938,"Ġdisal":8939,"Ġparna":8940,"ĠpoÃ©k":8941,"Ġbeha":8942,"Ġzo":8943,"Ġtanz":8944,"Ġpages":8945,"field":8946,"Ġdoug":8947,"ize":8948,"Ġforms":8949,"Ġsekar":8950,"Ġpuasa":8951,"Ġlambaran":8952,"Ġsouthern":8953,"Ġmantra":8954,"Ġpacific":8955,"Ġefek":8956,"ĠbÃ©rÃ©s":8957,"Ġditambahkeun":8958,"Ġtmnr":8959,"emblengna":8960,"Ġparipolah":8961,"Ġpopulasina":8962,"Ġgravitasi":8963,"gy":8964,"last":8965,"mil":8966,"xed":8967,"Ġern":8968,"Ġkod":8969,"Ġtind":8970,"Ġmali":8971,"road":8972,"Ġdiinum":8973,"adak":8974,"Ġcical":8975,"Ġlah":8976,"asal":8977,"Ġngend":8978,"Ġngilu":8979,"Ġana":8980,"omial":8981,"ele":8982,"Ġful":8983,"Ġarist":8984,"Ġmanch":8985,"Ġpamekaran":8986,"Ġdiser":8987,"uge":8988,"Ġnepal":8989,"Ġsapasang":8990,"Ġditeundeun":8991,"Ġdeath":8992,"lie":8993,"Ġdimuat":8994,"haz":8995,"Ġorganization":8996,"ĠdirÃ©ktur":8997,"Ġkeram":8998,"Ġsigana":8999,"Ġtarung":9000,"Ġpinunjul":9001,"Ġnamed":9002,"Ġpersatuan":9003,"Ġtegangan":9004,"Ġdinyat":9005,"Ġtechni":9006,"Ġfields":9007,"osistem":9008,"Ġcutatan":9009,"Ġwujudna":9010,"Ġtadina":9011,"Ġmongol":9012,"Ġtogether":9013,"Ġpredic":9014,"Ġgalaxy":9015,"Ġbalukar":9016,"Ġmomentum":9017,"Ġnawarkeun":9018,"Ġkintetsu":9019,"Ġperhatian":9020,"Ġcollectie":9021,"Ġgitaris":9022,"ç·ļ":9023,"Ġsawunggalih":9024,"don":9025,"jug":9026,"mes":9027,"Ã©ase":9028,"Ġmn":9029,"Ġpadi":9030,"erra":9031,"Ġiw":9032,"ĠidÃ©n":9033,"Ġrt":9034,"Ġhour":9035,"asat":9036,"Ġtit":9037,"Ġtiwas":9038,"essing":9039,"Ġminister":9040,"Ġmarsh":9041,"Ġsakti":9042,"aco":9043,"Ġinterface":9044,"Ġindra":9045,"Ġsaen":9046,"anced":9047,"Ġakan":9048,"Ġberop":9049,"Ġshir":9050,"Ġdigentos":9051,"Ġpla":9052,"tics":9053,"Ġuniverse":9054,"Ġrain":9055,"Ġsolid":9056,"ãĤ¤":9057,"Ġinten":9058,"ously":9059,"Ġtambang":9060,"Ġfire":9061,"ĠappÃ©ar":9062,"Ġbecom":9063,"Ġsingapore":9064,"Ġmilitary":9065,"Ġlilin":9066,"Ġbetawi":9067,"ĠÙĦØ§":9068,"Ġwilhelm":9069,"Ġtanzania":9070,"bour":9071,"hatikeun":9072,"oang":9073,"ux":9074,"å¸":9075,"Ġalong":9076,"Ġmist":9077,"ĠmÃ¼":9078,"Ġnh":9079,"enta":9080,"Ġkauangan":9081,"Ġlengk":9082,"Ġlama":9083,"Ġhampang":9084,"Ġhui":9085,"uning":9086,"Ġanapon":9087,"ulosa":9088,"ulloh":9089,"urai":9090,"abarkeun":9091,"inger":9092,"acana":9093,"action":9094,"Ġarca":9095,"Ġnyag":9096,"Ġstra":9097,"opher":9098,"Ġdiscus":9099,"Ġatah":9100,"rest":9101,"ĠÃ©j":9102,"Ġmalaka":9103,"Ġelae":9104,"Ġserayu":9105,"Ġserangga":9106,"eunangkeun":9107,"Ġngajarkeun":9108,"Ġliat":9109,"Ġhaseup":9110,"Ġulin":9111,"Ġmayor":9112,"Ġmayoritas":9113,"Ġbinih":9114,"Ġscale":9115,"eutikna":9116,"boja":9117,"Ġsecara":9118,"Ġoutput":9119,"Ġproduced":9120,"Ġtinggal":9121,"Ġbayes":9122,"Ġcells":9123,"Ġjarum":9124,"Ġbegin":9125,"Ġruteu":9126,"Ġgalaxies":9127,"Ġapplications":9128,"ĠmÃ©dis":9129,"Ġinsinyur":9130,"bing":9131,"cano":9132,"Ñĥ":9133,"Ġita":9134,"eneran":9135,"Ġles":9136,"inus":9137,"Ġngeureunkeun":9138,"Ġgot":9139,"ural":9140,"Ġinsp":9141,"Ġinvol":9142,"ebes":9143,"Ġkalina":9144,"Ġrosidi":9145,"Ġkawat":9146,"Ġdeuih":9147,"Ġstop":9148,"Ġstations":9149,"Ġkapentingan":9150,"Ġaksi":9151,"Ġharris":9152,"Ġshap":9153,"ĠditÃ©mb":9154,"Ġmaiden":9155,"ĠÃ©d":9156,"Ġcounc":9157,"ĠngadÃ©ngÃ©":9158,"Ġngahar":9159,"Ġgran":9160,"Ġboard":9161,"madya":9162,"Ġcold":9163,"Ġpilipina":9164,"Ġtail":9165,"Ġpositive":9166,"Ġhukuman":9167,"Ġmarkas":9168,"Ġkajuruan":9169,"Ġpanghad":9170,"ĠeuropÃ©an":9171,"Ġcommonly":9172,"Ġjambatan":9173,"ĠdÃ©mografi":9174,"Ġcommunication":9175,"Ġmohammad":9176,"Ġleyur":9177,"Ġtemperature":9178,"Ġdemocrat":9179,"Ġaccount":9180,"Ġcorrelation":9181,"Ġpasipatan":9182,"Ġkombinasi":9183,"Ġsaupama":9184,"Ġpimpinan":9185,"Ġperjalanan":9186,"Ġelaeocarpus":9187,"lut":9188,"minton":9189,"ped":9190,"sum":9191,"Ã£":9192,"å·":9193,"Ġkoh":9194,"Ġabah":9195,"Ġmih":9196,"Ġmeri":9197,"Ġsumbu":9198,"Ġsih":9199,"Ġpn":9200,"ĠpÃ©st":9201,"Ġdates":9202,"ĠnÃ©ken":9203,"Ġnincak":9204,"Ġdia":9205,"Ġdiap":9206,"Ġiris":9207,"adh":9208,"eno":9209,"Ġlength":9210,"ukum":9211,"unus":9212,"urung":9213,"agad":9214,"Ã©ni":9215,"Ġwri":9216,"ario":9217,"Ġdinam":9218,"Ã©rÃ©t":9219,"ande":9220,"Ġpanjal":9221,"Ġunic":9222,"Ġvector":9223,"okimia":9224,"Ġdipang":9225,"Ġdipap":9226,"Ġinduk":9227,"Ġpamar":9228,"Ġamir":9229,"Ġakting":9230,"Ġpasang":9231,"Ġcompo":9232,"ĠngarÃ©ngsÃ©keun":9233,"Ġwarung":9234,"romo":9235,"Ġdikonsumsi":9236,"Ġpakas":9237,"Ġpengg":9238,"Ġburma":9239,"Ġkandang":9240,"Äģn":9241,"ĠrÃ©kaman":9242,"Ġtransformasi":9243,"Ġcipati":9244,"Ġsabudeureunana":9245,"Ġwireless":9246,"Ġlakon":9247,"Ġdevice":9248,"Ġfamili":9249,"Ġsempet":9250,"Ġriba":9251,"Ġdipiboga":9252,"Ġacademy":9253,"ĠmediterranÃ©an":9254,"Ġpucuk":9255,"umumkeun":9256,"Ġelizabeth":9257,"Ġngabeledug":9258,"Ġdinyatakeun":9259,"cong":9260,"eting":9261,"rÃ©k":9262,"Ġkirip":9263,"Ġmw":9264,"Ġmungkas":9265,"ĠpÃ©p":9266,"alongan":9267,"Ġnara":9268,"Ġnump":9269,"Ġje":9270,"Ġgay":9271,"uted":9272,"icit":9273,"awatan":9274,"andra":9275,"Ġrot":9276,"Ġperman":9277,"Ã©nak":9278,"eck":9279,"ubi":9280,"Ġkarus":9281,"Ġmanc":9282,"osari":9283,"oplas":9284,"uaan":9285,"rea":9286,"Ġkatarajang":9287,"Ġkonci":9288,"Ġmask":9289,"Ġfilter":9290,"Ġnoise":9291,"Ġbaham":9292,"Ġkanu":9293,"Ġlapang":9294,"Ġmiang":9295,"Ġapplied":9296,"Ġdiperkir":9297,"Ġlokasina":9298,"Ġngadegna":9299,"Ġpraktis":9300,"Ġsambungan":9301,"Ġchannels":9302,"ĠnitrogÃ©n":9303,"Ġnandakeun":9304,"Ġasmaul":9305,"ĠmatÃ©matika":9306,"Ġcouncil":9307,"Ġkiripik":9308,"arag":9309,"Ġmaku":9310,"Ġsgu":9311,"Ġdate":9312,"Ġdpl":9313,"Ġbont":9314,"Ġjaga":9315,"Ġcust":9316,"Ġreungit":9317,"Ġges":9318,"Ġgian":9319,"Ã©hat":9320,"Ġmini":9321,"Ġyen":9322,"Ġyug":9323,"Ġpangatikan":9324,"Ġamin":9325,"Ġdisney":9326,"Ġparusahaan":9327,"Ġparty":9328,"ancam":9329,"Ġtrue":9330,"Ġlaos":9331,"ĠdaÃ©k":9332,"Ġbatuk":9333,"Ġwild":9334,"ÙĦÙĩ":9335,"Ġsieun":9336,"lavia":9337,"Ġlinks":9338,"rÃ©ad":9339,"Ġsireum":9340,"Ġteknik":9341,"Ġdilakonan":9342,"Ġbecame":9343,"enggala":9344,"ĠdokumÃ©n":9345,"Ġbantu":9346,"ĠtÅįhoku":9347,"Ġkendaraan":9348,"Ġlittle":9349,"Ġngapung":9350,"Ġapproach":9351,"Ġrasulullah":9352,"Ġpasamakmuran":9353,"ĠnÃ©tÃ©lakeun":9354,"Ġfestival":9355,"Ġancient":9356,"iang":9357,"net":9358,"rama":9359,"tat":9360,"Ġmaria":9361,"Ġpeup":9362,"orn":9363,"Ġjamp":9364,"Ġlob":9365,"Ġgabung":9366,"Ġnucle":9367,"entah":9368,"olar":9369,"Ġplants":9370,"ude":9371,"Ġalm":9372,"Ġbaduy":9373,"Ġmanusia":9374,"endar":9375,"Ġparts":9376,"Ġkapari":9377,"Ġsapatu":9378,"akarida":9379,"Ġact":9380,"Ġshift":9381,"Ġditunjuk":9382,"Ġkotamadya":9383,"Ġterusan":9384,"Ã©ngan":9385,"unggung":9386,"Ġkadangkala":9387,"Ġberp":9388,"Ġkamboja":9389,"Ġpener":9390,"Ġbrand":9391,"Ġngahakan":9392,"Ġphoto":9393,"Ġngajar":9394,"gelan":9395,"Ġdiliwatan":9396,"Ġdilengkepan":9397,"izu":9398,"Ġlineker":9399,"Ġkanal":9400,"Ġsisina":9401,"Ġhadits":9402,"Ġhiasan":9403,"Ġwaduk":9404,"Ġphilipina":9405,"Ġincludes":9406,"omatis":9407,"Ġjoe":9408,"Ġmiceun":9409,"Ġpdf":9410,"Ġpekalongan":9411,"Ġthought":9412,"ĠjahÃ©":9413,"Ġmachine":9414,"Ġditarjamahkeun":9415,"Ġbibli":9416,"Ġgerbong":9417,"ĠkonvÃ©nsi":9418,"Ġlaboratorium":9419,"sintÃ©sis":9420,"ualan":9421,"Ġnini":9422,"Ġnba":9423,"stil":9424,"Ġastina":9425,"asmi":9426,"Ġgeb":9427,"amar":9428,"Ġnug":9429,"Ã©kh":9430,"Ġfuk":9431,"pose":9432,"udian":9433,"ĠrokÃ©t":9434,"Ġnation":9435,"Ã©nsitas":9436,"Ġbade":9437,"Ġmagnet":9438,"Ġindah":9439,"ched":9440,"Ġprab":9441,"Ġconven":9442,"Ġngalegaan":9443,"ĠsÃ©wangan":9444,"indungan":9445,"Ġbakat":9446,"Ġpolic":9447,"Ġngadeukeutan":9448,"ĠdimÃ©nsi":9449,"Ġkolom":9450,"Ġcann":9451,"Ġmedium":9452,"Ġbenua":9453,"Ġotonomi":9454,"Ġcampur":9455,"Ġpotong":9456,"Ġpeuj":9457,"ebrata":9458,"Ġelectricity":9459,"Ġmorning":9460,"Ġnaruto":9461,"rete":9462,"Ġnatrium":9463,"Ġfoundation":9464,"Ġborn":9465,"Ġmaximum":9466,"aksanaan":9467,"Ġtiheula":9468,"Ġcapacit":9469,"Ġchanges":9470,"ĠÅĽ":9471,"ĠbÃ©lgia":9472,"ĠpolimÃ©r":9473,"Ġrrt":9474,"ĠfÃ©deral":9475,"Ġbridge":9476,"Ġnyiruan":9477,"ĠmonyÃ©t":9478,"Ġvodka":9479,"Ġcommercial":9480,"ĠguinÃ©a":9481,"Ġequipment":9482,"Ġsaenyana":9483,"jen":9484,"niv":9485,"ying":9486,"Ã¸":9487,"Ġsew":9488,"Ġpuhu":9489,"Ġdusun":9490,"Ġbent":9491,"rosi":9492,"ormat":9493,"Ġich":9494,"onim":9495,"Ġkauk":9496,"Ġkaom":9497,"Ġrusi":9498,"ĠhÃ©k":9499,"Ġheld":9500,"ambah":9501,"Ġnungg":9502,"Ġyakin":9503,"Ġproses":9504,"Ġislandia":9505,"Ġprunus":9506,"empor":9507,"Ġbey":9508,"Ġadj":9509,"Ġagric":9510,"euhan":9511,"Ġexter":9512,"Ġberlin":9513,"Ġdiciri":9514,"Ġmerah":9515,"ĠdrÃ©st":9516,"Ġsuara":9517,"Ġsuff":9518,"Ġistim":9519,"Ġsagemblengna":9520,"Ġedward":9521,"mbangan":9522,"Ġuteuk":9523,"Ġtumor":9524,"Ġtax":9525,"atures":9526,"Ã©dah":9527,"ĠØ¹":9528,"Ġfail":9529,"enggung":9530,"ĠmÃ©tode":9531,"Ġtransformer":9532,"Ġnapel":9533,"Ġmembers":9534,"Ġprocesses":9535,"Ġfitur":9536,"ÃŃn":9537,"Ġmathematics":9538,"Ġhydro":9539,"Ġganas":9540,"Ġperpustakaan":9541,"Ġfootball":9542,"Ġtransistor":9543,"Ġencyclopedia":9544,"Ġpamustunganana":9545,"Ġrombongan":9546,"Ġberoperasi":9547,"kh":9548,"len":9549,"uting":9550,"Ġkanj":9551,"Ġkuku":9552,"arti":9553,"Ġmidangkeun":9554,"alem":9555,"Ġnanj":9556,"erk":9557,"ahayang":9558,"akat":9559,"Ġcos":9560,"Ġcard":9561,"ĠlÃ©l":9562,"Ġrati":9563,"Ġong":9564,"Ġapal":9565,"iks":9566,"Ġnasa":9567,"onald":9568,"Ġkawasa":9569,"ĠvÃ¤":9570,"Ġtoh":9571,"chen":9572,"Ġpamuda":9573,"Ġsaud":9574,"Ã©tri":9575,"Ġaceh":9576,"Ġdest":9577,"Ġcool":9578,"Ġmovie":9579,"Ġmiluan":9580,"Ã©au":9581,"Ġmatrix":9582,"Ġsyd":9583,"Ġanggotana":9584,"Ġdijieuna":9585,"Ġmert":9586,"Ġmerdika":9587,"Ġparasit":9588,"Ġcargo":9589,"Ġpadagang":9590,"Ġhidup":9591,"Ġdesain":9592,"Ġquality":9593,"alungtik":9594,"Ġmemiliki":9595,"ĠpangbÃ©basan":9596,"Ġsejak":9597,"Ġdirojong":9598,"ĠpokÃ©mon":9599,"Ġstie":9600,"Ġyamaha":9601,"ĠdÃ©wasa":9602,"Ġfuture":9603,"Ġvulkanik":9604,"Ġnutrisi":9605,"ĠprÃ©sidÃ©nt":9606,"Ġditilik":9607,"Ġwalikota":9608,"ĠÃ©jahan":9609,"Ġmoto":9610,"Ġsidang":9611,"Ġpund":9612,"Ġnok":9613,"Ġnaraka":9614,"Ġcengk":9615,"Ġlaga":9616,"Ġriau":9617,"Ġhapp":9618,"asy":9619,"Ġwayah":9620,"Ġinci":9621,"ised":9622,"abang":9623,"Ã©kah":9624,"Ġkalobaan":9625,"Ġkalakuan":9626,"ayar":9627,"Ġroti":9628,"Ġarc":9629,"Ġnyanyi":9630,"ĠdiparÃ©nt":9631,"Ġsaluhureun":9632,"ible":9633,"unakan":9634,"ĠspÃ©r":9635,"Ġkompo":9636,"lier":9637,"inding":9638,"Ġberg":9639,"uwangi":9640,"Ġsenja":9641,"Ġwilson":9642,"Ã©ae":9643,"ĠsyÃ©kh":9644,"itak":9645,"Ġcanada":9646,"Ġsulf":9647,"Ġlegal":9648,"Ġmelan":9649,"Ġlampah":9650,"Ġtypically":9651,"omatik":9652,"Ġnutup":9653,"Ġobserved":9654,"Ġnatal":9655,"Ġrancangan":9656,"Ġbreed":9657,"Ġresults":9658,"Ġreceiver":9659,"Ġditingali":9660,"Ġpierre":9661,"Ġdrupadi":9662,"width":9663,"rahkeun":9664,"Ã»":9665,"Î±":9666,"åĽ":9667,"Ġkis":9668,"Ġmikawanoh":9669,"Ġslow":9670,"rologi":9671,"atory":9672,"Ġnext":9673,"adar":9674,"Ġlingg":9675,"Ġgate":9676,"aptar":9677,"Ġwol":9678,"usu":9679,"ission":9680,"abi":9681,"Ġfah":9682,"Ġfcc":9683,"Ġinterpr":9684,"Ġarmen":9685,"igur":9686,"Ġawan":9687,"mpat":9688,"Ġmalabar":9689,"iriman":9690,"Ġbako":9691,"Ġarea":9692,"Ġphen":9693,"ĠbÃ©ak":9694,"Ġsajarahna":9695,"ĠkudÃ©ta":9696,"Ġdumuk":9697,"Ġsiksa":9698,"Ġjazz":9699,"Ġtumenggung":9700,"Ġlarger":9701,"Ġfakta":9702,"Ġnegative":9703,"ĠtÃ©ma":9704,"Ġfreed":9705,"Ġlebu":9706,"Ġflag":9707,"Ġotomatis":9708,"Ġversion":9709,"Ġajeg":9710,"Ġmangpaatna":9711,"ĠmÃ©aning":9712,"Ã©ksual":9713,"ĠaspÃ©k":9714,"Ġpalabuhan":9715,"Ġpictures":9716,"Ġbangladesh":9717,"Ġcircuits":9718,"Ġekspek":9719,"Ġdibeuleum":9720,"dekaan":9721,"Ġneutron":9722,"ĠkomÃ©rsial":9723,"Ġproperties":9724,"ĠpanghadÃ©na":9725,"Ġdipangaruhan":9726,"Ġmakuta":9727,"fisi":9728,"uin":9729,"åŃ":9730,"ĠÄ":9731,"Ġmight":9732,"Ġpaku":9733,"nap":9734,"Ġnota":9735,"enz":9736,"Ġkay":9737,"Ġkafir":9738,"urut":9739,"aps":9740,"Ġtig":9741,"Ġkalangan":9742,"ayaran":9743,"imah":9744,"ĠrÃ©d":9745,"Ġvl":9746,"Ġvin":9747,"Ġyp":9748,"Ġsalaki":9749,"raf":9750,"Ġpamat":9751,"ewe":9752,"ipan":9753,"awanan":9754,"ĠngabÃ©warakeun":9755,"Ġbalad":9756,"ĠdÃ©ath":9757,"ramat":9758,"Ġphone":9759,"Ġsubj":9760,"Ġcarbon":9761,"Ġworks":9762,"Ġsingg":9763,"Ġputera":9764,"aksan":9765,"ague":9766,"Ġbinti":9767,"Ġintell":9768,"Ġlapis":9769,"Ġbutuh":9770,"Ġreferred":9771,"Ġengland":9772,"Ġsadulur":9773,"Ġkutu":9774,"Ġkontin":9775,"Ġtabung":9776,"Ġadipati":9777,"Ġequal":9778,"Ġequival":9779,"Ġdifference":9780,"Ġdieusian":9781,"tivity":9782,"ĠrÃ©ngking":9783,"Ġvokalis":9784,"Ġinvasi":9785,"Ġbalukarna":9786,"Ġattemp":9787,"Ġleuleus":9788,"Ġngeusian":9789,"Ġpresident":9790,"Ġsantiago":9791,"Ã£o":9792,"Ġkaparigelan":9793,"Ġpeujit":9794,"nd":9795,"sat":9796,"ane":9797,"Ġbing":9798,"Ġbani":9799,"ĠnÃ©p":9800,"Ġnulungan":9801,"erian":9802,"Ġcatur":9803,"Ġlub":9804,"ĠhÃ©a":9805,"Ġgemp":9806,"eluk":9807,"iluan":9808,"etah":9809,"Ġpir":9810,"ebkeun":9811,"ujuh":9812,"Ã©ntangan":9813,"Ġnyak":9814,"oshi":9815,"Ġcomets":9816,"Ġharam":9817,"tosa":9818,"Ġze":9819,"Ġngarang":9820,"Ġmoving":9821,"Ġplate":9822,"ffy":9823,"Ġpaus":9824,"Ġlost":9825,"Ġmerdeka":9826,"Ġcarol":9827,"Ġedge":9828,"Ġsebuah":9829,"Ġgaruda":9830,"ĠgolÃ©k":9831,"Ġmeitetsu":9832,"Ġnelah":9833,"Ġraket":9834,"Ġdenmark":9835,"ĠpÃ©ron":9836,"Ġcommunity":9837,"Ġlayer":9838,"Ġancur":9839,"Ġletusan":9840,"Ġmaxwell":9841,"Ġarmada":9842,"ĠhÃ©rang":9843,"Ġpadumuk":9844,"Ġkaduana":9845,"Ġheuras":9846,"Ġalumni":9847,"Ġflorida":9848,"akusumah":9849,"Ġkawajiban":9850,"Ġhtml":9851,"Ġdinosaurus":9852,"Ġannounc":9853,"Ġvictoria":9854,"Ġbehavi":9855,"Ġdouglas":9856,"Ġkeramik":9857,"hd":9858,"uji":9859,"Ðº":9860,"Ð»":9861,"Øµ":9862,"Ġtentang":9863,"Ġmuc":9864,"Ġsula":9865,"Ġsebut":9866,"Ġds":9867,"Ġbk":9868,"angtayungan":9869,"orth":9870,"Ġjupiter":9871,"table":9872,"iday":9873,"Ġlb":9874,"Ġlawang":9875,"Ġreureuh":9876,"Ġhep":9877,"Ġngokolakeun":9878,"amel":9879,"Ġwire":9880,"abah":9881,"esel":9882,"jir":9883,"Ġkalium":9884,"Ã©rasi":9885,"Ġnaek":9886,"Ġsakitu":9887,"otan":9888,"Ġpangeb":9889,"igo":9890,"Ġamat":9891,"unak":9892,"Ġspe":9893,"Ġbias":9894,"Ġreview":9895,"Ġhalodo":9896,"Ġngawasaan":9897,"ĠmÃ©ja":9898,"Ġgambang":9899,"itasi":9900,"Ġsubsc":9901,"Ġsorana":9902,"nie":9903,"Ġlegend":9904,"ĠpendÃ©k":9905,"Ġsekutu":9906,"Ġmandi":9907,"Ġcapital":9908,"Ġtabuh":9909,"Ġditamp":9910,"Ġngurus":9911,"Ġpamake":9912,"ĠnovÃ©l":9913,"Ġbikangna":9914,"Ġdescrip":9915,"yeong":9916,"Ġpublishing":9917,"Ġsalakina":9918,"ĠmÃ©tabolisme":9919,"Ġeinstein":9920,"dehida":9921,"ĠprofÃ©sional":9922,"udidayakeun":9923,"å¸Ĥ":9924,"Ġpanjalu":9925,"Ġagricul":9926,"Ġekspektasi":9927,"cos":9928,"here":9929,"yd":9930,"Ġuh":9931,"arga":9932,"Ġaus":9933,"Ġbenggala":9934,"Ġnangka":9935,"Ġdidi":9936,"Ġiz":9937,"adahan":9938,"Ġling":9939,"Ġlagi":9940,"Ġngonsumsi":9941,"ule":9942,"agaan":9943,"eungh":9944,"kay":9945,"udan":9946,"ektor":9947,"andungan":9948,"Ġkuala":9949,"Ġapa":9950,"Ġpanungtungan":9951,"tase":9952,"Ġperad":9953,"Ġchit":9954,"Ġusers":9955,"Ġdeep":9956,"Ġsamara":9957,"Ġseven":9958,"Ġwaragad":9959,"Ġexec":9960,"ĠkolÃ©ksi":9961,"Ġdiwatesan":9962,"Ġdileupaskeun":9963,"Ġxy":9964,"Ġupami":9965,"Ġsiklus":9966,"Ġscott":9967,"Ġkatutup":9968,"ĠØ¨":9969,"Ġexpected":9970,"Ġtopi":9971,"Ġniat":9972,"Ġwisat":9973,"Ġkemudian":9974,"Ġdisingg":9975,"Ġtsunami":9976,"onyod":9977,"ĠgÃ©nus":9978,"Ġngaronjat":9979,"Ġbroadcasting":9980,"ĠfÃ©nom":9981,"Ġkazakh":9982,"Ġluxury":9983,"Ġraloba":9984,"Ġtransmission":9985,"Ġtindakan":9986,"Ġexternal":9987,"rata":9988,"yuh":9989,"Ġmember":9990,"Ġside":9991,"Ġbid":9992,"Ġbangun":9993,"atah":9994,"enberg":9995,"Ġcek":9996,"Ġlada":9997,"Ġremp":9998,"Ġngin":9999}